le
enabled
assumption
sighed
##yria
##gle
02
geologist
hung
diana
oleg
rigid
sights
##dened
##sant
##zman
soon
wheels
[unused536]
joyah
birmingham
filmmaking
##grating
1747
adherence
##ন
excused
fukuoka
frs
[unused441]
金
##nburg
[unused674]
##ր
filippo
gavin
社
disclosed
freighter
##ation
reside
u
indexed
pops
lively
testosterone
##sville
freeman
voice
discovered
swings
physiology
[unused323]
ink
fairy
##is
faults
jin
drivers
colonies
bonfire
braves
ke
juliette
croix
locked
##ℝ
lisbon
recruited
##tzer
valve
sabha
β
inheritance
eat
cum
furry
##ɴ
admissions
bobo
clockwise
2010s
##pose
processors
##shot
1740
howie
roma
[unused428]
##v
murray
pew
characterization
suspected
arrogant
confusing
outburst
##相
conditioned
##estinal
galleries
cancers
##on
glitter
media
[unused191]
##bury
[unused88]
wyatt
maker
mira
turns
game
[unused377]
[unused401]
[unused576]
needed
underway
[unused767]
##ues
erupted
nothing
arcs
gt
baffled
lamp
shankar
mk
##ョ
cpu
ferry
staples
##nica
croatia
##itis
twists
delivers
tuesday
[unused121]
##corp
jockey
requesting
cantata
##aking
##hony
browns
basilica
flock
##ニ
footballer
##uri
bishop
mattress
operatives
killings
lid
dominique
flashes
fury
joo
sarcastic
##bet
1643
##atus
histoire
justices
##ory
laying
niall
foreigner
leveled
##viere
projection
wave
atv
highly
je
##ces
crippled
brakes
blushed
stereotypes
bismarck
draining
week
variously
70
##olin
radial
##die
cry
1834
amalgamated
bald
consulted
boats
nelly
##ου
##yard
##lding
cambridgeshire
fashioned
##dell
bluegrass
graphs
parchment
1847
huskies
shale
[unused627]
que
##ffed
##b
asked
magnum
[unused184]
playground
variants
ipswich
professions
guarantee
militias
duval
isbn
collected
bertrand
##fixed
1725
##color
municipal
[unused199]
detention
merits
##þ
##ع
preserves
reiterated
##nent
pine
winfield
determination
nile
motif
tolkien
190
sided
spacecraft
hopkins
tires
guillaume
naples
founders
civic
wheat
forcefully
antigua
294
##tered
demos
spoil
faust
valencia
艹
dozen
penny
showcase
starvation
spread
carmel
narrower
regaining
##ca
lester
declares
rice
football
richardson
##ott
##ʿ
contractual
onions
filed
sober
banker
pop
inquiries
37
##pro
pike
bodo
bleed
won
##tr
bordering
vichy
rave
##phone
gears
billionaire
hen
1665
-
inhabited
##mora
trying
ɲ
##sio
colt
categories
circled
hampstead
maris
excerpts
order
subspecies
treated
pass
##pan
1894
busy
possesses
shooter
ladder
bilateral
unmanned
incorrectly
instances
candidates
[unused871]
obligations
1984
murder
realized
scent
salzburg
cent
similar
pistons
beethoven
1874
##oe
##uk
##anal
disabled
filmfare
mcmillan
##ngo
##rae
fein
buddhism
quick
seizures
believer
comforting
##µ
##ლ
countryside
##wd
el
jameson
ito
libby
##qi
expands
london
plaintiffs
solvent
beers
opera
ritchie
gillespie
unpublished
vehicles
trash
##agi
##line
saint
[unused606]
peters
sloping
conflicting
spores
masovian
##sier
turquoise
temptation
parasite
dramatically
hagen
temporal
sent
yves
southwestern
sherry
morrison
wilfred
sonia
courthouse
##lane
examine
stem
eight
##walk
regional
[unused804]
##ini
date
explanation
announcement
salad
accusing
hunters
##lis
damage
wednesday
fordham
illusions
##lip
houghton
services
cultures
upwards
supernatural
bureaucracy
dos
fellowships
paperback
tired
under
sphere
##এ
inherit
jakarta
arrays
nino
sheep
1919
faculties
participants
enveloped
า
gym
710
upgrading
johannes
##gent
economically
traitor
##weed
kin
gdansk
##ᴵ
tribal
prosperous
sachs
1920s
ganga
##rest
ranked
doubles
##,
##ador
hahn
seasoned
geological
##hler
females
denver
我
cynthia
##orescence
##uka
nosed
jaya
heroic
##nc
recognized
writings
335
newmarket
manipulating
##dor
##jali
sweeney
advocacy
[unused828]
deprived
logic
##bbling
[unused502]
##open
establishing
kunst
lyle
pat
learners
swimmers
photos
##せ
fight
minnesota
conceal
ronan
##ian
tibet
albanian
douglas
converge
ric
deserved
annum
tight
##德
gp
[unused816]
manual
planned
trinidad
aarhus
greene
crashes
##ik
curtain
##rative
lucien
##laus
durable
cindy
##フ
van
apprehension
giro
curriculum
gallo
panama
##ibility
scotch
[unused955]
bison
##quisite
harvested
spencer
deserve
##cola
blind
cn
fleeing
≥
##rdes
benign
##ध
##erry
##inated
belongings
soviet
##m
##土
franz
##fication
hull
[unused486]
transient
\
itf
ponds
armada
apple
##sur
learnt
morphology
nick
occupational
astro
terrible
distinct
chun
drone
##bility
##ssar
halls
lagos
comprehension
leaping
##onne
forearm
orioles
disgusted
##ru
childish
##pid
revoked
##dro
##ggles
cardiac
##ulous
teachers
vicki
addition
v6
hugged
##yes
unrest
radiant
##pass
specific
woo
headlines
starboard
rating
spoke
tara
fists
##zh
archduke
northwestern
protests
remind
fellowship
##cion
consolidation
相
[unused968]
successors
song
pm
nutrients
pulpit
portico
steam
reclaimed
solomon
##quent
renovations
mutants
##fied
alternating
##ᅭ
counts
examination
chemical
##um
loch
meaningless
michigan
1839
wimbledon
refining
caesar
##plicity
hayden
forearms
marching
goddamn
search
resist
shriek
hayward
tunnels
pen
steve
cold
dail
##roid
##zione
##mming
corporate
##phate
gao
185
pont
[unused862]
admired
assists
cave
trafficking
ছ
##unk
photography
##rky
##hel
feather
##sos
investor
##guide
shay
steelers
theresa
heroin
238
lazy
dew
comte
innovative
غ
smackdown
lillian
photographers
division
extinguished
hesitant
remington
impairment
view
consulate
ideology
##por
stab
bug
##lined
scots
skinny
banished
##ox
compensated
places
##ccus
ali
promising
secrecy
flower
fascinating
[unused910]
oath
seamus
battlefield
elm
1753
phd
constant
kade
trusts
felt
fourteen
yahoo
neighbourhoods
bits
est
opened
thud
dormant
tribune
passive
sara
hasty
##tec
wrestling
funny
diocese
nationalities
coincidentally
distraught
freed
pcs
susan
[unused26]
##bei
speculative
gossip
rosen
infection
##lism
bernard
fe
miscellaneous
##atin
encompassing
##vered
garfield
huffington
##ora
##シ
expand
appealing
organizers
commanded
##lellan
cosmos
gentry
stripe
searched
fascist
phones
##ettes
##avi
booster
lei
[unused722]
polynomial
ratings
recipes
ি
superhuman
##lam
##gc
soaring
¡
centrally
158
##oris
orbiting
ideas
aquatics
[unused77]
admire
bell
##zai
morale
glorious
trading
[unused426]
211
##sun
sensed
walnut
drawn
##hammer
small
##jad
reassure
reporters
tha
anticipating
rom
buenos
computation
mortimer
##ieving
bender
##region
##ifolia
##athing
vanity
walter
lad
amusement
mineral
lam
##ᵘ
##psis
andres
detained
sailed
marketed
309
168
drink
beit
maps
##ʔ
1648
beyonce
departmental
anson
##urable
silhouette
ನ
##vill
twitch
##ɕ
hollow
raced
gogh
dying
botswana
alter
##active
[unused130]
[unused814]
instructed
primal
##ddle
ist
low
forming
stole
##erated
##nin
mocked
[unused214]
madrid
trailer
nirvana
giants
till
paused
##ত
translates
##rup
commended
##侍
unlock
fluttered
hardness
repairing
terror
entertained
jacques
##end
##hil
arise
slip
transmitters
ে
bard
##gic
sinclair
whole
gas
##cape
luggage
capacities
slogan
ℝ
##market
delilah
##ии
##orn
##ト
imagine
pisa
##stan
immaculate
09
[unused40]
batman
chests
accelerating
demoted
composition
sep
fork
narration
evolve
diagonal
##ร
steady
query
happily
record
infirmary
##ych
kiara
##reen
conceived
mongols
##kovsky
tailor
pepper
##cci
##sling
lottery
##nca
cu
master
nape
scotia
sioux
б
ح
cheese
covering
wrexham
breton
inhuman
ras
maternal
raymond
ares
ghz
venue
120
##kus
—
[unused768]
1680
vicky
welch
supervised
collingwood
bulb
shiny
observed
gaza
pontifical
secretariat
fledgling
##2
tabitha
definition
##⺼
gifford
creating
divorce
##kers
mister
##bius
bergman
counting
wholly
##fi
california
girl
reliability
gary
banda
##hard
##bel
stationed
endelle
soo
dynamics
##mond
hidalgo
enrico
ک
economy
[unused758]
##rick
provide
##tl
##zawa
mori
airline
123
debuting
purity
descendants
honorary
identical
pounder
pathway
storyline
slang
[unused913]
established
wolfgang
##mbo
オ
cockpit
minds
華
skipped
clare
deeply
insistent
trusting
serene
friendly
boundary
chiang
##^
churchyard
worth
##shore
##語
##tray
##tt
fearless
throughout
violins
trunk
wrist
scares
searches
[unused740]
delivered
greasy
[unused395]
850
caretaker
buick
goodwill
corresponding
feeder
stupid
##static
talon
ᆫ
ghanaian
expelled
weaponry
##words
polled
nbc
mans
auto
[unused771]
kid
##mad
ט
sore
##gold
falkland
##∈
iconic
k
genealogy
propped
mor
arms
societe
##mism
##lberg
project
sensation
swirled
[unused327]
[unused221]
intro
[unused546]
gable
[unused562]
tornado
antioch
##rization
contrasted
forks
density
[unused215]
[unused800]
##յ
leaflets
article
asbestos
springs
sundays
##elli
##oat
##otted
crosby
arguing
seems
sometime
##keeping
empathy
orton
fenton
##ratic
coarse
butter
marissa
advancement
voter
[unused842]
##vi
commemorate
consort
exponential
showtime
permit
sapphire
##cala
lea
##zak
willard
html
##º
198
sydney
30
spaces
##ndt
dime
worlds
reprise
superseded
sweeping
1935
tulsa
manifold
1
assert
ᵒ
danish
him
##tick
servers
accommodation
eton
playwright
awards
claws
aramaic
[unused72]
##fer
##stadt
densely
almeida
donnie
republicans
giovanni
vents
bangladesh
##comb
awake
##bler
pickering
hovered
##ability
previously
linguist
մ
treaty
##week
th
wink
radar
akin
limitation
encompassed
##皇
fucking
observer
romano
fragmentation
osman
commerce
[unused114]
ae
kyle
##nted
compromise
educated
[unused50]
inca
1625
optic
0
bane
cargo
ely
lloyd
otherwise
##カ
slacks
##cise
blackout
##zbek
organ
pts
das
outline
bright
出
sees
luxembourg
##ement
atm
scowled
hornet
skeleton
convened
##eim
monaco
abdominal
governorate
255
dislike
conway
[unused133]
teens
##omy
##bos
offers
##witz
##eza
communicate
stocked
epa
has
yue
چ
bruno
conical
tornadoes
trolls
##inge
breaks
9
248
##rricular
##দ
[unused984]
1683
ნ
##文
adored
ハ
motorcycles
newer
middletown
descending
ル
gottfried
havana
partition
2003
button
consumer
##ically
spotted
##fl
##ost
knicks
cinematography
##ャ
composed
dedicated
offenses
contemplating
tricky
tobacco
##主
##vable
##rana
lawsuits
coconut
responses
portuguese
shift
indefinitely
promoter
manchester
rovers
sucks
thematic
##eum
[unused976]
solo
barely
##海
dimension
rebellion
consist
bahia
heroes
db
most
1904
195
[unused13]
admission
defendants
frances
southampton
た
planes
##ikh
gothenburg
local
erotic
囗
bodyguard
##名
plays
breakup
m2
auschwitz
karate
currency
##av
athena
crested
jun
smiley
##gue
frontal
##bution
violin
licking
partnered
bothered
gabe
##ield
pembroke
forgetting
attitude
patricia
partly
se
complex
constructing
##eurs
injured
dice
grow
##berg
analogous
bellamy
268
[unused146]
mandated
softened
sweating
warming
cornelius
##lle
manifesto
venetian
immersion
pulsed
specify
arcadia
istanbul
ю
清
accept
adventurous
##zin
presentations
tko
9th
circular
ict
firefighters
[unused219]
##:
stimulation
died
extravagant
##tub
mathias
kaufman
##ths
wings
functioning
##ふ
fabrics
millennium
##ience
nude
ordering
##ible
##can
opening
yep
##sir
becker
dietrich
breast
glands
tiny
certificate
collect
##tative
trailing
##ded
##oslav
##uld
campaign
memory
scratches
voluntarily
counted
##hum
wright
looming
amateurs
intercept
torque
auxiliary
exits
metropolis
helmut
indies
shaft
guarding
bureau
describing
kiel
ی
domestic
38th
basketball
##พ
motorsport
attempt
basics
stand
at
wai
目
gilded
##stream
##ieri
##sing
dwellings
troll
ambitious
alive
xbox
千
blended
##yana
wc
##itarian
masses
##urt
dubai
puzzle
romeo
##word
irresistible
her
##ic
lara
guy
dynasty
panted
peeling
salvation
una
stanford
##flict
dockyard
1717
retention
tanks
armenia
pixels
wee
delle
unreleased
continuity
##band
larsen
bahamas
educate
rebuild
scenes
jerome
bouts
authorization
159
cumulative
44th
figures
##л
##ﬁ
hand
eighteenth
indians
prostitute
front
paulo
slap
beautifully
[unused391]
747
leipzig
merritt
suddenly
###
##umatic
busted
calculus
composite
279
presidents
alexa
##ary
conservatoire
outlines
##wes
##ə
cad
deny
prince
pu
dizzy
犬
1688
imposed
christchurch
##aver
censorship
trace
ashby
##him
substitute
[unused948]
convinced
##nad
loves
gloves
adorable
serving
[unused605]
mayo
memorial
molecules
vulcan
##mian
##tum
[unused118]
scorpion
dispersal
ordination
451
avant
##athi
fields
10
##ка
[unused372]
##ena
talking
ћ
contradiction
##∞
##ந
elements
##ulin
brow
##х
##ution
fuji
ik
##kovic
[unused747]
mathematician
##meric
oaks
trojan
emitted
intervening
belle
artisans
grimaced
unauthorized
allowance
##£
appointments
severn
##ᅢ
alpha
group
21
combines
keyboardist
users
peeked
cd
##storm
exercised
[unused572]
ticking
bottoms
shown
absolute
usually
iran
rutherford
certified
##ular
orchid
grass
art
fortunately
magdalena
decoration
delightful
hades
[unused383]
subjective
independents
adapt
1890s
exercises
whilst
dixie
##ख
employment
##ড
booked
convicted
馬
crops
stumbled
ք
[unused321]
timber
removed
##cend
genera
coincidence
recreation
weimar
appalled
outgoing
following
suburb
##aq
##jing
maddox
properties
##高
mainline
columbian
everton
hague
1843
mater
culture
ballistic
federally
norse
boot
##mate
collection
panorama
restarted
expected
ow
escorting
1782
##в
amelie
hitting
resting
slant
pei
brains
stage
dense
amateur
cambrian
emperors
risks
ு
##que
bulldog
laval
posters
sp
##ulu
jock
presumably
slices
##pia
simulations
antwerp
##ote
protects
ascot
canadiens
ala
furniture
walters
##lving
##cure
##writing
lp
fishing
renault
scheme
lawyers
ronin
##マ
babylonian
##upt
##合
##法
shopping
creepy
sport
armed
ย
houses
confirmed
##fight
recruits
barbara
differ
remotely
sit
uncertainty
gigantic
petitions
340
caucasian
gland
organisms
require
%
1808
everyone
reminder
divisions
macy
wheel
##ains
formally
##sport
underside
vigorously
jiang
blackburn
knowles
##ttle
floral
humans
nemesis
tread
techno
factories
forsyth
clusters
features
kissed
chaotic
##head
charting
prestigious
西
##thal
input
##hoff
mbe
pleasures
hamburg
mountain
sarcasm
##urian
450
cents
answered
missionaries
##erik
[unused491]
empire
factions
lookout
pendulum
##castle
##ctum
##ni
##romatic
bought
formations
independence
wood
ominous
obviously
approaches
accord
scented
nam
##worth
info
organizes
##ut
[unused558]
onslaught
##uted
##ind
percentage
inline
verbal
sour
over
maple
seasons
##dya
##ワ
##zzy
sun
##cre
teenage
eighties
uganda
conducted
##urer
[unused198]
sage
improvements
reactivated
several
cain
twenties
complied
##gart
[unused770]
herb
while
torment
dealings
return
timbers
encourage
##成
allan
watering
citizen
windsor
##cology
syrup
korea
controversies
symphonies
flyer
urgent
∗
boarding
wong
男
subsistence
##osition
sailor
desired
##nath
atrium
quoting
defences
##hell
##ysis
peoples
practice
cary
warehouses
persons
mussolini
doncaster
##（
##ᅪ
connectivity
outspoken
outrageous
strength
southbound
crews
1903
shipped
witnessed
##vik
##ub
##新
neutron
##oir
tie
cheering
navigate
al
##nnis
friday
operated
mrs
cares
／
favourite
vague
##liner
quoted
unpredictable
nfl
##ast
attributed
mca
congresses
scared
analysis
anwar
archway
appealed
christi
corners
bearing
##ils
##logic
##not
285
child
ian
prevailed
gregory
sockets
##holes
ceremony
articles
254
mcdonald
[unused533]
##ے
cicero
₀
choral
precinct
stills
##⁻
affiliate
##vius
voyages
##+
620
##wich
ot
stitches
##vet
deficiency
institutions
##nington
concurrent
dental
canal
providing
insects
shah
navigation
ト
##tonic
186
[unused775]
polls
wished
##36
[unused836]
intermittent
fae
##ᵇ
dominate
relax
thread
ju
carlos
incense
content
##9
[unused846]
monuments
efforts
clinton
##stra
[unused551]
cite
depicted
hydro
vineyards
tents
##entation
gunmen
##gie
201
nazis
tugging
bats
1934
[unused359]
rack
217
##san
1954
accreditation
burgundy
formulas
posing
##oped
spanning
¥
eagle
mckenzie
##hiko
electronic
sciences
ո
ض
opt
row
##oning
triggered
silvery
##rrigan
[unused669]
confederacy
meta
childbirth
sq
flap
enslaved
rugged
এ
policemen
forgot
[unused205]
goodbye
hawk
saved
п
sherlock
reefs
glider
townland
whom
alarm
denounced
dramas
e
debra
ष
##ŋ
##rites
fingers
##ny
##dry
tour
scuba
m
slovenia
##mu
##გ
[unused35]
responsibility
##ey
dorothea
##ud
loser
lyric
##rter
felony
56
##taka
[unused561]
[unused42]
documenting
angles
strategies
favorite
##ნ
bunch
chevy
goa
subtly
worthy
dharma
##erman
entitled
rocks
gunter
##ج
fragile
symbols
informed
cm
خ
sweet
च
saudi
fulton
herzegovina
magician
##elis
##ification
airfield
cocktail
davis
dropping
grim
inclusive
benoit
coral
##cles
embedded
stir
cho
##lington
shrewsbury
sourced
oblique
rank
expeditionary
promotion
outputs
scores
robertson
##86
##bolt
confines
kat
[unused295]
dolly
flux
phillies
##iot
lesions
transmitting
far
incomplete
mutually
outdoor
cancer
##st
unconstitutional
[unused348]
erratic
nodded
mouths
lena
##trick
collision
preliminary
therapist
controversy
##五
[unused291]
alonso
championship
appeal
leinster
palette
sociological
performer
capital
©
zachary
[unused903]
briefly
mushroom
##tangle
outright
rouse
##hner
earrings
ut
vein
nobles
dumping
mothers
string
cream
bliss
airplane
theodor
cash
wins
##ily
suffers
torpedo
contrary
agency
dominance
academic
alternatives
uniformly
##tem
coloured
potatoes
behold
programmers
vaguely
##ja
food
inferno
orthodoxy
racist
saliva
hepatitis
intelligence
discontinued
worm
equity
cough
##ials
##eses
mv
oslo
gaston
##ulously
prequel
rains
ya
aground
japan
bf
helium
##date
locally
culturally
crewe
magnesium
partnership
ignacio
housing
measurement
oder
rep
ignorance
pseudo
repetitive
##hani
tile
bodies
##sed
##graphs
gordon
softball
cult
vanilla
charge
liberalism
jen
hoped
##ffi
achievement
calgary
gi
##vus
breathed
jurgen
hello
currently
absent
holding
completed
emphasize
recommendation
illustrated
dogs
trenches
cramped
speculation
##helm
emilia
schmidt
thanking
butcher
##ac
##makers
awoke
uae
stomped
##eal
courts
hannah
shredded
»
##fide
arjun
rockefeller
faith
abdomen
timetable
ib
[unused434]
##ions
appropriate
filters
62
burma
nassau
swan
##fo
##kind
314
resultant
##screen
##կ
javanese
##tive
##burgh
european
calculation
methods
camping
spices
petersburg
concurrently
madam
ং
celebrity
##field
crimean
##channel
stands
toppled
treasury
mi
mead
breached
ottawa
ferrara
philippine
boarded
##rey
sai
luzon
##lusion
finalists
1754
rail
pga
##≡
virus
officers
firearms
##gren
wesleyan
[unused461]
##⁰
mono
ng
outbreak
rosenberg
wartime
##チ
allen
denote
walton
brewers
loren
orchestral
nueva
##nse
##द
mannheim
schumann
crystalline
hr
amount
##vant
restrained
scenery
50
zero
ambulance
mortal
striker
punjabi
flavors
saxony
thee
hai
cara
old
townsend
##ˈ
jody
##nology
yacht
modern
jain
ns
humanities
recess
##75
dealers
locating
jaguar
teddy
##itzer
surrender
##neck
charlotte
messengers
##rsa
latest
extra
tissues
fallon
carthage
tenure
bends
civilization
ᵀ
ao
accepted
comical
unreasonable
designations
ρ
discovering
describe
dungeons
overlap
pulsing
thin
hangul
reportedly
##kson
sixteenth
##ann
backbone
decorate
compiled
##nik
##unce
memorandum
bowie
conditional
rural
##sam
##cel
banquet
procession
dex
denomination
##nah
##asi
collaborations
jace
verandah
obey
##η
##fall
reflected
rotor
howell
beaumont
[unused618]
cadillac
chill
runaway
り
opener
vast
##tucket
skopje
chattanooga
axe
##physical
majority
##y
represented
cornerback
genetic
'
##lating
emerson
marylebone
poorer
credibility
campuses
corrupted
parrot
seduce
bred
park
twins
##frame
examined
intrusion
bruise
carving
##jord
technically
congregational
waste
↓
##ben
uniting
unprecedented
orbit
adaptive
vamps
texans
engage
journal
monty
fractures
falcon
whig
##endra
##gration
##美
brink
platform
將
isolate
marshall
escapes
fourth
##erson
rankin
##olio
centred
literally
puget
[unused672]
shropshire
theodore
thorne
leopold
##iii
convenient
courtroom
magna
unanimous
prolific
productivity
submission
warwick
rust
microscopic
1500
[unused560]
vicious
cardinals
mutiny
##bino
##ism
sudan
##∇
wendell
colored
paced
##ɫ
##ologists
dude
stamford
align
fired
publications
##ii
placing
yet
qatar
winston
winters
lark
gunfire
radios
dion
son
knots
##ர
autonomy
tag
##ɬ
##dev
relocate
ᴰ
whichever
suspended
marquette
283
skaters
lyman
##load
bears
foyer
salim
approaching
[unused83]
novgorod
eyed
sammy
extends
¿
doctorate
‡
insignificant
inserted
1972
gabon
##ز
rejection
kuala
stumbling
displayed
brat
fame
esq
ケ
rosa
yeshiva
solely
[unused723]
widely
##acious
kepler
commuter
##ection
swelling
waterloo
orchards
haiti
1844
uptown
##points
11th
undergoes
knotted
contenders
##ث
bankers
campos
lauderdale
##pper
sacrifices
##ele
norwood
nikolai
preach
##hoe
镇
digger
minus
utilities
barred
##ged
mammals
quantities
##evic
steered
vocal
freedom
lau
##司
247
hallway
[unused456]
catherine
gravity
youth
radio
saxe
inn
yarmouth
bless
reversed
422
astronaut
montreal
nara
estimates
function
dreams
rehabilitation
islam
misleading
navigator
despised
advising
wwii
##oes
admit
toward
[unused827]
clarkson
lori
diagnosed
cuffs
soho
extract
##ბ
lining
##bah
por
proximity
syndication
tiled
uhf
wits
overland
1878
playback
##mar
termed
filthy
cringed
lang
repertoire
melodies
militia
[unused670]
wines
austria
ward
##天
backs
merging
trip
##ս
«
prisons
sync
transmitter
jo
rey
armando
snails
vectors
₎
ь
geometridae
became
streak
⋅
subsided
##ches
[unused319]
drake
strains
you
##ch
##25
##dents
bedrooms
disagreement
saber
shen
stronger
period
pines
##tain
##uman
atmospheric
moors
awakening
##gol
calcium
##egorical
regal
##formed
frown
hawker
kernel
1825
captures
elijah
footed
##ries
impoverished
1910
##inkles
tempting
##night
oldies
somali
bounced
conferences
coma
parc
clinics
##iv
palais
basic
alfonso
touchdowns
resentment
kilograms
inherited
##rom
actor
crowd
##take
threw
amtrak
accordingly
lucia
ς
##tic
nests
##lal
pub
vintage
##ui
##uising
schuster
quaker
hermann
discharge
stomach
commentaries
##ram
scooted
healed
twist
eel
107
widow
##楊
yuri
thirsty
crack
[unused232]
止
[unused225]
bce
boutique
roberta
carver
bmg
angeles
repeating
scholars
##etched
dropped
fitting
manager
proud
compiler
##ш
cultivated
singleton
青
findings
lithium
brass
negotiation
preserve
fisherman
rn
voices
ワ
harald
wrestlemania
bonuses
luther
pakistan
##lden
bro
funnel
holmes
protecting
minorities
result
yukon
rhymes
##ए
documentaries
estonian
feet
december
northampton
##ent
designated
arguments
hardware
121
mentor
collaborate
progressive
##mme
##ster
monograph
mecklenburg
lambda
delgado
##れ
##♥
uninhabited
breakers
refreshing
posthumous
թ
ballast
shouts
ensure
##wee
reproduce
loire
##sul
zebra
1649
▪
385
།
accessible
doesn
receptions
御
instructional
billions
copied
katharine
agriculture
prem
fierce
ware
##oda
cochrane
chromosomes
##bf
##uto
berger
controversial
demonstration
within
erika
##uen
basins
nagoya
##sat
sessions
##orin
##ta
barriers
proteins
gunpowder
arid
1872
showered
arson
bribery
differed
[unused41]
goodnight
##nsor
415
pedestrians
##vier
rouen
salisbury
erase
tickets
stein
first
##powered
##ging
##pling
##rama
##od
[unused169]
monstrous
##rys
oceania
networking
signatures
##us
##aine
nodes
chaplain
##nation
##key
whitney
villiers
城
chief
##gley
expressing
navarro
protested
sable
villain
cycling
bonnie
implemented
macbeth
##emi
symmetrical
plucked
ʃ
##redo
##sop
april
##tori
##oured
bathroom
shortage
faulty
trials
purple
դ
fredrik
##ria
##encia
lieutenant
movie
working
clarify
track
##leader
osborn
wrath
エ
##harat
##վ
##テ
apr
jonny
##inton
##itung
drugs
eli
enthusiasm
alexandre
1763
haryana
chen
apt
cooperation
meadow
##eded
boca
delayed
benito
arboretum
illicit
tertiary
barbados
campeonato
thick
mistake
applying
duchess
##め
referring
gear
proven
add
disc
weiss
##oons
freely
##ified
chemotherapy
##oting
##yi
burger
##mi
more
crash
concentrating
##tang
##udge
geology
greenville
##ly
engagements
[unused956]
marvin
coordinates
milwaukee
##zar
facilitates
261
enlarged
[unused868]
surprise
##krishna
installed
##jack
[unused789]
##fc
melee
slide
1861
##aya
fda
motive
[unused328]
##ₙ
##riated
[unused583]
1810
irwin
samsung
umm
parallels
rockies
intersect
thorough
electro
grunted
weeds
##es
##dee
wrestler
mega
four
##inski
openings
dartmouth
henrietta
220
suffered
accusations
windows
fortifications
reality
vengeance
messing
24
amnesty
gnome
traced
miss
vladimir
##zog
##puram
з
##ල
[unused889]
harris
##ivated
recounted
blue
ta
merge
exhibiting
jealous
sanchez
##lists
staying
##imus
retailers
amazement
athenian
[unused300]
programmer
##khan
##chan
њ
ł
ebert
professorship
defense
riders
kaitlyn
shareholders
slick
shared
checked
lamar
rus
£1
macau
childhood
condo
familiarity
##olis
neoclassical
smashed
##ης
amazingly
hysterical
noises
主
##crest
jeffrey
fighter
increased
##ess
##lham
c
##tically
emotionally
start
##rio
schemes
ironically
rashid
repetition
##pani
##cta
bleeding
க
directional
proposed
romans
steal
leisure
credited
nic
terrific
poster
hesse
shrine
gonna
belgrade
form
##hips
43
bellevue
shuffling
starbucks
briefcase
agnes
feminist
shakespeare
theatrical
embassy
maldives
村
##dan
laboratory
much
sarcastically
gubernatorial
##erie
prejudice
[unused367]
charted
missile
arden
##ax
capturing
embarrassing
brewery
hurst
²
##ivist
waterfront
[unused164]
selected
contention
##る
[unused112]
electromagnetic
racer
elliot
pepsi
##shaw
electoral
tossing
mclaren
agitated
relational
hound
wanting
##biotic
1837
shaken
##★
[unused78]
disputes
##ong
anywhere
demonstrating
##ᄋ
breeze
interval
##[
##aran
avon
fluttering
quan
##ɣ
sheriff
##rti
biker
fated
empowered
375
##ₘ
joao
marek
##glia
eco
throne
ʎ
english
innsbruck
force
remembering
324
angered
viii
knoxville
haute
wii
##buck
stranger
へ
kelsey
germanic
grumbled
249
cowboys
muttered
consistently
##⋅
finishes
among
治
portugal
voyage
scrutiny
shining
absorption
308
canals
martins
radiating
emphasized
grant
balloons
mascara
slides
signal
granted
duchy
→
meals
##信
ptolemy
vaulted
kiev
organizations
survivor
harmed
nailed
##hmi
##bola
haggard
jeremy
trauma
double
highlanders
enrichment
229
fish
gps
[unused80]
##tek
practitioners
tomb
otter
##阿
appropriated
freelance
lured
[unused849]
belgian
earthly
finally
multicultural
mirage
bosses
authenticity
[unused55]
possess
strata
becca
##cite
##ala
f
thrash
classifications
feb
flipping
##ingly
spare
hulk
245
hideous
sedimentary
##marine
stinging
canvas
psyche
##mum
crystals
hitter
jai
homeless
assumptions
frowned
##kawa
lived
##健
nights
antics
lyricist
frequented
[unused108]
orders
##brick
mitch
vilnius
##ke
bubbling
hydraulic
flickering
renowned
alsace
##lining
ic
lifted
bulk
stabilize
##wk
withstand
spotlight
blown
tweed
scaled
curious
regular
##suit
[unused977]
##lt
drought
1675
holidays
գ
##orne
##otic
atom
ᄐ
brady
carole
coffin
contests
dai
chicks
robson
##gee
slaves
circulated
guggenheim
ku
forum
birth
scandal
responsive
uber
##瀬
costa
ъ
frame
sovereign
##anov
font
[unused450]
contact
distortion
fossils
precedent
weak
fewer
midland
##ibar
cart
everything
##53
##dler
ammonia
barangay
townspeople
visitor
costs
bequeathed
nesting
##rain
lehigh
rather
centered
##uga
##hyllum
##hale
##sure
balance
ascribed
[unused838]
[unused495]
hitler
hoarse
slab
seymour
clark
##nb
agrarian
nephew
consequences
##aga
forums
heaviest
exempt
##roi
[unused872]
##type
bicycles
extracted
titus
decorative
wasting
##df
##how
towels
##ᵉ
biscuits
##cho
durban
flavor
totaling
frankish
knesset
overwhelmingly
anterior
cautiously
##vb
shields
1830s
[unused859]
lds
##mura
boots
loved
،
intersection
placement
litre
alternately
reproduced
##gling
infinitely
49th
##bourne
duet
leafs
scary
template
strauss
dancers
attain
kerala
?
performed
catalytic
dragons
intends
##ol
hercules
duane
[unused17]
longed
rabbit
terrace
wally
##bid
ang
[unused86]
wolverine
##wright
##ashi
##we
[unused182]
integrate
multinational
rush
##ants
rotting
tent
amendment
mata
internship
roxy
salary
thicker
xu
##erian
diablo
wolff
polished
straits
helen
nickelodeon
1604
##nostic
ref
##hiti
heirs
victim
1884
dreaming
throws
kyrgyzstan
financed
paige
samoa
gearbox
[unused231]
centre
noel
nouns
manually
##ags
approximately
booth
##bians
bad
18th
hosted
krakow
programs
celeste
ashore
##ツ
francisco
della
colder
definitely
husky
##ส
corpses
kidnap
##kes
##osh
##sin
น
[unused924]
watford
[unused382]
saga
##rik
decidedly
##bi
[unused160]
town
##fus
baylor
direct
nad
poverty
##bbies
chavez
##iary
55
carried
maharashtra
cambodian
м
hesitate
budapest
hyde
##ag
digest
garcia
volta
ツ
epidemic
ashley
levi
1896
examples
alphabet
sums
await
##都
[unused402]
teenager
##cheng
mariana
##erus
lattice
疒
jordan
protagonists
outreach
sirius
##vian
[unused632]
mike
pains
##ental
r
##sk
feat
qualifier
540
parentheses
watch
cooling
##ז
##tsky
1939
##illa
##真
150
fellows
ortega
stefano
##心
bitterness
warrant
brother
hesitated
performs
three
celebration
altogether
##anor
##caster
employers
succeeds
##tted
[unused322]
##th
toured
camilla
##hos
##hof
strengthening
[unused516]
##base
animal
zane
か
##た
spire
ninety
eastern
np
##ischen
scala
##tsu
##tify
surgeon
extinction
of
##mite
clair
1829
chico
wisconsin
[unused891]
##ulsion
beings
mustache
molded
##sse
prism
witchcraft
##kovich
murderers
[unused71]
irritation
participated
titanic
##llin
envisioned
halt
plaster
rainbow
rand
wallace
hill
renovation
##国
broadcasts
##mento
reddish
walker
menon
clary
##ffie
clinch
##abe
grocery
fits
##01
##χ
##』
belonged
bargain
adams
friedman
camera
ho
##wei
berber
##kit
1848
shy
##rating
##fighting
benefit
##kian
sql
##rates
gui
polo
wr
acute
##iza
blossoms
##lly
##и
wife
interests
ufo
##ノ
interception
helena
idaho
refuse
1960s
contemporary
fool
dawned
##arty
##dden
automobile
captured
europeans
##iciencies
death
juveniles
##werk
shuddered
required
harp
centralized
##rath
1995
cursed
churches
physicist
participates
sweets
##ح
chichester
კ
##ল
tavi
avenge
∘
genuine
volkswagen
##building
ricardo
islamic
kazakh
1968
afternoons
liter
links
kyoto
ritual
readers
enoch
felix
★
garden
abilities
martian
239
twitched
##arney
kind
planting
coughing
caste
mab
then
caitlin
stilled
researchers
ʼ
nascar
twelfth
##vn
intern
family
dalai
massachusetts
aimed
conversations
fantastic
ground
below
orient
blurred
floors
segment
##nock
sentiment
spokane
食
landfall
##uter
##pts
head
photograph
##lete
1911
reich
##nee
##iya
shandong
##на
##acio
metals
scope
adjustments
alterations
nay
ridley
surgical
tracts
##rist
crusader
distinctly
indirectly
」
wetlands
##ulent
invade
[unused655]
[unused96]
event
##riding
kilometres
putting
argues
seal
rehab
delicious
fuzzy
##ale
176
bazaar
chips
ranged
instruction
##crat
marked
[unused544]
ff
marko
motorsports
studies
س
bomber
ן
medicare
drafts
##lmer
##idge
medal
dodge
historian
cummings
##ffy
##თ
southern
aunt
ж
superhero
nacional
functional
[unused927]
trust
garment
inhibitors
ropes
##₀
##pl
##ona
##ively
hawaiian
prix
darryl
campbell
phases
##sia
cutting
lost
theatres
দ
goal
calvin
expertise
durham
terminus
courage
##ies
classroom
lips
bunker
grandparents
rochelle
##folk
slung
##rani
eliot
scrape
flourishing
straightened
occurrences
##yas
##ndra
bicycle
darkening
dilemma
hiring
wait
loss
##馬
aggressive
superstructure
td
##wood
##chia
punk
edmund
950
like
alongside
##青
##ff
clasped
ceded
locke
reinforcements
fargo
remastered
probable
conrad
destroyer
flick
kia
yearning
steven
spd
molecule
##ocks
secretly
riches
shells
grassland
travelling
pradesh
##escence
nations
##arina
##gible
##idium
[unused103]
aside
##dam
criticizing
lancaster
elephants
banners
cricketer
kilometer
perched
the
lee
collaborators
cheap
amounted
fine
##lius
##chel
ulysses
##ometric
deliberately
##rgen
mandal
collateral
gibson
realistic
lair
auburn
nervously
##東
announcing
minimum
enforce
[unused939]
journeys
design
[unused404]
te
##張
##oton
than
##body
releasing
gough
geoff
##titles
##ulates
brazilian
trieste
monitored
##borne
##no
exemption
99
unmistakable
chatter
due
las
based
underwear
battling
##sov
[unused320]
out
reno
##gs
doom
##nbc
harlow
woodward
[unused981]
allowed
##woman
muriel
1833
beg
killers
##⁸
infinite
tract
invented
angel
desperately
##sity
contains
grenada
oregon
extending
handy
tracey
accomplish
##ih
彳
263
##raf
pious
purification
lombard
moravian
13th
necklace
suck
[unused675]
##rd
[unused785]
monde
grandpa
pioneers
description
maharaja
unavailable
outlawed
fallout
venezuelan
caravan
join
##dermott
##ʂ
pay
settled
arriving
##isa
arsenal
fabian
17th
sigh
tung
[unused870]
developing
climbed
[unused347]
downstairs
chesapeake
handsome
ᄑ
##tila
hawke
britain
advisers
avatar
history
active
##41
breeding
parties
rowe
##j
large
##coat
medalist
ingredient
nash
introduced
seamen
94
##ting
gardner
diamond
breath
bean
machine
octagonal
##北
1634
linear
##inatory
fernando
emile
##vies
coincide
y
decree
stepfather
『
speakers
##nikov
##ӏ
creatures
mail
betsy
when
##rden
85
runs
liang
mode
rochester
～
larson
oriental
李
definite
gulped
##hed
##tique
不
scroll
afforded
imply
doctrines
authentication
##nified
realms
antoinette
indications
operas
siegel
[unused99]
regatta
appearing
clemens
cruz
emerald
saskatoon
[unused190]
##iography
opposed
aircraft
russell
sugarcane
crouch
taekwondo
linguistics
[unused279]
blockade
calhoun
##bina
blame
kg
ruby
##正
=
robotics
##21
tensions
1713
wanderers
adrian
england
##ら
inability
ambushed
##א
##⇒
inquiry
symbolism
ל
ں
##rada
francesca
frescoes
mantra
room
industrialist
##bala
##hila
##aring
[unused65]
referencing
targeting
potomac
##☉
titans
humanoid
[unused949]
∨
matrix
involved
locals
twinkle
##under
tap
andrea
dresser
remains
andrew
systems
shouted
repeats
technical
##oman
ᵇ
[unused427]
seminal
##bruck
attract
##ogy
o
arithmetic
##rned
tackles
toni
premio
##ane
##oid
tried
garbage
北
juan
bruins
lawson
rte
sale
spoon
tastes
##lovic
##try
heels
rosemary
##®
populations
des
2019
instant
snout
orange
ec
questioning
localized
##cht
apartheid
crop
monarchy
institute
ezio
##quet
opaque
latvia
remain
##pre
##gger
henry
marie
##ル
clap
##yed
doubted
purported
mounts
bela
[unused515]
cabinet
complete
crotch
phillips
36
tourists
1991
platforms
reissued
normal
auditory
audible
[unused595]
reef
directed
jordanian
ා
announcer
archery
confronts
rye
nope
[unused664]
straight
favorably
labels
nonfiction
barnard
[unused695]
prevailing
slender
release
stiffened
##rger
##lbert
obligation
graham
regulation
##eber
##xes
forwards
whaling
amended
ე
beef
##yst
glued
haitian
cone
henrik
sprung
lucinda
alliance
##mber
olga
ford
##ゆ
maturity
transmit
##aa
absorbed
ahmed
spitfire
header
poorly
*
vu
naked
toned
##shin
bells
sofa
airports
[unused765]
angela
comprised
incidents
norton
[unused366]
free
##filtration
lahore
parasitic
[unused653]
mechanisms
pronouns
bea
vine
additive
occasion
##analysis
gomez
grasslands
docking
174
grants
bottom
celtics
alaska
culminating
fingered
tongue
গ
dwelling
completes
aaron
martyrs
fatally
turret
த
aloud
mueller
##pur
1742
ion
shoes
##pton
straightening
henderson
horizontally
##earing
toxicity
healy
frogs
drops
harmon
ages
reflects
clearing
paperwork
##kim
proceed
ghent
nike
infringement
##coe
##lova
filing
mythological
##yoshi
tack
adjacent
##izzly
staffordshire
encoded
pure
kazakhstan
##note
explicit
prototype
##400
##ᵣ
chunk
passing
thornton
country
clips
discarded
weakened
##16
keep
pontiac
mon
[unused339]
blinking
selects
[unused749]
##use
##rito
##rdy
shelter
legged
##ling
plunge
upland
ᅪ
aren
hubbard
carrot
albeit
bafta
chooses
259
awarding
divinity
##@
farmhouse
integers
proctor
senior
##cm
##uth
737
hilarious
oman
stench
##lean
demetrius
grounded
mahogany
陽
beard
##loid
[unused829]
czech
nominate
singers
attacker
##fine
mist
monterrey
operators
thoroughbred
[unused796]
188
[unused570]
householder
traveling
tugs
halted
pretoria
hottest
peshawar
250
randolph
relics
##antly
waivers
govern
narratives
##vor
torso
providence
lasted
##ples
valid
technologies
colony
samson
domingo
##iani
distinctions
jurisdictions
steadily
stretched
[unused712]
mb
strapped
customs
stockport
173
claw
##sso
hurdles
stalked
##uit
1921
##ᄉ
those
321
infections
blues
drunken
scarce
##fields
builders
anne
executions
lasts
##ி
##sberg
##ulia
hungry
イ
家
##vate
##ove
##unes
##ads
constitutional
∪
wb
stepmother
pornography
burned
events
##cuit
privilege
commercials
hyun
##omi
thwarted
[unused390]
1792
##3d
interrupted
tribe
correspond
##movable
perspectives
hamburger
cp
listeners
##ien
fowler
jurisdiction
##‘
assyrian
islamist
likelihood
racial
poultry
derives
influencing
worker
fairness
陳
colonization
fishermen
fashion
males
averaging
##with
[unused817]
chuckled
decades
ferries
grips
[unused631]
kara
acknowledging
fremont
paris
##ᅴ
##vary
র
[unused422]
achieved
##cheon
mechanically
mouth
sensible
ェ
karin
labour
albuquerque
volleyball
carter
##wise
##ま
##ʼ
endowed
bloody
##erton
kidnapped
naval
##レ
citation
kenny
##farlane
paul
everyday
cinematographer
timed
##oder
श
##oys
130
bishops
langley
lauren
ace
cbc
##rted
ད
ლ
bhutan
ignorant
mediterranean
##tta
##§
##bo
scholarly
stimulating
[unused880]
##ations
displaced
tun
memorabilia
achieving
signaled
heidi
mentoring
カ
trillion
shifters
comedian
##born
##iferous
maxwell
torah
gruff
advocates
blanchard
speculated
##flies
broad
570
##ನ
chores
inhabitants
electrically
american
canucks
batch
##atal
fatalities
##本
bien
ragged
##dron
managing
amendments
burnt
finishing
##て
eleanor
1086
repository
analytical
interesting
gene
identifiable
shawn
##ctive
monroe
tuck
runoff
limousine
##lers
latham
##af
sharply
aforementioned
rocker
guitar
##dos
grit
politicians
ך
travers
##cript
tenor
##rco
dwell
##lick
1744
gentlemen
mcgregor
un
gulp
chandler
dose
313
sustainability
##chs
bully
scripture
smash
##月
chile
titan
##ᅧ
##icum
nrl
shape
##uke
patrols
rallied
beast
sincerity
immediately
sipping
hose
martinez
westbound
1764
gold
isla
shaggy
sphinx
jupiter
##age
autonomous
selfish
embarrassed
xiao
74
raphael
interlude
quezon
taxes
flutes
blazers
unease
struggle
sixty
ashton
tear
underneath
frenchman
exceeded
received
very
##yeh
crying
counter
groin
busch
etat
monster
##entes
narrated
##oza
911
shirts
##ظ
[unused213]
endemic
[unused1]
##neo
babu
coventry
inactivated
exploits
murmur
provider
##obe
rhyme
54
##mbre
mallory
abolition
##ws
##ᵃ
bel
relying
somerville
bold
⺩
চ
entropy
invasive
₹
242
database
silky
specializing
completely
##rrick
includes
##her
fingerprints
ounce
forceful
relieve
warns
##n
15
2nd
##itive
wired
##law
630
batted
saving
##icles
comfort
annette
off
struggles
cdp
ふ
barney
##ust
details
inner
miriam
australian
liszt
forensic
##hett
liberated
##⺩
fraudulent
hear
curtains
tries
##bay
##ric
jimi
##script
##over
⅔
##stituting
##imi
torpedoes
##icide
merit
retrieve
##anne
concentrations
mastery
sui
calf
led
herr
favorites
##zes
##rga
##थ
manpower
prediction
##ign
##58
piercing
sagged
exterior
neon
scientist
puzzles
rory
tattoos
shield
astronomer
zimbabwe
defining
memorable
issues
##ira
##rt
collapsed
eleventh
peering
halfway
##bly
himself
driving
rosy
superior
andreas
streets
adultery
[unused542]
birthday
shouldn
##iance
frankly
silicon
wedge
##ᅲ
whimper
yoon
##ल
##drop
370
singled
ধ
ceased
carvings
##ₐ
##osis
improvised
contemplated
[unused196]
stupidity
rs
draped
confusion
##aea
growth
##ber
withdrawn
district
encouraged
##β
jenna
shelley
compares
##chev
deposed
detonated
it
swayed
super
bronx
bobbie
restraining
fry
##very
あ
battalion
affairs
condemned
##horpe
militants
##eni
badminton
rules
synagogue
traders
##peed
hatred
[unused590]
computer
"
leaning
##ナ
copa
occurring
ban
pena
registered
spa
cleric
x
##dis
performance
security
petty
invertebrates
contaminated
##bs
melancholy
##amp
az
intellect
leaf
formula
restraint
drainage
jessie
picks
victims
object
provoked
412
warily
勝
maternity
[unused731]
conductor
relatively
273
reactions
ے
##，
##pw
crises
muzzle
hissed
1651
columns
desk
designers
mapping
##lma
grimace
reintroduced
rib
##logies
christie
barn
cola
vocational
seater
wanda
prasad
##arding
⇌
##pace
hunts
roman
edith
malacca
versions
##“
##uring
inspections
[unused759]
##kk
2002
chi
ariel
##sby
observes
samples
##icate
unspecified
temporary
astronauts
harshly
wagons
ck
magazine
cody
stature
oversight
disused
1701
closed
1720
fledged
friendship
investigate
sacred
##islaus
##←
drunk
indonesia
padded
[unused469]
worst
padua
talmud
johnstone
জ
judo
motifs
##lee
劉
##訁
##福
horde
runway
colombia
lb
1781
complementary
nonlinear
woman
[unused98]
bradley
deux
glance
mustered
jackie
##ri
competing
niece
stern
bis
biased
inland
saves
##28
##omba
brighter
invest
resolved
weaker
##ual
laguna
dixon
judges
paterson
debating
##fr
feed
mile
bother
negligence
sousa
www
evil
incidence
ı
leach
##oux
primera
mora
[unused506]
zip
##uw
educational
##ritan
looting
adaptation
arrival
revolution
troop
naturalist
preferred
printing
seafood
watkins
transparency
dish
1771
goodwin
202
northward
[unused986]
swing
theta
##ל
1952
grip
29th
auf
1907
scout
screens
265
dow
##grant
##tal
neck
invading
##ʒ
chester
qui
[unused302]
875
stopping
cobra
##lin
##ization
aperture
##fa
wow
yoo
senator
geschichte
packed
visiting
almond
##har
crawley
wealthiest
##hedral
implication
##vre
[unused102]
piazza
austin
afl
enemy
hannibal
tar
numerical
tabloid
butte
##hit
##uttered
accidentally
minded
paving
care
hogan
opium
forgiveness
inhabit
originating
##mania
wind
fifteenth
blacksmith
##laise
##uche
hopper
scully
〜
gerry
brands
glowing
cheng
specimen
nsa
bone
elites
##version
anarchist
winnie
bombay
gloria
operatic
balkans
tome
daughters
robust
curtiss
σ
daddy
liking
truck
parent
squash
pba
1804
##tula
##nie
##י
students
worked
cases
fullback
tendency
dances
fluent
ல
bas
burden
shooting
tehsil
う
##ttering
[unused850]
chancel
designate
leslie
surreal
swam
ث
yeast
##opers
dragoons
##ttes
##भ
train
vertices
seo
incumbent
yell
piccolo
wax
tottenham
mg
050
temeraire
##面
polar
intersections
orchestras
##گ
especially
susannah
restriction
masks
ain
destroys
brennan
[unused180]
decks
display
##hli
hodges
parochial
doses
imagined
grooves
look
і
##ture
[unused354]
##vati
begged
estuary
♣
constitute
filmed
rasped
axis
hardest
[unused718]
load
haunting
##56
##tara
virginia
ය
cc
als
families
rushed
charcoal
triangles
wary
homme
bathing
etienne
mansion
##jos
assuming
warn
rod
barons
fertile
readiness
##tri
albion
##hide
suv
lai
descends
clinic
ᄊ
goaltender
hobart
angelo
commuted
[unused646]
bahadur
representative
evangelical
sampson
##ons
aires
##stones
distant
encounter
##ba
zoom
307
grossed
otto
##uni
fairbanks
##ructured
##ᆷ
julius
relegated
##chester
velocity
##dh
obsessed
innovation
manufactures
avoids
dyed
knees
tails
defeat
##inium
centenary
graded
##∂
xx
kurt
brittany
rudd
severed
##ogan
[unused673]
##gon
administering
1987
calves
##pm
##ᵍ
ease
brew
##mology
##jhl
[unused826]
diplomacy
preserved
feudal
contractors
##aghan
##scoe
sensitive
stillness
rd
felicia
gradient
phase
1820s
##ted
silver
##haus
な
##hwa
hove
belmont
whispers
##aneous
praying
drilling
rajasthan
thence
shortages
charter
bowed
##gn
[unused365]
retorted
##nr
facilitate
subdivision
handbook
locate
comet
doo
angus
poses
princely
##insky
migrated
sermon
fuse
periodical
rival
wool
##orio
##zine
##naire
##ɒ
ada
malay
pinto
koreans
pounding
ratio
separately
[unused847]
神
greenish
disciples
alley
installing
cairo
##wife
##buch
103
cathedral
hang
provides
scientology
diagnostic
##gre
colin
careless
accordion
unrelated
catfish
derivation
mesh
##ʷ
men
rees
##த
captive
plantations
proprietor
##istle
##jun
boulders
rue
1832
dysfunction
##aid
settlement
concept
क
influences
gillian
bo
mm
##ators
##ذ
melodic
1641
handgun
perished
costing
parkinson
differentiate
acting
liver
##ad
##be
49
[unused399]
##ams
1933
chieftain
clement
drives
virgil
fur
##nson
tempo
gb
participant
##ulo
depict
cisco
hebrew
ミ
ה
typing
##ヒ
##mont
hanna
520
intel
sw
emails
explains
mina
##久
irrigation
press
##holz
instrumentation
pereira
counterattack
discipline
##uy
duplicate
##mun
337
cannon
cambodia
interface
licenses
─
nonetheless
lords
provisions
1715
patty
##ifying
[unused483]
pod
##jal
mobility
##rri
fatty
ethernet
kn
স
clemson
opponent
pretty
minsk
quarterfinals
ronald
processing
renamed
，
##isch
iihf
##ん
204
emirates
##uba
ecclesiastical
signing
##nesia
docks
sixteen
stroking
wake
drill
dub
##chal
##〉
trance
##夏
harold
anime
##ego
थ
chateau
##hima
20th
isil
homeland
mahmud
operator
helsinki
松
##ors
##গ
acceleration
persecuted
commonly
prussian
brush
probability
[unused671]
westphalia
annexed
damned
sausage
autism
##後
avoid
terminal
##rong
##zzle
##itative
intimidated
sung
loaded
symphonic
[unused869]
remix
##rba
aspirations
sao
[unused750]
orr
shouting
##ited
ss
[unused378]
rudolph
brain
##cake
reg
peg
bundesliga
unused
[unused466]
sidney
choreographed
gifts
brothel
##vert
computers
acquisitions
hal
puts
##པ
soldier
pursuit
skepticism
clans
tip
welles
midway
cousin
ibm
irvine
[unused623]
claudia
committee
parking
1751
marrying
libretto
nme
[unused588]
husbands
consequently
##aru
##dle
cooked
michaels
breathless
##lib
cope
sacrifice
escalated
julia
##quin
##ulator
##rai
spurred
hugging
##gating
advertisement
##陳
[unused27]
hong
appellate
bartholomew
mined
exceeds
feud
contender
presley
work
constructed
##rde
campground
abraham
devastation
varsity
##pis
cartoon
statutes
solid
comfortably
fanny
steel
floods
ホ
treacherous
andrei
debbie
##lights
uncredited
##у
construction
lange
attractions
shock
1621
puppets
statement
renumbered
อ
beckett
cube
glasses
lobby
dutton
teatro
web
lukas
simplified
miner
castles
collisions
79
##lb
##ty
sock
dealt
##thus
beauty
amounts
bored
##table
[unused802]
iberian
yes
shrubs
##ג
clone
honeymoon
##rook
shares
##mail
##ssler
[unused462]
reviewers
ruling
trench
manifestation
##thy
##ge
washing
xavier
##onzo
dina
qu
toro
crescent
lobbied
widen
threaten
沢
reviewed
ai
ox
polish
appreciated
finer
chilled
##gor
emmanuel
submerged
tractors
##alia
##rika
bernhard
gram
frightened
months
flush
bilingual
1735
##ave
news
elias
##ы
genie
simpler
prominence
alvaro
risen
hz
mergers
mortality
ի
178
libel
escape
planet
qualifying
musicals
氏
grammar
comb
crates
typically
mate
appropriately
diaz
equator
bartender
301
##sko
##az
platinum
བ
部
##kura
1917
[unused104]
##ᅮ
amidst
listen
used
winthrop
ว
seals
stabbing
mesa
##nate
hiking
substances
losses
chloe
choir
fixed
pegasus
##dly
devi
chihuahua
conditioning
in
upgraded
pupil
viet
calls
##ieu
##straße
adoptive
hangs
chefs
oilers
screamed
mat
##acion
alma
securely
##gree
##ogenic
139
##ghan
columnist
opportunities
afar
havilland
masterpiece
jeans
scholar
##vani
expenditures
awkwardly
comes
[unused727]
acidic
rca
philippe
[unused693]
combo
burials
##長
been
##offs
##mable
nation
reconstructed
brilliant
surface
##ino
spark
##hus
sumatra
tingling
##lie
mounting
##য
##tten
elbow
bathurst
prostitutes
##bour
;
maclean
astor
##亻
graph
owl
screening
percival
summons
wta
##thorpe
##zow
didn
quit
undertaken
##eft
nearby
blackened
thankful
alexis
ancestor
eager
voss
workforce
google
plunging
間
puerto
##tion
##½
preserving
implant
rid
stained
overture
##mac
yankees
apprentice
[unused311]
schleswig
##hon
supportive
avenues
agatha
fresco
taken
speaks
##14
initials
semantics
1946
interspersed
[unused478]
abuse
[unused66]
declaration
2005
∈
classical
williams
highlands
##berries
habit
##口
ख
cox
jagged
genre
plot
##lessness
[unused581]
xvi
che
prompt
convictions
doctrine
ripped
##ku
remember
chronicles
[unused593]
beside
explores
planted
##cede
debuted
jerry
kuwait
##ffey
eds
##jit
italian
##olo
火
##tea
sundance
##nas
##cian
guess
escort
##isman
treatise
tangle
medical
##mberg
justin
topographic
##19
ultraviolet
sailors
listed
[unused947]
cognition
##ropriation
curve
jerusalem
##inus
cleavage
narayan
##bble
theologian
paradise
wash
に
accepts
##5
missed
aesthetic
mathews
itv
£2
konrad
bermuda
circulating
##mes
ryan
washington
stipulated
reared
victor
##ex
accent
##rwin
##jn
[unused333]
supplies
##reate
if
bitch
##ario
parsons
dani
antarctic
cities
crete
##iro
midst
predominant
##ica
gorge
pubs
miniature
liza
barrio
pilot
sells
stove
microscope
rbi
weapons
##amps
michelangelo
nunez
reliefs
vuelta
so
##uting
run
methodist
秋
darmstadt
##ets
sharma
benton
fleming
races
often
joe
nanny
夏
ismail
[unused762]
costly
##ʁ
aerospace
twin
hailey
##onate
sanctioned
ostensibly
follow
sweetheart
mornings
elder
observations
slightly
walking
robbery
spur
drift
postdoctoral
electronically
##23
##du
rumbling
##7th
driver
##sey
坂
##inn
philosopher
##ege
provisional
1855
fused
dolphin
pentagon
grabbing
highlighting
[unused599]
##ibly
117
resolutions
melody
notorious
##stick
thinner
instrument
mic
nor
mclaughlin
humanity
##leigh
contexts
##iface
и
shepherd
sidewalks
reuters
virgin
sweden
casual
161
confirms
[unused851]
bois
israelis
cannons
scotland
য
arbitration
##hora
ʌ
ferrari
accommodations
ம
spells
singh
proposing
authentic
⺼
cab
penetrating
##∆
fell
spanned
##oga
ornamental
liam
recall
different
##lass
##lage
gilbert
killed
aware
riaa
olivia
##ller
eduard
ク
drastically
tombstone
明
outdated
relieved
[unused186]
disturbing
cl
dart
partner
resurrection
##stis
roland
granite
trails
garry
parliament
23rd
##iss
[unused241]
shillings
powerplant
ton
knows
wryly
##風
&
emmy
wrote
athletic
flaws
智
colleague
##amine
##urbed
ridge
acre
helps
pip
##rst
coronation
peerage
protein
markedly
helpful
##अ
frantically
sleep
leap
bae
##cus
##gina
packard
##uo
sparrow
depicting
dispatch
arabia
mango
sheffield
guardian
unanimously
cricket
amanda
[unused240]
diffusion
cradle
suzuki
americans
1570
[unused953]
weekend
chaired
metal
boom
broader
muted
∇
swollen
above
insufficient
[unused261]
exit
gorilla
##valent
¼
##wski
弘
##lter
torino
ರ
thrusts
##phobia
##ference
packaged
##車
madame
epithet
earthquake
snatched
##bolic
##আ
lending
nottinghamshire
mick
##tale
spacious
##dick
)
[unused739]
older
[unused904]
##ral
curtis
annually
dry
cooperate
##11
returning
##arium
advertised
crept
field
nicky
##lde
benefits
##gus
##tosis
swallow
hua
loyalty
aiden
disadvantaged
alleged
##clops
[unused783]
is
##peration
isis
portals
lava
restrictive
montrose
cameo
##yte
dissolved
huh
investigative
(
cue
restaurants
salmon
eva
sling
##enna
ancestors
luc
mohawk
tc
fox
arena
arteries
vent
folded
predominantly
puddle
anybody
##ivate
axle
fortune
健
##†
crimson
##made
whore
##gard
illustrates
smirked
##stered
omaha
blackpool
secession
tommy
interfaces
outlook
[unused732]
fifth
nazi
lund
rogers
interference
summer
##ciful
illegal
scare
shows
sparse
burundi
economic
soloists
spanish
96
devote
fix
tay
##gli
expedition
shone
##stad
assurance
360
capt
categorized
bakery
bubba
yelled
yates
shire
##rdon
appreciate
rot
terminates
[unused28]
##ceptive
droplets
proportional
##ʸ
kicks
norma
toes
warp
iv
1702
boring
warwickshire
？
dick
moreover
volatile
careers
cr
investments
plotting
seeing
marcos
activated
basin
halo
capcom
muhammad
starter
sister
toilets
evaluate
infantry
incompatible
##crats
ives
primarily
張
sleeps
##3
owed
##phy
quarries
##akes
##phine
##ror
##33
##rp
passed
uranium
宀
##nat
aragon
utilizes
##sz
disappears
survived
89
sulfate
soul
[unused824]
##gers
owing
recession
##tlan
even
creep
depression
phil
surprised
vr
##tler
[unused600]
tipping
stormed
##sari
##anga
##tan
##rval
abundance
reins
saskatchewan
rq
multiplied
recover
ipad
172
corner
obtained
lambert
##aud
1864
fulfilled
tuition
sniff
##bari
[unused509]
cass
impacts
ע
approve
wrong
displaying
stripping
administratively
##ragan
franciscan
##yan
tolerate
lucknow
anomaly
harlan
popped
kids
highways
山
##cal
##°
spraying
##iche
bash
clown
claude
##runner
shower
begin
implicated
entrances
##ilde
mps
neutrality
swirling
doyle
##版
kettle
feelings
spies
##cu
##lled
debates
##ович
roi
lumber
##⊆
cb
blond
conclusion
gould
marino
duluth
stations
coe
pavement
ethiopian
[unused745]
[unused980]
portrayal
karel
kindergarten
[unused57]
##db
₤
zagreb
rifles
parades
##bham
yearbook
ceramics
flynn
goldberg
aggressively
##√
##ken
ed
fries
results
gorman
intimidating
reverted
##ques
vulnerability
##iga
bizarre
diagram
[unused111]
prime
nan
##roll
ambient
munich
labeling
fingernails
damascus
hook
philology
welfare
[unused503]
generation
5000
employed
1726
eugene
blessed
spoiled
simulator
[CLS]
proficiency
##kou
₱
defenders
grave
paved
residue
gonzaga
regulator
wavy
battalions
##8
threatened
continues
tom
cleaned
##ब
socialists
ventures
suspicions
##cey
napoleon
postseason
switching
weakness
1978
##uated
mustard
cozy
hindi
sabah
growls
disclose
ŋ
accordance
##ayo
##nsk
[unused237]
finals
gran
##unced
airlines
euclidean
fabio
testimony
vertex
macdonald
nrhp
edit
refurbishment
suzanne
##er
unstable
gestures
amused
##ar
[unused614]
154
1845
cameroon
case
snap
prakash
bent
marathon
1994
restore
##ₒ
indifferent
melvin
##gp
structurally
hendricks
blouse
pic
yunnan
conventional
delay
obe
piles
thinkers
yokohama
##nova
##⅔
1965
sofie
laura
zac
raja
flint
##rf
frequency
##atz
##zer
bogota
nobody
werewolf
reprinted
consecration
##my
##ia
pleistocene
buy
monasteries
ラ
feldman
##stems
exhaled
##tto
oasis
sighted
winning
jesse
conduct
##iti
sworn
–
241
[unused790]
blowing
educators
nausea
[unused615]
somehow
bites
[unused963]
##borough
jackson
paddle
goblin
##plane
climates
doris
[unused604]
do
nicole
terminating
honneur
##qual
nine
phenomenon
##ress
[unused166]
##ig
created
muscled
shaping
knob
med
tunic
##♭
economical
whisper
##enstein
majesty
viscount
##ark
neat
rounded
carriages
lifeboat
fathers
##ron
residential
blacks
ideal
burnham
mechanical
kruger
51
barnet
erasmus
rented
lass
##itude
duck
biologist
senegal
colleagues
smyth
##imeters
ladies
##brand
##ication
##quay
buffet
verona
adorned
efficiency
seas
ब
reduced
uncommon
midfielder
mysteries
stabbed
##ieg
medley
existence
huff
snake
spinning
##ening
whimpered
thirteenth
rash
tokugawa
shooters
stamp
bayou
հ
##ぬ
車
aug
##hes
pigs
requires
dismantled
brasil
stance
##zell
া
assertion
##ence
sunday
backpack
ף
interpreter
references
##·
qualification
ukraine
##bone
cantonese
broadcasters
valkyrie
secured
vatican
amplified
bases
04
true
missionary
##sp
seekers
kramer
pc
ო
visit
beyond
olson
shelves
##55
[unused218]
##rum
produce
amber
objectives
900
passes
medallist
1890
carriage
filipino
deborah
mainstream
manchu
redesignated
shareholder
wigan
##lez
priced
hosting
rann
[unused144]
##low
[unused724]
brows
guys
escorts
irritated
banks
donations
museums
anguish
fraser
##ى
inform
[unused314]
sam
##ruff
apples
drumming
imperial
contributor
dress
wwe
##tze
non
statements
condoms
dealing
dutch
strolled
customary
horizons
##oulos
##aries
divided
##ying
unaffected
##sser
some
rink
ahl
consciously
hearing
russo
##ald
##ᅥ
bernie
##ggle
satan
corona
##ed
##genesis
nearly
pattern
##sel
700
skirmish
tech
supermarket
##isson
pizza
miracle
##ม
need
varieties
##rgan
academy
nobility
continually
firms
squinting
piers
sheppard
##eborg
ᅵ
singing
neighborhood
investment
crows
rewarded
[unused470]
##ifies
shirt
##forms
marx
bombing
matthews
containers
middle
torches
santana
##esian
##fk
##tracted
intending
¤
considerations
notable
showcasing
tracked
470
##nl
nectar
actors
##eron
victoria
membrane
##optera
prompted
stephan
999
森
##！
hassan
rifle
##岡
reunited
remade
##like
arrest
##udeau
sean
fitness
olympia
zhejiang
wizards
putin
sid
mafia
philosophers
tbs
poppy
specializes
antigen
##mbled
##zon
springsteen
revolutionary
##sell
shipments
threat
can
browser
boyle
##cision
braun
deck
gail
lasers
orphaned
qi
##ry
ames
##gnan
##hra
salty
accommodate
harmony
briefing
##lge
##ᅩ
loading
stubborn
ev
part
lure
wreck
÷
anyone
chan
intersecting
##人
cruisers
fungi
meteorological
expectations
moaning
sebastian
honour
moment
eagerly
eduardo
bloomington
confront
sul
xinjiang
excelled
inception
motioned
taxa
too
widespread
heck
uniquely
##コ
之
##hir
##lby
consequence
swimmer
surprisingly
nee
tiles
interchange
amadeus
imports
tonnes
conventions
[unused131]
magistrates
##cko
[unused70]
##chment
[unused626]
poetry
discount
##ez
kari
squadron
certification
##غ
gloom
dissemination
η
##rous
tasmania
fixtures
urdu
abandonment
warning
lovely
congo
##kney
[unused634]
mast
malabar
dupont
354
slots
what
deutschland
snorted
til
earning
myself
thru
##ooping
delight
##tidae
truths
mourning
rendering
immigrated
welcoming
sm
##atic
brandenburg
fuller
surpassed
gilmore
blanche
entrepreneurs
subjected
subsequent
newspaper
eden
connie
##rod
cecilia
moniker
abs
##hurst
##une
年
ds
road
1629
colloquially
builds
##well
bavarian
narrow
##nce
swapped
##rade
##ois
stocks
[unused630]
reveals
gravely
accountable
plainly
bricks
skyline
##一
width
##gler
thinking
##lative
##swell
blooded
count
oversee
literary
visitors
anthropologist
scratching
judah
episcopal
trailers
similarity
editor
gareth
inspectors
belgarath
ם
waiter
valor
offset
suppressed
economics
checks
slid
tutor
way
ր
predecessor
aspiring
augusto
parameter
facade
gmbh
craftsmen
specialised
tiffany
lush
##cine
boyd
faded
##shi
patterson
horizon
giacomo
elliptic
she
royale
##iad
kristen
##ache
sank
##49
[unused421]
pins
##ignment
romney
pawn
expressive
roof
burt
##pee
firth
democrats
##igen
macarthur
terra
stems
##tha
praise
handful
influential
sanity
spiritual
complement
mendes
snooker
undermine
coalition
##iam
[unused564]
##ae
journalism
photo
thanked
deity
ina
##ding
acquitted
chuck
##bbing
brewer
sen
##cade
delaware
resulted
sweetness
livingston
shutter
uttar
born
spruce
brutally
counties
headquartered
christine
enterprises
benfica
##cted
bum
two
swat
guineas
ש
neal
京
burial
foods
making
##aer
auditor
##ves
##ising
##vio
seasonal
##khar
fidelity
conquered
pau
publishing
blushing
eps
天
commemoration
doha
filly
##ajan
##riam
craved
denominations
ctv
curly
contracting
audiences
upbringing
distinctive
medals
##ita
brushed
caressing
seated
##lous
refer
motivated
reproduction
hampered
stevenson
yong
##las
converted
##dr
ir
authored
##hyl
##pathy
野
criticized
lesley
continuing
cortes
asking
dashed
##koff
drank
102
tons
collaborated
follower
sbs
karma
located
##ital
##tering
perth
ᵢ
learning
facto
##lkirk
occupants
sufficient
hawthorn
superman
whitish
marcus
sanders
carts
birds
##iled
bedford
noir
enormous
rios
[unused132]
outfit
redesign
flee
turnout
involuntary
lacked
crossed
##xious
priests
punish
arsenic
raise
##cic
cbn
##ugh
shannon
##κ
え
gypsy
wiggled
smoky
##aka
##connected
moderately
phosphorus
##iers
confused
wil
tobias
lake
darkness
lashed
alloy
گ
freyja
chiefly
everybody
thoughtful
1656
changes
waves
milano
leagues
kentucky
weaknesses
peanut
##von
elastic
malmo
##oted
##ah
genius
confluence
lacrosse
hooked
vargas
rescues
rage
[unused16]
##rnet
explosive
beloved
minute
eurovision
chewing
defined
steiner
##sburg
##ulf
defaulted
dei
mediation
universidad
south
desert
runners
##sight
abstraction
declared
##歌
abby
##rate
jennifer
lids
positioning
tactics
ch
former
tomatoes
##ptive
215
##ssee
clifford
prescott
rightful
##bey
##eller
flooded
1950
anaheim
opposes
helix
##rked
rained
hendrix
##rdial
artifact
pillow
##working
16
posting
enthusiastically
holocaust
farms
ɬ
towards
60
montpellier
taxis
[unused882]
##sted
asturias
nissan
ව
##ק
composure
critique
perkins
lens
75th
packages
##ej
circle
drowned
mainly
sinatra
activism
requests
assistant
##ssel
##oi
910
helpless
fined
[unused269]
115
・
ي
retribution
ipod
calendar
says
degradation
changing
elders
emotion
brunei
challenging
anxiety
enlist
mad
obsidian
##grad
doorbell
proxy
saetan
##orus
thereof
##oge
##rret
cushions
proceeding
##udes
paid
##lok
removal
dolphins
fred
buyer
##uma
adult
helens
fiction
younger
maximum
memo
peptide
shapes
mosques
pietro
##uts
midday
favourable
newfound
##point
questioned
aromatic
resisting
fled
##rkin
falls
wilhelm
moan
[unused117]
nikola
unharmed
homosexuality
tape
enzymes
adolf
##場
settlers
locomotives
prize
sandstone
##ali
rihanna
multiplayer
unicef
angry
jamestown
montane
weighed
##jou
##suka
redistribution
paddy
francis
shea
[unused224]
sunni
hudson
explain
wider
settles
notably
sat
curran
raided
##gut
cracking
§
##iom
shaved
fearing
1931
##bar
sinai
germany
ང
1640
##raße
grand
workplace
##rise
##ici
##ural
法
##ree
dresses
##ever
elevators
[unused993]
tamil
##ɲ
mozart
##tious
##ck
discussion
genetics
[unused578]
silas
egyptian
overcome
musik
preventing
seduction
fireworks
dazzling
nightfall
broncos
1730
tokyo
classic
coyotes
##ments
quran
scottish
churning
[unused179]
confederates
wholesale
identifying
owned
arrests
##cks
##46
vibrant
##ision
##³
canteen
brest
##rry
1695
contributing
necessary
knock
briggs
sultan
angels
##ata
hare
scenarios
guns
##master
##kas
infectious
redeveloped
refinery
mort
ᅲ
##タ
slaughtered
indus
reputation
hurley
charley
easing
tearing
##eme
##լ
soil
wooded
resource
317
[unused975]
mara
haired
##ossa
hiroshima
neo
##enay
heavier
bass
skins
delays
pretending
##ignant
navigable
水
[unused3]
aerodynamic
276
pronounced
showcased
tak
##₤
reminding
yuki
##wal
diaspora
shane
davies
principle
skipper
sprinted
undertaker
[unused474]
fund
amiga
##oth
foliage
unable
godfather
##bri
##မ
nichols
trades
##59
[unused914]
##rlin
##加
##tera
booklet
##dim
coiled
##sma
elk
afc
transport
fide
french
character
##ous
##rix
aus
duo
##plin
mcguire
[unused549]
1876
anger
corvette
burn
hug
earls
##忄
winged
malayalam
328
glenn
streams
noah
depends
contributes
projects
identify
prototypes
penthouse
snort
may
figuring
attended
##far
evident
ribbons
renegade
mace
##as
[unused204]
remedy
etched
why
##jana
feedback
##henko
mormon
tasted
indictment
seventy
##hong
argentine
verify
porcelain
celebrated
281
exclusively
executives
existed
volga
##ties
##bib
よ
tales
ideals
contraction
##liness
cannabis
pandora
presently
##aria
##ergy
jacobite
mysteriously
plunged
reservoir
tubular
vote
import
corridors
め
##ices
##eh
parks
survey
##int
barnes
queue
##ʀ
grease
modest
vivian
प
244
wilkinson
calcutta
max
[unused100]
perimeter
unless
mississippi
always
coordinating
cushion
eliminating
experiences
##llary
giant
weighted
danube
setup
##rogen
xiii
##cc
分
allied
spontaneous
infancy
子
##ava
legislature
kellogg
outward
dominant
troubled
dayton
thrown
patch
mccormick
sg
beliefs
##松
deadly
ranking
hilt
##ˣ
cliff
##beam
##ole
originally
800
starved
caliber
[unused526]
appointing
beginning
suburban
tinged
mankind
nationwide
discharged
viewers
##aurus
braced
##fb
##տ
fights
leger
2000
curved
flags
centro
settlements
currie
seductive
lay
1986
continent
dirty
##isen
##ass
##khov
kathmandu
jorge
lithuania
##ᴺ
sir
sorting
boxed
vocabulary
alternatively
hardin
[unused39]
dependency
nt
sneakers
[unused264]
translit
committing
desirable
chelsea
virtues
barre
cuff
reeling
test
horsepower
womb
association
##dek
resumed
representatives
##ite
##ured
tangent
vol
affects
##nda
types
##champ
conversely
malta
governments
cottages
##hta
sighs
home
como
##kr
gracie
remarkably
マ
tackled
נ
mused
₅
commented
clones
##bbs
##skin
flooding
fen
wrecked
arising
rated
##ao
##ssi
equatorial
##ographic
arrive
entries
chess
##12
myers
[unused919]
adding
countdown
notch
destined
lest
##}
argentina
foolish
1937
##eira
stemmed
chip
extinct
prior
album
##nary
councils
ea
southernmost
##hul
void
herald
ferreira
pascal
hybrids
conceptual
:
760
rabbits
slovakia
northwest
buffer
draft
unsafe
cans
pants
blackberry
horatio
##aire
india
commendation
[unused194]
decent
##birds
astonishment
someday
jules
lopez
liturgical
martyr
corpse
tanned
##ln
downward
chrome
mir
banging
scars
accountants
commanding
vip
companion
gus
unexpected
##zier
##jured
recordings
မ
##ச
cut
couch
rotate
cat
##ano
[unused201]
glacial
##gical
##ched
##eck
キ
##evich
broke
juliana
cost
behave
buzzed
guiana
##ori
cumbria
lion
problematic
hinduism
pl
zur
chemist
kiss
polymers
vita
##work
seminole
hackney
##sman
wheeling
312
##holm
hellenic
##wark
cord
headquarters
god
apache
##dies
##宀
madly
tumble
optimistic
義
##sley
##№
combat
somewhere
[unused982]
carry
##cona
viktor
∆
equipment
nietzsche
hacking
##ading
##essed
guild
shattered
mis
representation
forced
256
vertigo
initiation
jenks
grid
tamara
##ein
##ias
motor
propagation
[unused195]
tensor
extremes
##ʻi
considering
interstate
labelled
naia
##orf
##os
hailed
[unused216]
[unused831]
cookies
patti
serve
##mon
##dham
wo
##ᵗ
ा
quiver
baron
jumper
dominates
owns
built
258
cleopatra
mumbai
obtaining
headache
##tails
inscribed
reckon
represents
स
nigel
##thed
luna
##ম
[unused357]
yeomanry
wakes
boeing
lists
skiing
injunction
hates
saturdays
publicized
andover
##ス
##rim
ottomans
rapid
ч
hornets
bled
curiosity
ª
##ys
sindh
bsc
indicates
collector
georg
measures
hospitality
keyboards
founder
leased
intervene
agitation
##nberger
craft
##cene
##pd
dynasties
personality
swallows
tracing
##mans
imam
sketches
mig
royalty
silesian
substrate
summoned
disturb
spirit
##fast
vertebrae
##bold
pleasure
catalan
regulators
levant
##bon
diversified
occupied
remodeled
##kow
plant
cheung
resistance
laughs
takeoff
vulnerable
##sive
silenced
kerman
333
kiran
20
mckay
nyu
careful
を
worship
く
##tarian
respondents
##rize
rampage
##ψ
##ressed
jew
songs
##ook
genus
steward
10th
redemption
exeter
heart
kato
movement
soda
vivo
plume
compatibility
affirmed
persist
archibald
schneider
conjunction
socrates
א
genres
maestro
##gles
##now
handicapped
similarities
flag
loyalist
privately
##igny
1823
counterparts
manufacture
components
dario
developed
newscasts
##թ
accident
snacks
stallion
legion
##hood
paws
evicted
##jia
flexibility
amazon
##lster
cullen
neared
fjord
bandage
rufus
koppen
73
traveled
[unused5]
pakistani
greta
valves
cv
derek
danzig
envelope
##sb
##cke
completion
ridges
passionate
debut
modifications
fc
splashed
archeological
##face
simmons
ᅧ
senses
den
rv
isles
matthias
forbade
puzzled
superliga
artists
significantly
ye
282
ø
##rance
1976
scriptures
consumed
raju
voluntary
airplay
intimidation
hem
示
asteroid
hezbollah
lullaby
mortar
hunan
moths
rutgers
playoffs
##xx
hines
##hol
baker
205
##0s
owens
paxton
tully
mention
##core
compensate
rebranded
1795
alarms
papa
comfortable
hatch
industrial
[unused492]
annals
[unused477]
remy
cigarette
##chuk
##শ
akron
salvatore
sandra
alexander
equestrian
spirited
♯
robyn
manitoba
##qa
##brate
policies
incredible
sewer
lipstick
risked
councillors
##tor
silence
obesity
##wo
dale
po
##urities
fragment
bush
##yk
70th
guitars
##its
integral
vhs
mikey
aggregate
potent
drugged
parameters
urging
wisdom
##mony
ள
fill
##jas
geographically
canine
schedule
stares
will
kaplan
ᅯ
##日
expect
##ase
newark
reformation
attend
subgroup
salazar
interacting
##dda
##pc
coordinator
##yck
touch
hardship
quantum
bukit
seaman
receipts
##pus
##：
greenland
necessitated
gunther
shit
ryder
travels
distinction
other
mustang
lobe
cyril
##heard
espionage
decorations
craven
nazareth
##nage
bloomfield
[unused101]
rumor
sparked
trick
381
prepared
loosen
##ひ
islanders
rebecca
expressway
seismic
##thic
heron
trains
gunnery
xiang
chambers
##able
##ち
midi
##ة
seton
slapped
drastic
ama
[unused47]
planners
##nging
ه
chest
rum
integer
imported
##き
soothing
##mill
apocalypse
wit
permitted
apartments
asahi
matches
##oto
##kling
swords
carly
def
renew
robber
replaced
##nt
geometric
gaining
dinner
[unused452]
professionals
seize
nyc
instituto
express
madagascar
[unused591]
synthesizers
brand
##忠
##tour
##™
ankle
billings
##kra
dinners
presence
mosquito
scouts
trim
surplus
pollock
resurrected
mohamed
##right
away
screw
erica
tyrol
worcestershire
##48
gay
behaviors
frontman
replica
teased
ц
##aco
##tling
arabs
discovery
miniseries
deemed
pitched
appeals
阿
syria
flirting
infected
[unused120]
ruse
victory
##ರ
eclipse
kaiser
mccarthy
spat
吉
retro
negotiated
##roving
reaching
simpsons
film
greenfield
mini
recipe
enemies
academia
silk
219
##ens
catastrophic
materials
renewal
slug
##ories
hara
supervisory
environment
holly
##fia
hiatus
merchandise
##cap
##itate
forward
spawn
cornice
unpaid
princes
stripped
uefa
philipp
fences
increases
appoint
maroon
[unused668]
stout
parma
1841
[unused389]
mom
accredited
achieve
##km
molecular
poke
snuck
cock
traditional
furlongs
seine
hk
stain
vision
riding
visits
annie
distinguish
outcome
papacy
narrows
pensions
untouched
##cl
complexes
newborn
lindsey
stretches
howled
rusty
gospels
greeted
wasn
##tral
pluto
prefecture
oskar
trademark
shame
highway
।
reigns
gibbons
illustrious
##oteric
amid
strongly
##pina
fronted
closes
grain
wwf
teasing
##ards
##rn
grouping
weber
reluctant
hurting
elderly
lucky
translations
achilles
proper
platt
eastman
translators
assisted
captain
##mise
respond
shakes
smug
cedric
biggest
##gence
czechoslovakia
mean
##per
##yer
zoology
propeller
praising
dylan
##32
colby
##han
forge
##elling
##etto
boiling
michelle
powerful
requirement
suspend
##ganj
av
tchaikovsky
orderly
pole
##lland
80s
##erre
afterward
lynne
roc
seventeenth
exchanges
blogger
noticing
1870s
monkeys
##jee
preface
##arns
picture
iris
lays
fever
ol
essendon
hospice
scrap
##tism
##ytic
taller
voted
contribution
malone
raft
##有
deviation
セ
ᆸ
situations
ш
army
dairy
straps
expenses
experience
pebbles
gotta
enlisted
cantor
council
taboo
tire
unbeaten
##ware
decomposition
##dlow
##ivo
##ɔ
##aro
##হ
[unused53]
confess
element
baja
##sonic
patting
shear
[unused25]
mendoza
ports
dictatorship
成
lan
troupe
persistence
watershed
##7
##ade
##智
san
##fs
lifting
young
sloppy
1620
##ius
munro
starters
tangled
clauses
asiatic
##nail
combine
commonwealth
unwilling
##fted
insulation
##oese
colliery
140
foreword
abroad
hopeful
battery
he
[unused905]
finland
visibility
##nea
edmond
interfering
intruder
proceeds
somethin
ᶜ
mansions
henan
##*
##pen
extremely
whitehall
screenplay
wildcats
instincts
z
diagnosis
multi
tis
[unused717]
[unused332]
unpopular
initiatives
followed
originals
area
moral
cones
putnam
portray
classification
remnants
skyla
reduction
slight
accuse
enamel
configurations
gems
##sei
610
firstly
come
jacob
paintings
presses
suggestion
##lar
##aging
##英
kits
said
softness
530
academics
psi
atheist
clashed
af
cyclones
[unused813]
exquisite
falcons
mcgee
##ronia
1981
hopping
fans
paranoia
undead
kong
eastbound
deepest
absolutely
պ
##taro
auguste
##ndi
dialects
coastal
##pher
associated
tata
maize
ways
sevilla
1667
amalgamation
meantime
spawning
##ा
modelling
reactive
##ʃ
##yat
guangdong
freddie
ი
murdered
ocean
##aint
brock
##chio
cuisine
##lund
heaven
ira
louie
[unused259]
equilibrium
disciplines
migrate
coa
##家
hers
[unused345]
straining
classmates
ʸ
enclosure
executed
sant
derive
strand
trips
dismissing
marketing
chestnut
##kka
disclosure
##辶
##bas
deformation
##uming
gem
ranch
ろ
blinding
discussed
eyebrow
persecution
##erina
essentially
forces
gardening
リ
imperative
##を
musica
sparkled
subsidy
huntsville
diplomats
edgar
revenge
dared
tackle
versa
m³
##hini
a2
competitive
brightness
traps
mcgraw
##cave
deception
fair
besides
botanic
na
day
aleksandr
norte
##hre
volume
##pole
fashionable
earliest
berth
糹
ナ
renewed
banking
differences
[unused343]
[unused897]
barbarian
##rea
concerto
roles
rourke
routing
skating
modeling
##wyl
peabody
daemon
##ace
bundle
georgie
donate
reconnaissance
smoked
ought
##group
easiest
systematically
##ering
##enburg
##lins
bouncing
distributed
mhz
wells
##more
ا
cylinder
protection
##ports
argyle
credits
politics
hierarchy
[unused248]
branded
hopeless
hour
##rial
##ˡ
cub
adds
##θ
freaks
filmmakers
tourism
##olt
medications
og
satisfied
ᄃ
jumps
joy
fortunate
resisted
space
##ץ
kinase
tree
wheelbase
fold
##hor
##lz
ต
bank
llc
greek
petrol
##bis
[unused642]
embarked
[unused411]
sometimes
mandela
frail
stoke
speak
ส
tucker
‐
bethel
wilder
##oku
##lines
lennon
[unused265]
judged
overthrow
terence
endeavors
##ζ
conference
##lizer
enforcement
##leton
##ntine
stunning
andrews
affordable
cassie
##sau
horribly
spectrum
##hae
##武
##ddled
protocols
restrain
servants
juarez
randall
##ᵒ
monmouth
review
ecole
townsville
[unused178]
debt
crusaders
reindeer
##t
[unused645]
##fin
remake
##founded
vowel
nearer
##tok
abbas
visited
bassett
relies
movements
pearson
##morphism
operative
galaxies
begging
raiding
hoop
buses
upright
##森
etudes
bottle
giving
[unused557]
forever
largely
television
electron
participation
[unused793]
fades
tournament
defamation
kitchens
##gated
[unused15]
##endez
scratch
adjective
[unused64]
sainte
waived
tnt
whipping
##ʐ
hunted
danny
repulsed
lanterns
##isation
##uet
##空
nurse
ق
bayern
boilers
suites
vinci
spit
1739
occupation
bytes
nasal
##ppel
##arat
enacted
brodie
chapel
analyzed
27th
lax
##brates
theater
distress
strife
1929
wexford
dowager
expensive
cabbage
viral
##loaded
coldly
corey
mickey
distribute
quantity
race
##kis
babe
cell
##hian
narrowing
image
##ж
alcohol
convention
m²
##ord
enrolled
danger
2014
priory
germain
actresses
award
slicing
θ
##85
flutter
milan
sheet
edges
[unused479]
fall
gross
mimic
stung
twitching
herds
##dale
##さ
##che
1947
kraft
their
remembers
namely
bushes
mercer
tactic
clashes
gaius
sd
borrow
disperse
interim
tehran
##ط
mitochondrial
theorists
haunt
##tadt
gora
hid
vp
wren
##hang
consolidate
jennings
##itic
linguistic
zeus
##nant
boogie
##rgh
ə
ᆨ
maryland
##евич
barrett
181
hmm
lennox
##awan
##hema
##ʻ
[unused894]
nipples
redhead
resurgence
thoughts
440
yusuf
listener
privileged
breasts
cruising
luigi
haifa
rr
algorithm
preached
device
reductions
vaccines
reginald
##ied
butler
tensed
uniforms
tasting
plague
diaries
##%
bars
creations
beale
##uel
library
orbital
##bush
##uil
1756
vedic
##urity
crane
##vious
bombardier
nickname
inspect
mcgill
##ction
giorgio
downloaded
dustin
assistants
side
darcy
marlborough
standards
タ
##lyn
hop
candles
croatian
duran
launch
profile
paranormal
fist
625
ʒ
formulated
failed
110
reapers
disrupt
many
claim
outcomes
tolerance
baptist
fran
@
interviews
boy
tenth
jung
mildred
146
##lla
cancelled
condition
explodes
urbana
venus
##eng
1850s
rhino
lethal
balls
##qu
amy
comets
asean
golden
poisoning
rows
م
horror
enclave
agenda
##ash
##－
cartwright
germans
heavyweight
hourly
newly
unlimited
mansfield
correction
broken
scientific
whirled
climb
vicente
##cliffe
nas
##ね
magazines
tilting
1000
exasperated
relate
whispering
nineteen
leonardo
##₇
[unused682]
persuasion
barlow
##nction
435
1784
heavenly
dawson
##>
aj
beatrice
dependence
##پ
nathaniel
比
persian
selena
aristotle
##「
##ator
rule
##aceae
##verse
1755
[unused592]
printed
please
অ
wants
[unused691]
##rid
increase
bodied
##tie
dimensional
##ery
##taken
##з
les
sprayed
surprises
[unused238]
##uppe
ʊ
##a1
insignia
##bm
infused
bust
[unused45]
records
##gun
##cin
[unused385]
os
distinguishes
monthly
lia
slovak
##iful
##ouse
bail
德
engaging
##ways
sunken
immortality
##inae
##asian
71
[unused574]
laurence
invoked
plates
##pathic
し
poles
realise
circles
multimedia
##պ
secretive
iq
km
1628
tor
clock
trooper
freshwater
shepard
wherein
winked
##mering
1967
strait
##rnik
##ima
fins
##uration
whitley
staunch
cyclist
##ل
##eter
startling
##dding
##vc
flexible
chew
nana
unlike
airbus
flashing
wise
tee
supervisor
broker
colon
##pa
postponed
problems
oxfordshire
casa
wolfe
invaders
czechoslovak
meade
xml
152
##mer
[unused791]
innocence
clothed
rang
##yme
##ki
##mx
##zard
##mple
ping
vega
addressing
astonishing
participate
intervention
homework
##lton
realm
sylvia
environmental
wonders
##men
980
showcases
##na
exemplary
touched
##女
86
##dity
inspired
tyre
temper
##mo
upscale
height
donated
##balance
undrafted
n
celestial
##ise
lo
[unused52]
employee
yielding
fleet
##yr
drury
chapters
shrill
##22
##б
pristine
penetrated
ashford
berman
20s
165
stanton
##zcz
##cens
winner
livery
particularly
उ
barley
rubs
knelt
fraud
##va
##horse
cartoonist
##nti
mollusk
##och
##ט
##耳
tally
salford
j
bravo
isa
loft
ep
##mark
suggested
##nor
trek
safety
fulham
shoreline
possible
tentacles
carp
adriatic
1623
brawl
mathematicians
had
tripped
≡
##grapher
dwellers
evolving
heartbreak
##asurable
##tre
avoiding
[unused776]
##uce
winners
##bl
initiating
serge
iona
##inian
baronet
1690
##।
looks
veil
mongolia
vigorous
mobile
azores
knocking
72
門
275
belong
fluffy
##mas
stationary
einstein
[unused825]
faction
ব
##ang
postage
overnight
websites
dissolution
op
ing
synod
thames
necks
286
engravings
styx
[unused908]
##dhar
surfaces
4000
needs
asher
charges
revised
evidence
magical
500
eyelids
kidney
##ncia
vibrating
murals
eddy
##sdale
meanings
1956
ship
2006
snaps
exercise
fisher
supreme
三
empress
wound
additional
##tight
##nz
quietly
blitz
delta
woodrow
[unused457]
insane
luz
##eson
baseline
asylum
bottles
curb
disaster
vernon
roth
郡
verification
[unused306]
hurled
reykjavik
catching
1913
eighteen
fighters
accounted
1645
##hore
commodity
eponymous
indigenous
##dition
newcomers
elisa
cree
##dier
faint
lissa
##egan
crosses
adjoining
geoffrey
impatience
palazzo
symbol
adopt
labourers
retirement
plato
堂
monsoon
drafting
questionable
##hab
##anum
##ogist
severe
##phobic
##nne
##⁺
240
inflicted
turf
ape
bourne
pagoda
batter
imperialism
##ssing
gleamed
avid
pilgrims
detectives
sentenced
sovereignty
tasmanian
##inations
##pone
##分
[unused336]
bathrooms
losers
md
waving
closet
mortgage
tattooed
##₎
utilizing
[unused754]
dirk
secretary
reservoirs
governance
メ
##city
milos
geared
discussions
##eak
never
missy
temples
accomplishments
cultural
pieces
irene
winery
2015
signalling
08
mouthed
guthrie
##ntial
##mute
genetically
optical
[unused7]
gage
provence
poked
##▪
charleston
robinson
texas
##titled
apart
anticipated
mingled
tobin
engraved
lowe
lombardy
##nig
fis
burning
jelly
projective
et
disappointed
[unused944]
baden
embrace
impossible
savage
##loading
clit
synonymous
243
implies
polling
π
grouped
compressor
1791
2013
[unused36]
enroll
gin
tuberculosis
adapting
disastrous
incorporating
watered
breathing
laurent
wilde
reads
cesare
revealing
youngest
reeves
denied
[unused844]
pending
1709
falling
##flight
drug
busiest
[unused158]
licensed
exiled
unsuccessfully
preservation
elmer
just
pointless
squire
dung
boomed
consume
##iving
route
1624
script
##ema
us
partridge
gunnar
##lub
pilasters
marker
assaults
alta
ding
relating
rotation
##ctic
##yin
[unused334]
seychelles
##rder
[unused719]
ག
ieee
##vos
matilda
wallis
enjoys
[unused493]
[unused873]
mixes
##tin
varying
1783
guards
consolation
calder
supporters
bonus
ℓ
[unused907]
der
##keeper
pearce
canonical
rebellious
henley
ambassadors
awaited
kildare
minister
molten
compression
[unused698]
literal
offense
pete
playful
rooms
congressional
nobleman
1901
facebook
##66
##kota
179
##tric
claimed
blinded
cong
occupy
variance
foreigners
riots
dimensions
thanks
##boarding
##火
devlin
1873
discourage
##sies
odds
seattle
##anna
discussing
[unused534]
21st
disagreements
frontiers
greatly
##南
register
respiratory
inmates
permits
hat
human
[unused659]
##ホ
##en
baptism
increasingly
socket
huey
##oca
software
florida
globalization
borneo
dear
kenneth
submit
crowe
##ulated
touring
edward
##nd
##rmed
verified
banned
subfamily
rochdale
##rley
weeping
##‿
fleets
297
c2
appeared
decade
##plex
##ђ
leung
averaged
corps
[unused305]
injection
[unused730]
fleeting
principles
volcano
##elial
bath
albanians
accompanied
occupying
robb
erich
telecommunication
holland
य
highness
fascism
miller
witnesses
roger
315
stevie
delivering
##uro
johnson
concrete
##rbin
##ła
monks
oakley
##iz
statues
[unused156]
amos
wessex
sneak
creditors
##meo
bloomberg
##vey
for
huge
##fra
¾
##shida
ssr
viola
##writer
[unused586]
groningen
##trust
wylie
##su
dodgers
##sden
ign
galloway
sticky
amherst
environmentally
24th
futuristic
##ographer
##fed
ghosts
shelf
dominated
devised
systemic
hint
msc
hopped
299
carrie
judaism
stimulated
dunlop
declan
novel
stalin
spiked
phased
##dara
中
pity
401
flinch
lying
morton
comparison
bounce
##lium
dq
[unused193]
lil
parishes
plasma
sperm
evade
æ
julie
新
##adia
revealed
##class
facts
inmate
mistakenly
kendrick
politically
theme
predator
1953
nielsen
1852
aggravated
[unused607]
cuts
bid
bc
supposed
tatar
tentative
glanced
misses
##unciation
rhys
diesel
verdict
##ᄂ
posture
foreign
readily
artworks
behalf
##御
fought
sect
smells
##haling
藤
行
ebook
##arians
gee
##garh
fx
##uc
vodka
##eke
salvador
impatient
##zia
hugh
cured
twain
##gam
rolling
##ada
1977
belize
mosaic
splits
sponsoring
maintains
disdain
##jong
cries
undertook
[unused527]
1654
delicate
heavy
papers
mindanao
resigning
ripe
ท
宇
routes
[unused820]
asa
horseshoe
[unused866]
pupils
bikes
unarmed
contractor
snapping
garland
##uss
donetsk
1990
minors
automotive
gotham
patented
alain
月
[unused686]
instruments
excuses
smaller
##cloth
studying
##ologies
strain
transfers
abyss
##45
##nesian
himalayas
innovations
placed
1983
soy
transformations
##bor
##nut
bat
gymnasium
temporarily
https
railway
raj
tori
clandestine
1821
aeronautics
##rily
isaiah
wrapping
pressured
##parts
##lessly
brightest
stopped
pleasantly
spray
1819
interred
designs
##yang
tracks
routinely
מ
mlb
##odies
moments
##rill
##部
sculptor
1b
sunk
prophecy
འ
##worthy
dictionary
advent
everywhere
habitat
regions
##pheus
##oit
pursuant
##lem
eligible
vancouver
weaken
ignoring
configured
##merie
iced
mustafa
580
##firmed
hana
er
flip
timor
##ов
1824
slabs
##⁷
pillars
ɡ
##tur
ceilings
surveyed
##ro
##cken
pedestrian
##fell
concordia
belarus
implements
guadalajara
##sner
[unused342]
scorer
sake
fungal
##eto
rhodesia
##dina
spiral
pencil
##ия
describes
[unused79]
trustee
arthritis
avoided
##child
branched
nonprofit
##path
[unused875]
qing
knighted
binds
membranes
luminous
decisions
ny
recently
צ
simpson
corn
correlation
石
pulitzer
“
[unused95]
moor
##ring
luxurious
spends
protruding
gaines
exceptional
##suke
suffolk
bids
guadalupe
powerless
disbelief
chairman
##iste
nursing
prostitution
pioneered
degree
recycled
rankings
trigger
lordship
##خ
jump
##emy
drown
mixture
presidency
struck
##ˢ
ting
medina
##stown
tributary
nicolas
report
##tle
verses
##iens
reformer
macquarie
##山
contracts
##bha
##nick
obstacle
armistice
##nagar
dl
october
testing
sociology
insisted
upton
missiles
##კ
##∩
drew
realizes
themes
diary
chevalier
defeats
heard
interpret
maguire
mound
nuremberg
rations
external
liked
tajikistan
university
martinique
ষ
arc
ƒ
instructions
pal
process
introductory
ledge
reasons
1862
creeping
landslide
messiah
##rna
##court
##fort
2a
bladder
230
##tman
committees
congregations
easily
lulu
mont
⁺
geometry
##gg
harper
navarre
horne
tender
undergraduate
khz
email
lois
##tis
nils
resided
paternal
curls
holt
##tter
montgomery
club
##ght
fastened
possession
hardly
notice
##xin
##500
##unda
с
pearls
stones
harvest
compilation
fumble
bog
[unused290]
##mt
stadium
juicy
towering
barefoot
##ა
lighthouse
liverpool
gaelic
patterns
roughly
skirt
valued
##ized
##rized
catalonia
##ngen
404
rents
informing
##grants
##som
astoria
accession
##ł
こ
hooper
capable
द
dorchester
##sto
administrators
compared
betrayed
facial
leaves
##nge
ravine
sigma
kindness
choosing
satisfactory
barrie
vile
་
de
dracula
thereafter
contradictory
masjid
coinage
louisville
roofs
sms
metabolic
milton
presenter
public
##test
##tops
[unused162]
adler
##aan
1817
##rnier
video
2007
crowley
laws
405
regain
zenith
dolores
1970
dennis
78
begs
##ல
##₃
briefs
voting
omnibus
antenna
diva
gray
launcher
[unused566]
patrol
|
>
kapoor
##pressed
hilly
coyote
snapped
unsuitable
coastline
dozens
stephanie
）
gap
rex
depend
grazing
laden
itself
glory
1961
queensland
sermons
cap
##anus
waistband
exception
[unused983]
madras
##ange
irish
##rva
278
hostage
enforced
overall
galveston
credible
taylor
ᴬ
lenny
谷
1779
##board
hears
salman
benefactor
constraint
heading
succumbed
historic
##hman
authorized
fundraising
[unused464]
pool
previous
substituted
swept
tammy
##mund
plata
1800s
##lab
holstein
motionless
planning
pseudonym
respectful
##avia
grandson
##ack
my
##factory
##yad
attributes
##ß
##太
fangs
depth
##hole
eurasian
manipulate
##rral
algorithms
exercising
olive
appleton
tablet
psychedelic
organizer
invariably
rituals
վ
leighton
defines
ussr
grimm
produced
youthful
contestants
litigation
snarl
##iri
##forth
produces
develops
developers
pressed
1909
contest
##о
processor
fronts
involvement
##ton
manny
parana
flashback
recognizable
corporations
valerie
clive
greensboro
entourage
meiji
1846
confuse
writes
lao
[unused243]
jacobs
ponce
prescription
##ricting
##د
amino
jc
##wan
talked
mating
pun
##yuan
##ض
idiot
archaeology
rising
strewn
chevrolet
##fighter
mare
sexy
##nza
adherents
owning
lowering
blanket
universally
##mies
federal
##zle
paths
randy
substantive
coup
##lman
attache
##rk
blocked
cows
infamous
##jer
compartments
##rus
blossom
passion
eccentric
lowland
[unused192]
zee
##onia
affiliation
liechtenstein
口
beck
##joy
##¤
barton
beheaded
fairies
symphony
fuel
deafening
dowry
stamps
##₆
elgin
graffiti
##sic
##drich
1711
executing
though
mph
##np
who
hub
amenities
##blood
fridays
retreating
sobbing
dresden
##tern
failure
clutching
faye
##oun
suitable
poll
registration
tossed
concluding
demands
alike
shallow
[unused613]
malaya
testament
yucatan
intervened
##den
tory
##า
[unused667]
opportunity
nikita
##isches
treat
##nded
sincere
##cup
locker
bullet
basket
香
##pf
streaks
wanna
regarding
##idon
decreases
##cp
beijing
gables
[unused360]
focuses
halloween
thursday
##bine
##ls
spontaneously
stores
abstracts
scrub
smiled
jan
cougars
cello
escorted
eclectic
improving
level
map
farewell
[unused743]
guerrilla
upgrades
greenhouse
port
lewis
agile
ah
sustainable
mani
##oed
counsel
trivial
##ci
##hh
129
goodman
##lich
assisting
##რ
despair
preceding
variables
that
humiliated
sequence
sidewalk
##miya
##ives
[unused443]
boxing
##bee
cheney
nicaragua
chasing
motorola
reilly
shrugs
times
hazardous
##)
##rge
venture
##andra
aryan
sigismund
32
renal
1712
[unused344]
claire
##lat
north
communications
soluble
shattering
persuaded
bull
eastwood
promised
##lidae
pilots
##icated
firm
korean
##rium
rustling
##eus
##oz
collarbone
lviv
##ட
[unused612]
fastest
emancipation
##四
rampant
[unused496]
]
propaganda
##weig
progressed
proceedings
takeover
contacts
suppression
ze
##ught
##zers
insight
女
##inates
seniors
transformers
marc
historia
nell
[unused734]
schwartz
[unused935]
piper
lev
##ix
[unused638]
##genic
[unused482]
##usa
cheat
grammy
tests
rooney
##cute
##bags
##zan
35th
¹⁄₂
†
thumped
directorate
attempted
bedrock
swindon
aldo
05
##coming
cavendish
ear
pain
oblast
flows
goat
strengths
weird
##kyu
28th
vault
##illon
##と
naive
218
horns
priscilla
##hia
serviced
attackers
chung
congressman
tasks
maverick
nostrils
∞
biblical
bala
##‑
[unused393]
##tar
##loh
reused
energy
##cular
##hein
tea
continents
##rcus
##ckman
##ছ
complaints
bolivar
college
okinawa
章
waited
obscure
baby
probing
synonym
frank
avoidance
described
saloon
cyclone
nfc
objections
aerodrome
hurried
tr
shocking
theories
##rail
##mal
flavour
dt
occupies
hermes
##ella
##治
use
argyll
intensified
##rius
hidden
musical
secondary
##wny
clustered
##rsk
dewey
brentford
healthy
##geny
##lch
anastasia
jane
##©
[unused30]
clifton
monarch
parade
augusta
ordeal
##♯
880
[unused892]
department
##phones
recruit
##bilis
##oa
##上
[unused370]
attracts
dhabi
wills
bottled
talks
[unused93]
taxonomic
thesis
beverage
gladstone
span
[unused346]
armstrong
tallest
bolsheviks
iteration
spilling
stripes
casablanca
[unused89]
##duced
##ka
##ran
[unused451]
substitution
##æ
candi
##lain
jana
assess
suited
cats
using
##ffen
forests
arrondissement
packs
##charged
##stov
##⊗
alison
141
aleppo
##avio
##gis
fundraiser
annabelle
nets
reaches
hanson
barber
##br
cassidy
onstage
1646
flats
hold
profound
pendleton
##front
choi
gesellschaft
antoine
fischer
##セ
newsletter
rodney
bourgeois
privateer
bowen
burying
omega
##len
invasion
var
divers
##ption
tariffs
cluster
rippled
risk
cradled
##ining
oversized
zhu
せ
popularity
intercontinental
prematurely
blast
##bate
gun
34th
##犬
arches
lone
convergence
208
geraldine
combination
##trip
recruitment
1757
dog
[unused510]
judgment
painting
awful
document
baha
unix
佐
hosts
perfectly
seem
sticks
visually
ministry
serialized
cloudy
franchises
maggie
##ages
coefficients
nutritional
criticisms
[unused148]
1729
1749
jailed
oil
jeff
hbo
explorer
aba
fairly
##cchi
380
fighting
greenwood
##duction
sand
ப
helplessly
mining
[unused349]
vaudeville
131
lcd
graf
lunatic
panel
##ginal
guide
penalties
rejects
remained
scarf
emphasizing
1016
malawi
thorn
necessarily
novella
eighty
##エ
exceptions
faulkner
mortally
toad
usaf
ibrahim
style
susquehanna
unbroken
：
staffed
customized
chemistry
decrease
##外
telecom
pioneering
##oor
consecutive
nomenclature
exiles
philanthropic
##crow
##due
violate
approximate
arenas
lyrical
legacy
humid
earlier
dean
edwin
##mation
investigator
modeled
farmland
sire
frustrating
街
1650
##hom
toyota
##jic
nora
cross
pile
##─
plants
norwegian
tna
servant
appropriations
ս
noted
##national
comparing
45
jubilee
zhang
##ichi
[unused815]
enigma
##ative
[unused728]
beans
chapman
correctly
flanked
thomson
heated
takahashi
prayer
conform
euros
khmer
mmm
pet
eu
readings
serum
preceded
complimented
longest
dino
pitted
skull
##mel
prizes
vigor
advantages
navajo
lakes
li
person
splash
manfred
eyelashes
’
both
regime
terrestrial
##gin
cryptic
leto
journey
weaver
fairs
protesters
gibbs
affectionately
offensive
relocating
ᵤ
additionally
[unused76]
risking
##ি
cassandra
pot
##¾
darting
angola
##¢
##bley
secure
barking
amend
buzzing
[unused916]
1905
fascination
seriousness
stuffing
##bra
modify
automatically
walkway
prowess
##osphere
##tro
kurdistan
##‚
newport
evaluation
relic
61
[unused676]
or
bwf
cobb
competitors
rotterdam
stream
twilight
deaf
photographer
consonants
barr
forte
mole
russians
supervise
cathy
forster
##ppy
##rica
spade
pin
julio
progressively
which
all
note
vase
leftist
##dorff
##iting
commando
interruption
tend
conditions
morse
rec
dee
magistrate
story
flare
wyoming
patience
delighted
predicted
1788
##nard
coil
aqua
[unused552]
##gul
kimberley
advances
##md
millionaire
rican
taps
smashwords
fiat
exclusion
shuddering
sideways
dunedin
porte
ர
chloride
##aja
[unused971]
camp
lock
commotion
overview
##tile
1886
bartlett
apostles
rocket
chong
##ht
1796
crore
⁄
##sions
baptized
博
released
projected
religions
boasted
##ک
evacuation
granada
vocalist
assaulted
chef
valley
##國
hartford
redskins
ratified
indoors
breakthrough
exceptionally
paolo
buckinghamshire
stages
plural
climbs
reelection
enrollment
ᴮ
packaging
incorporate
preparations
slaughter
ventral
##ย
wondered
mundo
帝
libyan
dec
ascending
welcomed
##باد
##彳
malcolm
##rm
facades
##ulata
cancellation
ask
azerbaijan
evaluated
fremantle
##dal
jerk
ji
persians
honolulu
bamboo
interfere
toledo
transports
##¬
ョ
romanesque
reporting
millions
ur
##sts
##hesive
banana
went
georges
passages
##ij
fatal
twinned
jews
##wehr
available
despite
rugby
ale
ski
##eli
continual
armagh
barbarians
thus
translated
##sitor
cruises
distances
dj
jurassic
parker
skill
someplace
heiress
equality
hallways
##hall
##~
cadence
nbl
[unused857]
crossings
arrange
vo
rudder
##nivorous
##aina
inspected
##ausen
##erine
entertain
entity
trader
righteous
ruin
streaming
dinosaurs
before
inventor
marge
terminate
webber
gases
faithful
##前
cease
sanctions
##enary
americana
encounters
santiago
christmas
prefers
loosely
storylines
faerie
psycho
sherman
wolverhampton
！
nylon
deputy
handwriting
williamson
orchestrated
gives
uppsala
emmett
##ts
pull
bran
noise
brandy
click
piss
nuclear
padre
[unused233]
canon
э
cages
sweater
neatly
equivalence
racks
third
basel
joked
robin
sarajevo
stu
⁴
overlapping
battleship
##ள
##ᄃ
penis
##rank
drains
上
[unused874]
sneaking
munoz
bryan
razor
confession
harm
executive
silently
fundamental
specialising
unpleasant
berlin
aaa
83
leyte
mcintyre
implications
gunslinger
##gall
heinz
geographic
#
43rd
[unused987]
births
discovers
tierney
colours
lizards
##«
##text
slopes
##hine
rhone
田
[unused9]
from
francois
mats
jaenelle
##坂
borough
##mie
marianne
screen
documentation
property
##ⱼ
enter
##tly
##tructing
kick
##ং
##34
millimetres
romero
suffering
willow
##cence
anchors
ram
unification
vaughn
##bank
crossover
denise
makeshift
bracing
hot
naming
kenyan
##lder
##economic
[unused721]
competes
1737
##hma
brooke
##tes
madeline
stil
mushrooms
incorporated
winced
dove
distressed
##bol
##9th
##yd
1682
##de
excited
##dington
cyclists
rio
repression
smiling
turk
##to
indochina
existent
gum
[unused636]
distillery
##kar
tribunal
##isi
formation
pocket
##rington
regimes
mackay
amongst
starr
##会
##出
critically
guam
1786
genuinely
someone
appetite
yamaha
rotated
⊂
keating
sikhs
snyder
automated
jolly
##rag
##ي
##陽
bret
gang
illuminating
inside
neutral
reasonably
bidding
ล
soaked
hum
servicing
moth
yiddish
packing
leash
##rr
##ン
arranged
192
##oki
[unused954]
heterosexual
magnificent
edouard
##ہ
fond
##ο
anzac
fiona
distinguishing
[unused715]
serves
strands
isabelle
zhao
simplicity
wellesley
hearings
hansen
eternity
somerset
wesley
acquire
tang
aerial
##thest
ants
michael
outlets
talented
##ণ
cavaliers
と
4a
[unused585]
jaws
atkinson
superintendent
almighty
worrying
tumor
deed
##λ
[unused430]
aid
balanced
kingdoms
##tery
confrontation
defending
##(
##س
##iously
##rth
smell
##rase
jogged
happens
regarded
constabulary
##200
##lag
[unused773]
akira
imaging
111
exhibition
saxophone
##ivism
##music
jolt
mp
reed
edible
jia
strangers
dso
##sis
##rza
##pressing
##ன
radicals
##hun
custer
##aves
landing
thereby
##eres
shri
stew
unacceptable
bladed
oblivion
narrative
##inal
glover
archdiocese
##roud
michel
closer
documents
aired
##back
covenant
hampshire
prescribed
##aj
lodging
22nd
should
chained
legs
sans
jensen
elbows
[unused921]
bow
well
hereditary
brussels
1766
stat
##kker
[unused923]
flaming
##orra
topping
##●
higher
finance
door
ek
salt
stammered
unmarried
decorated
evergreen
320
##mine
surround
chorale
274
registering
##ares
libre
telenovela
gandhi
ars
closest
##yen
[unused445]
zeppelin
##iest
##yna
are
kidnapping
会
georgetown
known
payload
vines
words
directing
##hedron
landon
greatest
portage
unseen
##也
east
scholastic
breaker
assessment
und
[unused798]
echoing
##ina
grasp
##irs
dat
republished
trusted
tortricidae
musa
ponder
cliffs
euroleague
##hee
marches
γ
emi
snowy
foil
##kat
fey
australians
##nov
3000
[unused528]
flaw
310
travel
percy
lastly
musicians
proprietary
##carbon
都
##uation
##q
advancing
ranger
##laya
##三
gaping
packers
fluids
carmichael
trail
icelandic
profitable
scandals
warehouse
wrestled
marjorie
hive
grown
upgrade
aiding
macro
##ₜ
illnesses
##pers
357
ata
##ize
sentai
elector
broadway
landscaping
ten
##oven
ling
petra
alicia
##mage
reducing
##ime
##ing
instructor
railways
##river
sugar
teaming
wayne
1772
written
さ
元
glasgow
we
main
##–
seriously
throw
##פ
camille
syllable
accountability
##ष
facility
iraq
fishes
1705
[unused512]
##cture
##⟩
telescope
##ₗ
bed
rape
##zko
believing
butt
##mos
fractured
chance
##lvis
vogue
##cturing
##ga
stacy
reference
marguerite
277
thirties
flying
statue
doin
[unused823]
bulldogs
chimney
##weiler
##བ
appreciation
##dc
contributed
##kie
individually
₃
macleod
sting
##rat
unnamed
##rian
280
basalt
sterling
sobs
##ভ
##区
footsteps
infinity
possessing
[unused444]
[unused571]
##sit
ivo
entertainment
cora
##llins
sweat
guerra
##din
meters
reporter
algebraic
ua
expressions
demanding
jokes
ɣ
nicholson
characteristics
##ay
lifelong
spectra
analyses
taxation
yugoslavia
harley
enforcing
42nd
brace
ᄂ
##ⁱ
bungalow
##ce
##systems
steak
dwarfs
leg
subcontinent
##f
blackwell
simultaneously
constituents
##gues
august
conor
featured
perfection
totals
performances
thoughtfully
sears
innate
panic
doorstep
carolyn
kneeling
保
##行
operates
pudding
##itaire
ignatius
##raz
edition
pleasing
[unused467]
digits
swap
spec
vowed
christophe
bore
populous
spared
carpet
regents
galicia
シ
compromised
##logram
means
##г
##tas
activist
seeming
瀬
350
constituent
roberto
attorneys
##iensis
##eg
founding
saddam
shack
unknown
regina
chairs
calculating
dangers
toss
reinforcement
plan
viz
patriotic
impending
sax
modulation
dc
surprising
##pps
overhaul
♥
russia
##、
##4th
193
colonel
oracle
parcel
recognizes
restrictions
##giving
##gy
elusive
wireless
tractor
victorious
male
##rane
##sily
175
##hing
dotted
mo
savior
automobiles
stiffly
firmly
mistakes
##ч
concessions
turbo
flair
criterion
trumpets
blunt
republic
pausing
screenings
##zyn
stroll
switzerland
##rich
deep
lizard
plastics
mandarin
emeritus
##name
likely
scanning
structural
riley
consecrated
sonata
exhausted
331
##lco
finger
defendant
sidekick
viewed
##les
normally
territorial
wight
龸
darrell
##ople
chalmers
humour
portion
haul
stacey
joshua
##tino
sweetie
kissing
certainty
tapestry
serbia
explore
sniper
##nder
##ette
##balls
sonny
reserved
deserts
pointedly
##kulam
##ored
epsilon
apologize
situ
angular
offs
##gne
る
seat
canton
laboratories
[unused416]
[unused884]
##ert
conqueror
popularized
##iente
##mounted
vassal
##tock
[unused940]
48th
titanium
fitzroy
##ɛ
philharmonic
member
obstacles
unconventional
iata
strained
auditions
shafts
hesitantly
magma
ₗ
chuckle
johnston
rhythms
##nen
fungus
thierry
##using
cheeks
countless
lacey
nicely
scalp
##lais
street
manuel
clara
early
janet
unsuccessful
##tania
vols
##hiff
nate
ammunition
maureen
##∘
segments
unincorporated
[unused620]
##hey
##צ
fielding
hoffmann
ウ
##una
cook
aim
baton
periodicals
##چ
真
##cum
geelong
cupboard
wonder
##nally
angie
deposit
digital
⟩
igor
##স
architecture
rose
bravery
consensus
里
foremost
##vie
cement
monday
##ison
enthusiastic
deal
neville
sergey
##guard
bestowed
leeds
##mat
refined
washed
communion
until
vimes
anton
transmission
ella
promoted
disposal
component
inventions
ratification
expansive
november
walked
judgments
patiently
oscar
holster
##oshi
moritz
1815
competitor
tau
louvre
bessie
##川
blackmail
virginity
gabriel
hume
confessions
pipe
determine
gently
coordination
##inger
bianca
##uary
dumb
pressures
environments
##ink
teammate
ィ
patronage
varied
penultimate
80
checkpoint
##江
barrington
lobbying
##oms
##น
clad
crisp
stabilized
வ
distributions
##p
##lift
##vao
[unused555]
eaton
##gr
turin
commentary
scrolling
mcgrath
optimization
[unused886]
ecumenical
peru
cheated
greed
crashed
disappointment
accompaniment
cavalry
و
gaddafi
critical
bologna
foley
destination
regret
dentistry
hooves
archaeologist
sh
verb
problem
seed
endowment
quadrant
1910s
##ford
poisonous
hardcore
##sas
dismissed
names
sands
joints
don
ultimatum
##ometer
sends
##off
quinn
##ony
organs
shores
##mack
##chase
cleaner
decide
stereo
agencies
files
minerva
##」
buildings
##layer
##ƒ
armenians
##kko
##kell
developmental
unitarian
weekdays
ignited
propulsion
loan
jesuits
vow
nave
daniels
tells
⅓
netball
ᅦ
installations
auditorium
[unused786]
##kins
insertion
heartbeat
##rine
mercenaries
protect
##dern
##cie
slavic
##₍
nancy
floats
cdc
scoring
electricity
##hua
[unused316]
ashok
proof
##bron
##¹
glad
compute
intend
encryption
##nosis
permission
standard
successes
##eda
##ezer
##hawk
apparently
volcanoes
##rou
higgins
strip
##linger
migrating
react
##vres
expansion
forbidden
bengals
hackett
medicinal
ottoman
let
820
ashes
ministerial
swinging
##vsky
##dict
±
experimenting
##sol
indie
excursion
##ilis
ゆ
pads
endurance
patron
jingle
hire
##der
daisy
oven
##een
[unused126]
veterans
intake
pressure
prominently
##minated
doubts
1806
##gill
nikki
osborne
francs
welcome
##ick
downstream
justified
requested
pursuing
[unused412]
drawing
laborers
excess
acclaimed
##uron
odi
##ssed
[unused271]
cartoons
mikhail
moe
tate
##郎
1891
thugs
##notes
longevity
##bus
limited
mercantile
bubble
waldo
principal
confirmation
88
addict
bandwidth
hideout
sustain
vittorio
detectors
##|
molly
##war
rescuing
pickup
landau
rushes
reversal
overwhelming
##hart
update
rested
##eb
swearing
ᆷ
prof
##tree
vest
allegations
##heart
##ried
engineer
##nal
##iac
howard
conjecture
agreement
frigate
##ibe
producer
socialist
reservation
tricks
maori
wa
officials
quickly
glaciers
manipulated
―
remarried
uprising
##gan
##isan
##lot
fort
inducing
respect
dragged
guidance
colourful
blamed
covent
hiding
reason
##gen
##mind
##ε
pacific
karim
##ractive
exiting
malicious
##uli
routines
invite
helm
[unused286]
protestant
be
##oids
bei
łodz
sublime
militant
doubtful
crab
mariners
##fish
edison
minerals
portrayed
##vite
distorted
sparks
flexed
presumed
quest
gentleman
distributing
##sworth
employ
issue
anticipation
stone
1750
##pol
parlor
##良
bain
jimenez
tending
christianity
hi
##史
harassed
1906
application
escaped
hormone
sylvie
##tions
ee
buena
‖
hardcover
manuscript
840
stretching
ultimately
punta
biological
weed
another
caf
##chemical
[unused61]
খ
dealer
speechless
raceway
buried
abe
dirt
lines
##llah
##り
toy
mason
fergus
aids
danielle
##oise
interrogation
vertical
destructive
willem
##ne
##ms
schubert
according
##西
darted
##bots
##rigues
socks
##heater
[unused145]
kazan
##gara
mirza
guzman
phelps
##oper
世
iranian
mr
##rage
##γ
wrought
##ogen
hadn
sonic
integration
##ɨ
clawed
mandatory
jonah
persistent
sheng
sorts
cocoa
golfer
goods
impatiently
larvae
chopra
wardrobe
pv
ecosystem
##anto
exploration
misunderstood
poetic
char
secluded
roderick
noticeably
bitter
touches
trickle
graduation
whereby
bouquet
cartridges
cemeteries
commissioners
muffled
shifts
smithsonian
##29
oxide
twelve
cheered
nipple
1758
obstruction
algerian
hamilton
##itated
bi
##d
1664
slack
agricultural
guilty
1869
cascade
edmonton
##ece
establishments
caledonia
spheres
feast
##ᵢ
##囗
policing
pry
##小
##voking
mckenna
##osa
##wani
teacher
##nch
##tford
##ක
##osomal
constructions
favour
reviews
fortification
interactions
raises
##mental
##ester
towed
replication
brownish
clipped
massey
olympus
##dna
sichuan
antagonist
conversions
worried
dakota
land
##tangled
##rogated
aw
##lu
sentiments
¦
##bit
stolen
fibre
indicted
themselves
visitation
businessman
fitzgerald
interpreting
willy
apparatus
dunkirk
##eet
ᄀ
##umble
pedal
##iate
abdullah
amassed
frustrated
uneven
182
dim
tariff
1856
speech
ter
teach
reptiles
aboriginal
seating
alcoholism
depictions
##rmin
almost
defence
##dak
legal
louise
solicitor
##hin
satisfy
junior
49ers
turtle
accurate
##rer
malaysian
aged
allergic
hanged
##rol
##ined
wizard
cared
modernism
##zy
##ᅡ
##¡
[unused54]
##om
brown
vice
##usly
##talk
##falls
ambassador
##ym
pit
newtown
##nting
##tley
##ா
invasions
hamish
##stic
rattling
connolly
floyd
pension
migration
##ura
religious
phone
##ு
solutions
decline
altering
bjp
##mmy
lift
[unused14]
downed
有
brisk
prefix
elise
ravaged
crust
night
##ooped
[unused44]
hundreds
harvey
davenport
goofy
##culture
eggs
[unused128]
closure
traditions
##tos
mag
##tail
newscast
agreements
barbed
onset
yards
discover
15th
##tow
yellowstone
efficiently
fontana
##pour
##nstein
##ducted
architects
genevieve
rumored
caribbean
permanently
snail
vinegar
##⊕
hitch
grading
patsy
marines
snuggled
casper
watson
casey
frustration
trams
##sboro
repealed
tumbled
nord
couldn
pods
1925
ark
1759
pablo
outer
klein
panicked
pitches
becky
[unused110]
emerges
precautions
administrator
sincerely
leon
pathways
traumatic
entry
pulse
bose
sign
inventory
performers
marquez
composing
dem
##リ
pale
boards
blank
fake
gs
##lana
[unused171]
##vance
##ς
[unused970]
arturo
bewildered
echoes
izzy
fisheries
josh
smith
tenant
crazy
風
##kic
##enting
[unused415]
[unused433]
nairobi
poured
spinal
prized
vietnamese
tissue
kristin
organise
##ʎ
incomes
##ड
sandwiches
louisa
mark
grinning
depart
werewolves
bt
stepped
own
##氏
##rz
shaded
mit
##tension
ray
##rop
fiesta
arranging
specialization
emil
residues
hypothesis
piano
[unused263]
wildlife
##rigue
295
##gf
destroy
trajectory
surfer
rook
ய
##tv
directs
shipment
taunting
##vana
##arm
adverse
quarterfinal
##moral
version
##下
asia
begun
tidy
3
muster
colts
ˢ
aide
[unused439]
trait
##ma
uno
##gal
nothin
ended
follows
[unused403]
ioc
chronic
northernmost
settler
##ish
[unused185]
kathryn
ginger
lingering
##veda
##rose
challenge
severity
build
lucy
warmly
##apa
herring
amin
slump
小
##kaya
[unused8]
overtime
usb
[unused250]
heel
ד
stop
squad
citizenship
[unused858]
##bb
peng
carleton
##dome
united
greece
accelerate
reopened
1716
pointing
kemp
##chers
##cycle
fail
##ional
whenever
richer
freaking
gaga
grandmother
meek
nationale
planets
moose
transformation
apostolic
1955
translation
№
greet
malik
fuck
beirut
stuart
[unused81]
bundled
elemental
justification
comprehensive
something
yields
corpus
lime
ந
##eric
echo
example
sato
resolution
logistics
√
■
##astic
headmaster
##port
##gation
cause
antibody
playboy
##ী
radiation
##houses
caves
circulation
highlighted
par
gain
intended
##has
armory
utmost
##grin
##rch
withdrawing
step
ja
skeletons
captained
sunlight
irregular
fares
##bana
##ier
[unused329]
gown
ich
particular
fulbright
productions
##dgets
##tium
mutant
playable
hope
gathering
convert
rubin
stool
arun
fearful
diagrams
##lves
carrier
parliamentary
frey
marco
tyrant
roberts
picasso
altitudes
rms
##udy
[unused843]
parisian
compositions
##wat
##lver
disasters
##real
##aks
zombie
[unused809]
##fu
cayman
dye
job
expanding
##tase
vampires
thrilled
robbie
sanford
spreading
##ₑ
glee
##প
velvet
lot
stafford
nanjing
surrounded
syllables
organism
mercury
syndrome
orientation
aiming
1842
partisan
##had
miners
##claiming
matched
ᴵ
glass
diminished
supposedly
##yn
flashed
creole
kite
specially
rendition
[unused624]
hurling
beetle
eastward
wavelength
fl
stony
[unused59]
davey
jungle
##ntal
emerge
[unused832]
crumbling
moist
paso
there
chords
galen
##ʲ
##lance
latin
refit
##و
covert
stock
．
observatory
curving
clearer
barak
resign
##escu
decides
collects
##mbs
ms
flaps
##=
##copic
pages
##otto
lateral
##laid
sanctuary
⁹
ireland
broughton
[unused888]
gutierrez
spartan
assumes
chimneys
adjustment
oppressive
en
habsburg
##ises
bs
installment
wembley
supper
paralympic
rebuilt
relative
warships
crook
slalom
slipping
cool
current
fishery
blooms
rub
aria
daily
reese
[unused141]
convoy
path
harry
ッ
sergio
scoop
labs
dwarf
mercedes
midwest
alba
##nical
eater
cookie
replicate
clamped
janice
confirm
really
league
nc
##ᴮ
replied
##lateral
loads
hearst
secrets
regulated
potsdam
1993
fuselage
##cek
confronting
dash
149
wards
figured
pleasant
christian
afterlife
orphanage
scale
geography
##otype
nationals
persia
riga
##stead
##lva
##nall
ghostly
glove
texture
shortened
shuffle
creaked
##rzy
behavior
ᅳ
##ය
periods
cable
kate
symposium
retracted
##pired
conflicts
oversaw
##wled
parramatta
gleam
##bin
##tech
spectral
1610
floating
suspiciously
sophia
gaulle
##rac
departments
bronze
##tagram
everest
abigail
turrets
tooth
978
coach
##ello
nottingham
##hal
brandt
painted
##play
saddle
##rel
triumph
settling
##raine
##ksha
punished
##आ
kit
professional
metallic
##ine
##秋
voltage
zen
license
ே
conducts
anxiously
pushed
horn
slavery
##routed
##fleet
##13
cbs
achievements
perpetrators
monetary
tunis
evangelist
raaf
concession
homicide
pp
ecosystems
encompasses
hurry
recipient
##ige
arose
canopy
batsman
humorous
interviewing
chartered
employer
headline
##hend
standing
plotted
ice
prominent
fiancee
mine
variations
##tablished
charm
gig
insides
tightening
##tained
##so
352
ivanov
.
existing
convincing
[unused18]
appear
defender
##rte
half
traverse
2017
000
chant
gonzales
##izations
##nh
[unused729]
muscular
wrists
##jian
five
deeds
prodigy
cheek
unmarked
random
inspector
assassin
algiers
##ene
##tc
hotels
buddha
joining
samurai
extent
murphy
##thi
craving
parts
plagued
##uis
savanna
engineered
packet
benevolent
holiday
syriac
peanuts
venerable
got
conscience
reach
扌
tapping
[unused127]
liberation
bubbles
inuit
decreasing
##mb
clothing
preparation
##urrent
モ
expression
joshi
##bers
gettysburg
career
hertfordshire
allowing
≈
nightingale
rest
##iner
typed
optimism
martini
beds
marvelous
##maid
##i
##尚
lurched
costume
resemble
##व
inched
##ood
terminated
ʲ
binary
lacy
stockton
poor
##wing
fifteen
rounding
下
arterial
astonished
bowls
shorts
analytics
es
cruise
[unused764]
vacancy
formal
barrage
hasn
##oro
pays
##_
myra
engraver
subset
instability
bridgeport
##hawks
gustave
slate
slippery
##kt
##hem
marta
##pile
revived
carlo
engulfed
valleys
biography
wingspan
masked
nehru
##und
lighting
st
exploitation
diversity
senators
min
2
compliance
gripped
hedges
reinforce
consult
partisans
erosion
sierra
being
commit
##furt
goethe
sweetly
banner
##mmon
traditionally
##ren
##church
##wil
dessert
pillar
##tream
deployed
presidential
reader
arizona
backlash
##平
domestically
passions
hours
choice
served
sketch
soundtrack
carlisle
horizontal
anytime
sc
rejoin
monitor
公
loco
ti
海
bedfordshire
1897
cervical
governed
169
nurses
tirana
##tance
athletes
1710
terry
truncated
adapted
མ
government
zeke
41st
westward
tower
dominion
make
kyushu
renovated
thirds
morley
dom
file
[unused508]
colleges
connected
##sen
indicating
tai
##minate
[unused287]
gripping
veracruz
adept
英
##erving
sudden
witnessing
##ister
quartermaster
religion
anatomy
sandy
##js
##nais
pets
26
widening
refers
shreveport
disorder
shades
tingle
smart
textbook
damages
blurted
##oj
[unused920]
crossroads
##ances
daytona
##iana
##old
##uating
asphalt
memorials
internment
wedding
director
bonaparte
isabella
romantic
bisexual
##trum
freeze
winds
##mba
##ェ
adequate
century
##rta
edinburgh
##zuki
arrows
sculpted
##puted
positioned
applicant
mixer
fools
sykes
serial
desmond
##bant
destinations
frontier
sole
ल
##lston
descent
##lia
clears
##nden
nmi
scraped
array
ᅴ
##med
clergyman
maurice
##ɾ
transit
wynn
crucial
##rell
derived
worcester
invitation
pumping
##ᄐ
devil
betray
##ols
shi
debts
##gaard
##ye
ro
‿
elliptical
municipalities
##vic
synthesizer
良
stimulate
phrase
nationalism
baronetcy
##eiro
[unused363]
朝
pony
began
amplifiers
fruits
acoustic
trent
nadu
generated
ו
dual
algae
sane
mastering
fellow
burnley
purse
crater
dare
##₁
##থ
griffiths
dignitaries
injuring
##ters
columbia
heather
huffed
356
reorganisation
fra
##戦
cardboard
grassroots
acknowledge
standardization
##lr
advocated
berg
boredom
drying
legendary
tennis
pirate
tramway
prosecuted
mechanized
nods
happy
hurricanes
circling
##emon
yan
symmetric
##dog
plains
##dication
pairing
present
##day
bombed
superiority
sylvester
ₚ
simeon
##led
chimed
3a
irina
vance
##vat
宣
ligament
thompson
its
##lf
inspection
##saka
incident
coordinate
calais
##щ
meetings
bite
1704
skye
花
departing
gets
gifted
##scribe
vanessa
##eri
lakshmi
##rma
bearings
galilee
##train
leasing
leader
##mbe
hawthorne
dvd
flop
stays
##slin
bentley
##内
##hei
sophie
economies
##dong
##tz
kills
##uta
rings
harding
##eca
「
detachment
clay
##ede
##lace
generic
volunteered
mates
armoured
triad
##good
manifest
willingness
academies
32nd
bet
490
##力
[unused811]
jocelyn
##eve
pauline
feminism
aspect
alfa
##long
darren
state
##hea
concludes
stats
gma
laced
remembrance
zoe
causeway
[unused548]
battered
generator
1703
perspective
ties
lithuanian
[unused234]
##ater
amor
##door
erection
##jo
blending
spins
[unused657]
##iff
psychologists
##icio
##lor
##gled
marcia
[unused911]
bony
cocky
##chi
iqbal
stormy
##н
cancel
peacefully
staggered
abbreviated
probe
skyscraper
##wick
empirical
takes
waterford
considered
battles
ross
1854
indo
trend
seville
122
pharmacy
##bby
[unused603]
gardiner
slashed
ม
ʰ
gladly
keynes
waterway
was
backup
colton
leading
resembles
demonstrates
vaccine
##wall
inherent
vulture
91
sunset
antarctica
supplier
col
ᵣ
##iculate
jang
b1
airs
amman
woods
力
stunts
translucent
พ
##nus
hurriedly
crate
syn
variation
algebra
kassel
wild
##bedo
carefully
chants
##owe
concentrate
designed
emergence
##tu
##yo
pneumonia
[unused900]
reflections
tandem
selections
unofficially
power
dinah
[unused74]
insult
##nian
retrieved
wickets
variant
##bourg
h
prey
skies
terminology
dragging
shell
responsible
uncanny
##ive
tenants
households
symptoms
a
barge
pastor
rosewood
##lio
##ddy
##vita
spirituality
cardiff
calculated
inference
banged
napoli
kidd
desktop
alone
booths
recovery
building
道
<
radically
shrinking
desperation
wes
aye
yoga
emily
advertising
vc
##erty
structures
asserts
kenton
cooper
shops
tan
##nium
associates
mexican
ramps
##eo
##dock
jackets
##yce
231
flanking
sped
bal
®
dictated
##uru
##ք
1918
creature
caldwell
##ition
atlantis
tends
wounds
candace
accessed
meredith
thunder
hungary
remnant
sultanate
difficulties
lama
marine
notification
beginnings
##e
163
supplying
denny
swirl
gmina
orthodox
understanding
share
brigadier
este
board
funds
stealth
camps
revelation
井
##hic
##deck
##erate
concepcion
wal
cousins
##gl
[unused260]
surgeons
##mined
jets
burr
het
torch
থ
summarized
##anial
portions
[unused513]
inorganic
aliens
meant
torres
radha
東
brien
##hoot
##千
fisted
buzz
2018
##阝
hampson
menu
provoke
wehrmacht
eminent
severely
##strel
relevance
##rwood
weights
full
mighty
amazing
replacement
afghan
incurred
hopes
sabrina
foraging
##schen
mechanic
##hy
costumes
##ente
##rug
fig
million
organisations
implement
remainder
rivalry
ulster
km²
nl
systematic
realize
di
azure
fixture
crossbow
dusty
testify
rudy
conceded
##sson
malley
poised
nut
violently
iceland
stricken
##е
bike
doug
restoring
refused
word
compensation
rookie
mumbled
##lai
##勝
water
##itation
wiltshire
[unused538]
tick
stars
byron
vertically
insurgency
puff
flinched
fooled
conversion
individuals
[unused84]
caught
##ʉ
investigators
bangalore
timely
ᵖ
murderous
blah
winkler
knox
conscious
rainer
##"
garlic
sadness
seeks
##gies
serbian
tex
needle
moreno
improved
generating
nationality
rappers
gladys
##ned
eastenders
φ
homestead
refusal
jogging
paints
brilliance
center
presided
##ites
certain
sudbury
eugen
kern
##pas
##jure
visible
##rrow
finite
civil
knowledge
coast
rhodes
jammu
[unused387]
backward
dominic
rediscovered
bradford
cores
transferred
married
confident
siemens
italics
1746
521
elite
1805
chase
inhibition
killing
宿
locks
diplomat
cigarettes
##dium
proton
savannah
ो
organic
tanaka
司
tens
important
haunted
whitaker
shot
intrigued
##ull
##ں
convex
##ually
justify
liu
schools
##planes
cork
ballot
##bry
[unused991]
##ᆸ
##yle
##nberg
remark
stealing
rise
##rino
simplest
##ung
##生
久
butterfly
asshole
##mble
ɒ
fluorescent
encore
##pped
examining
caress
lyon
encouraging
squeeze
anything
merger
protestants
belly
bb
internal
stevens
glancing
branching
##dana
##owski
##ail
##ɪ
assessed
lim
gustavo
uses
##oping
仮
whistled
commands
harmless
rewards
##ock
[unused310]
60s
[unused330]
traveler
dana
##ised
implying
##naut
saratoga
chalk
25th
[unused353]
##oran
ap
graphic
probation
[unused368]
mackenzie
[unused663]
fueled
soviets
grunt
relief
gangs
informally
reconciled
bernstein
dietary
demand
##ays
##ivating
ほ
political
[unused384]
##ล
listening
##metric
suspicion
parental
railroads
armchair
arroyo
sharpe
כ
yugoslav
[unused94]
stability
[unused945]
restoration
effectiveness
1850
mcbride
##mates
cocked
jakob
edna
marley
consultants
##het
##rard
##社
growl
christ
##hya
roared
[unused446]
citadel
strokes
margot
umar
erect
turks
exists
##rons
oriented
##zano
further
incentive
milne
starring
##row
crowns
infant
##道
against
clarified
reviewing
topology
##vere
corridor
##athic
dame
translator
##swick
royal
shrug
entrepreneurship
rehearsal
somme
warner
intermediate
[unused147]
ahmedabad
##ores
saxons
geographical
gujarat
handkerchief
scissors
auction
lyons
31st
noisy
##rra
gestured
sharif
incapable
milford
displays
fantasies
josiah
mecca
neurons
livingstone
egypt
renaissance
ska
mapped
constellation
italiana
consuming
[unused82]
[unused12]
goddard
ph
dar
212
##sons
1765
##ward
winnipeg
cloak
carson
megan
aidan
glen
##ods
##year
elect
stating
insists
faltered
manly
##rah
版
physics
tia
worse
##mament
1960
hokkaido
musically
pause
##sms
distributors
curiously
cursing
freshly
clever
benson
inevitably
welding
##way
1898
##ati
##ᵥ
copies
behaviour
basha
close
wrenched
damn
implicit
larger
adjutant
fabricated
ruins
##龍
jens
champion
para
sitting
improper
##min
kwan
[unused965]
securing
大
sly
sentence
aura
detached
##itors
councillor
premiere
awareness
northeastern
##otide
pang
##lastic
squealed
palo
##ands
[unused431]
festivals
identification
福
beetles
conner
euro
cole
meyrick
ᵐ
garnered
sensations
内
moaned
+
solved
##sal
##uate
difference
swansea
ل
wilton
highlights
luxury
ornate
ensuing
save
shotgun
borders
victorian
hartley
philanthropist
supermarkets
alto
astronomers
poison
##fying
##/
##nae
already
thy
downloadable
margin
##स
[unused787]
tn
alberto
heavens
##nty
1941
catholicism
ineligible
pockets
encouragement
[unused687]
ʐ
baptised
swami
delicately
[unused475]
pavel
114
##₩
##yler
ceremonial
##onus
cameras
##sh
[UNK]
##phila
controlling
liable
patent
reports
slept
spike
circuits
ᴺ
imitation
jamie
napoleonic
gregor
asserted
patriot
ab
shrub
##xa
turnover
##berger
letterman
jed
winchester
##rians
governmental
##all
susanna
quebec
struggled
predatory
tab
##lates
shivers
homemade
isaac
elegant
tool
colorado
eliminated
cpc
##king
dispersed
dust
herbs
##chison
authoritarian
к
deportation
apology
##chule
rebirth
converse
augsburg
vaults
fresh
地
understand
##bara
##ray
walsh
##ო
[unused488]
pact
##fp
237
boston
dissipated
##lho
##rice
laundering
arte
radiated
squads
episodes
##hunter
##同
harlem
##lette
##mah
[unused941]
transforming
bilbao
##ska
hydrogen
nintendo
orbits
##idia
sampling
regrets
宮
ф
[unused197]
tram
brighton
barron
##backs
կ
##pate
lots
patents
1770
dialogues
james
municipality
##lord
target
##inas
##dust
cape
emission
starving
incorporation
luce
cleanup
postwar
hammering
typhoon
cyrillic
fragrance
africa
##石
oddly
##ule
encountered
298
extraction
contracted
inches
##chet
broadly
consonant
##iating
mcconnell
1774
lucha
##rson
foundry
ᄒ
origin
1727
bile
conservatory
ramp
bryce
biographies
katy
##rini
##onic
##ب
secret
strictly
flanders
bahn
menace
arya
##ea
modifying
##ota
determining
##buro
##ח
fate
mutual
waterfalls
trembling
##cats
harder
storing
singer
##xton
insulted
racecourse
situated
1950s
len
collaborative
##el
finalist
airspace
images
abbott
##bro
affection
onion
##vent
saturday
rwanda
lola
##iness
##wine
technology
##vington
lodged
ක
untitled
fade
skier
yawned
invited
marijuana
mclean
worms
[unused355]
govt
ml
[unused597]
cocaine
pond
kira
air
mala
##hrer
[unused424]
blocking
good
happened
marian
coherent
egyptians
fills
870
soc
rune
zoo
##rka
synchronized
##城
##itha
builder
ん
330
cupped
devils
acc
parole
monument
##iman
gupta
revelations
mentioned
fr
loans
##dman
marsden
##ø
chatting
elaine
breaststroke
guardians
slower
maintain
perennial
##gga
layout
shots
[unused212]
deluxe
grinned
polymer
picket
4th
##し
visuals
[unused142]
##lices
neighbour
##onte
graveyard
casualties
56th
grin
petroleum
sparkle
##cen
bodily
unit
##ades
outsiders
jones
goes
laptop
cam
renaming
spouse
##ower
##ern
password
##ɑ
##م
il
earle
##tine
periodically
landscape
boone
vain
canceled
島
##oxide
nsw
kamen
sip
##sable
elves
pancakes
[unused150]
##yt
##nine
detection
341
sous
shielded
offender
iraqi
radical
136
queen
aluminium
##uous
seventeen
##rro
1851
##ows
intercepted
outskirts
coined
pumped
vibe
enclosed
botanical
fraternity
sk
truss
graz
accuracy
emory
lump
##ishing
demonstrations
和
win
##27
novice
campaigns
brutal
[unused46]
##elo
wharton
eileen
horrors
##anta
##μ
figurative
##gens
finances
trout
[unused2]
gr
pissed
پ
##clusive
lille
##utnant
inter
trained
christopher
impulse
parked
timothy
insurgents
recapture
mar
kilda
hammered
138
numbered
barrels
invested
[unused504]
allegheny
antennas
courses
##bbly
printers
tendencies
text
separation
thriving
yvonne
doe
##hay
tablets
operational
cornered
beams
defenses
palms
zion
##odle
##tish
resolving
valiant
##ρ
cooks
observing
##nitz
applied
statewide
constituencies
inspecting
extras
moods
horsemen
friar
sumner
##eon
joel
serbs
byrd
fai
30th
##inen
bulky
administrations
ை
ʷ
##ᅳ
purchased
rapids
opinions
julien
crush
seven
tianjin
amir
unfolded
limiting
zheng
chancellor
everett
[unused29]
alternate
retreat
##uram
##nan
alarmed
tanya
buckled
palestinians
lionel
cakes
ও
mabel
bella
bee
cao
displacement
ok
reform
←
495
smashing
eerie
##dad
moody
towel
ম
##kal
sensory
1858
typical
##world
handles
##let
p
##boys
brigades
delaying
blindly
##rak
longitudinal
sloop
1738
58
channels
dripped
orgasm
profit
[unused410]
championed
##var
##gano
gorgeous
alleviate
plantation
rattled
##aly
##owed
ね
##dling
downing
holy
safari
heights
##meral
##elman
##ʾ
organisation
excuse
##ifer
william
ensuring
##wl
##logy
paddington
clements
remembered
bp
lacks
refusing
shelly
introductions
creative
gale
##hg
parachute
##rb
victories
##ungen
whitehead
maru
soaking
likeness
finch
##shah
apply
##eti
budgets
mexico
rolf
greg
maui
relentless
ত
fancy
l
telecast
donor
miocene
shelby
[unused60]
color
magnitude
tunisia
kisses
##yar
qb
reservations
brave
leans
popping
##fan
adopting
##ckle
distance
core
peer
ron
prohibiting
##worm
trilogy
drama
postal
kitchener
stylistic
related
ser
[unused436]
ndp
100
viper
##itan
##isto
would
wealth
pack
[unused803]
##ins
baltimore
crypt
berwick
windshield
schizophrenia
sustaining
##ep
portsmouth
levin
fed
rock
介
storm
intimacy
sited
guatemala
upheld
cosmopolitan
raiders
proposes
mature
attendants
transylvania
criticised
##room
whether
##ttal
winger
marched
##partisan
promote
##naud
##oss
animator
exhibited
##qvist
##գ
cnn
##life
message
softly
usual
bastion
deficit
ringo
bombers
arbor
##永
diploma
transmitted
reforms
instrumentalist
authorised
vamp
い
##ctors
tuna
markings
possessive
posed
##croft
[unused273]
herman
ₕ
idea
signals
##vara
functioned
throttle
gone
##je
sandwich
traces
mischief
twisting
specialist
##uf
exceeding
shadow
sentinel
reluctantly
##ific
eighth
##dice
flood
june
##aha
adobe
improvisation
treats
protective
peak
##sy
sadly
petitioned
##iso
bhp
immense
aggregator
classmate
buds
##yra
##icient
clarity
goals
acquiring
repertory
25
semiconductor
##ab
lok
##lani
##qui
##hri
newman
isabel
##cter
kelvin
sprint
hospitals
adaptations
rector
restaurant
linnaeus
191
theology
mei
approach
corrugated
sexuality
crawl
##უ
cellar
took
guard
morally
caused
[unused301]
law
flash
evacuate
iss
limestone
mild
##广
sympathetic
given
##lash
##lies
cabins
⁰
apartment
##？
boiler
nursery
##ophone
buckle
##shima
jasmine
peach
sussex
[unused713]
##‖
hispanic
ticked
[unused500]
[unused819]
pierce
##ho
resident
unison
shaman
grateful
##meister
klan
7th
registry
1830
confederation
collectively
copenhagen
instructors
##ers
´
zipper
offer
tina
lineman
##rds
jammed
shipyard
ʿ
oneself
hauling
porch
##vot
detected
provided
[unused435]
brewster
##6
1722
davy
atletico
malaga
frightening
policy
##breaker
gender
trainee
sporting
braden
dread
madonna
##mist
##ze
shoved
abstract
288
##uses
##kan
sail
100th
theologians
1802
chennai
redevelopment
shade
octave
tide
presbyterian
##mler
overwhelmed
miami
##ioned
##mut
lgbt
suburbs
complain
pest
gradual
##ろ
##sd
crank
pagan
delaney
yelling
physical
##糹
smeared
freeway
##ilo
##anza
bombs
obscene
states
[unused228]
matthew
corsica
data
portland
practically
sequels
cfl
unemployed
collier
reviewer
entire
willing
dwight
mondays
motions
##usions
##ears
guessing
##31
bulgaria
[unused554]
mangrove
imprisonment
##ı
[unused413]
##athy
##ules
ᅡ
##xley
compose
con
surroundings
emerged
thief
exited
##alic
##eche
##eous
[unused635]
mask
queer
##ead
##tch
##truct
freud
congress
##tore
dark
##aca
maria
proved
##avs
zodiac
styled
##24
brooklyn
myth
outstanding
luton
juventus
sportsman
envy
ultra
е
bristol
potato
skimmed
trump
moon
[unused930]
wealthy
cabin
strikeouts
swallowed
undergo
ensign
##grass
##ique
##onis
##נ
hunting
##and
hotel
conde
citizens
awe
bucket
confinement
postmaster
progression
constructive
shaky
gu
35
bud
developer
fountains
powell
rowland
directors
precedence
tremendous
virtually
sued
andre
##ner
##tica
publishers
mock
lansing
casimir
storytelling
estimation
dressed
##野
tainted
affect
##cat
fortress
joseph
motorized
husband
##terol
aft
##sti
baldwin
entirely
answer
judiciary
inscriptions
able
[unused236]
convicts
abduction
federer
nutrition
187
recreational
hadley
trey
guarded
kangaroo
misery
network
##g
wherever
triggering
flatly
honored
##if
[unused737]
[unused755]
rip
[unused285]
impaired
insisting
netting
generations
[unused853]
##nk
rates
##esthesia
fracture
州
iaaf
anymore
##venor
mistaken
barges
##ested
stan
gottingen
transplant
½
yi
chains
##cultural
laos
[unused278]
magnus
paramount
116
myriad
##ان
worshipped
noun
liturgy
panties
compliant
crew
##т
##ante
##rella
safely
##kki
mid
lagoon
tricked
##cr
##etic
##link
assam
nightmares
[unused550]
enfield
pdf
desires
lauded
ontario
seeking
rani
manning
sony
##ip
doubled
episode
whereupon
##puri
[unused69]
mania
##oue
guise
future
expense
##bread
chaos
hacked
nestor
##fles
supplementary
detecting
##原
consul
size
unbearable
〈
ex
rays
wept
contribute
##nar
doors
##hone
##ct
franklin
move
bandit
mahmoud
shouldered
lucan
canadians
man
moore
trafford
vishnu
workshops
禾
chilly
crest
activities
ix
capitol
kansas
palace
reliance
fresno
[unused855]
commentators
bursts
going
receiving
2011
[unused139]
howling
renee
₆
indiana
mal
pulls
sizes
wilcox
bowled
##ffled
recycling
sequences
##fully
slightest
sharing
##typical
subcommittee
organising
##ttered
gust
famine
patriarch
migrants
##oli
##ハ
hunter
terrain
glucose
speaking
clutches
1879
next
tank
cesar
ර
schooling
upstate
disappeared
installation
outta
programme
quarry
recommended
##alla
strategically
disposition
wei
##pipe
banco
##rgeon
##itia
inversion
laughed
explosion
mitchell
sash
scenic
quality
ample
beer
disappearing
aston
coliseum
serpent
financially
set
grows
shipping
vii
stitch
augmented
cerro
aging
advice
ligand
##minating
complicated
graves
binding
maiden
##ili
faux
##ग
selection
em
2000s
maddy
exposed
api
areas
rotational
##eley
林
triggers
david
by
1948
print
reactors
laurie
μ
psychiatric
##cier
##љ
revival
priestess
##nett
##duk
[unused268]
stay
influence
wnba
relay
266
##aster
metaphysical
nordic
232
##வ
scrolls
dip
bus
thayer
serials
shanghai
##boards
boost
##ity
##istic
403
communication
excluded
experts
templar
usd
pastoral
fitz
restraints
section
pro
silvio
128
friction
##古
57th
clinging
1881
pad
contract
suspense
experiments
concacaf
accompany
valle
olds
portable
ld
ether
##vira
trident
つ
##間
aziz
glow
suspects
napkin
humor
conception
##books
clergy
[unused298]
touchdown
##eran
hard
celebrate
calderon
value
siena
##ha
keys
monterey
1957
阝
[unused543]
galway
models
##ency
##ney
development
bucks
racetrack
##gging
holm
correlated
evidenced
feasible
合
slovenian
watched
breach
elementary
strides
巿
clan
accepting
##》
abbey
volvo
examiner
ramsay
jurisprudence
##eration
ت
[unused752]
flowers
usher
##nity
kinship
aisle
democratic
parkway
##?
pray
belarusian
domino
repay
##win
enhancement
halves
appearances
##民
ally
performing
##uding
za
administrative
ट
choirs
##cious
##ished
hinted
##bal
humiliating
injuries
न
honestly
living
greer
##nham
chromosome
unclear
teenagers
perfume
##ore
##set
anchor
smelled
##元
drilled
lengths
livelihood
choking
topic
##nsis
camel
##folia
##yp
athlete
1951
disrupted
##aar
亻
1888
##tyle
1661
attention
silva
##yya
[unused134]
ballads
##rca
winter
ᵍ
match
aggregation
##ア
halle
incoming
titled
##grade
##fers
##cured
om
proliferation
ride
1838
rayon
isolated
six
poole
logging
los
dr
scholarship
composer
muslim
##ib
theory
日
erwin
accompanying
repeated
housekeeper
[unused170]
390
clasp
compartment
entertainer
lina
430
rosie
sadie
wharf
vantage
serb
saigon
solve
ɾ
wars
##cano
[unused763]
ballad
comrade
trumpet
ecuador
brahms
rowing
telephone
##iere
electrons
volley
coli
seminary
maximize
##zong
ville
##幸
again
grandma
ᅢ
arias
requiem
forefront
rancho
ingredients
islander
1857
guerre
strategy
nose
ellis
excessive
tomas
consisting
privatization
studied
fifa
nebula
conclusions
bothering
[unused587]
##nier
tones
sanskrit
##boot
inclusion
revered
venom
ankara
1927
doorway
##hosis
angelica
[unused106]
abandon
##夫
genesis
##vision
##oric
bangladeshi
ァ
軍
##sper
globally
leary
holds
##堂
drummond
[unused140]
##hana
##雄
added
after
including
##44
donegal
strike
##bic
立
potion
##kla
##cos
dune
deter
entered
favor
turnpike
weave
##ify
proficient
rahman
stared
no
mess
sewage
garde
pollard
hair
incredibly
implied
arrangements
cake
seldom
denton
shootout
restructuring
grins
widowed
##cas
##games
sensitivity
announce
##logue
##nga
##च
advisor
##kata
advisory
##hita
ethel
nicola
##nami
lynx
##rone
##olar
##‒
##ₖ
explorers
judge
bullying
akbar
reacted
dundee
karen
grape
discoveries
operations
excerpt
funk
prelude
hon
mammal
hank
##lase
sectors
excellent
loose
##taking
##tens
[unused881]
##eptive
そ
people
truce
replacements
prosecution
zaragoza
sturdy
controller
purcell
circumstance
pensacola
##agh
##inking
##igo
fa
around
ち
yo
bullshit
abducted
##ctions
sheldon
interrupt
[unused244]
http
pamela
constrained
squid
treasure
condemn
竹
hesitation
1658
astronomy
##nam
imagery
nina
rolls
##lika
fare
132
gathered
books
athens
gradually
helene
##ie
orchard
were
##our
##urst
bunny
pouring
purchasing
undergoing
26th
ট
##lifting
cognitive
browning
hurt
尚
faintly
ching
glendale
palatine
triple
prints
but
signed
denoted
priorities
##հ
unexpectedly
##era
histories
still
linebacker
##ʳ
airlift
tonight
wentworth
did
crawled
##basket
1762
cycle
##atter
shocks
soap
ј
chang
playfully
bundles
progresses
flees
suppress
hemingway
hostilities
descriptions
42
blackish
nano
persuade
s
##ﬂ
azerbaijani
highlight
hybrid
[unused797]
tipperary
nocturnal
tier
##ired
loyal
guidelines
unlocked
worldwide
rim
eliminate
metz
toys
[unused417]
qualifications
breakaway
clearly
limo
[unused105]
enrique
safe
shapiro
staten
tragedy
ο
turkey
service
rotherham
##chman
##itch
correct
swaying
##খ
explaining
antonio
##awa
blocks
93
bacon
##rh
specialists
##drive
1600
##wash
andersen
tilt
analogy
independent
##glers
calmly
downloads
initial
sensors
##15
pictures
[unused928]
pam
tony
josie
vista
ბ
select
sighing
cheating
gerard
hut
injected
madhya
##mers
roster
##॥
caleb
baseball
shave
teachings
assign
##ista
enjoy
maccabi
brushes
##eries
fender
##cked
hasan
wrongly
##ivity
##ylus
##ifiers
demo
morocco
329
kobayashi
[unused617]
railroad
sucked
##ology
alfred
connection
##ས
[unused222]
##mg
multitude
##⇄
1773
coffee
stroke
taxpayers
worthless
johnnie
antiquities
rainfall
stuttgart
##cies
ensemble
nhs
jj
indirect
duration
##rzburg
[unused962]
手
##kiewicz
ache
last
bar
download
minogue
deities
unnecessary
##nies
##す
liar
dans
##flower
title
marion
hale
##rosis
havre
carpenter
[unused666]
##hopper
cupping
##elled
##lom
distracted
##lad
##ama
johan
##lithic
cited
##ivision
##light
##ak
ɑ
##lini
castile
photographic
sang
youtube
##清
##rang
[unused563]
##mmel
##havan
dunn
wetland
т
collectors
##iy
satellites
[unused203]
deserted
⁵
amelia
originates
faso
raging
rhine
unfair
causes
kidding
ole
talk
##chemist
rehearsals
[unused741]
marriages
penguins
legislatures
chiefs
creates
seizing
beta
disciple
pulled
sudanese
tyrone
bird
[unused226]
georgian
bob
##rl
fossil
howl
stylized
[unused537]
prepare
uncover
hugo
storage
33rd
hugs
bracelet
isotope
ivan
abrupt
conscription
becomes
meridian
annoyed
ono
warm
inauguration
having
bearded
[unused152]
integrated
spider
lucifer
hilton
topical
moving
corresponds
[unused116]
rearview
strategic
messina
jason
[unused863]
1775
##ostal
laughing
coated
##ntes
westchester
punt
290
origins
littered
tho
[unused272]
##lit
corbett
##⁴
contestant
bastard
ethanol
comedies
formats
investigation
[unused202]
1999
upward
##河
variable
kurdish
eve
kylie
top
##powering
int
damaged
1949
assets
##adt
beating
floor
pipeline
nonsense
landmarks
##uge
borrowed
264
visa
unity
cyclic
magic
ி
##ari
prayers
##gui
limitations
stephenson
widened
assent
##↓
##dder
##write
gathers
⊆
ன
warmer
1731
680
massacre
##lice
colour
yorkshire
aimee
quartet
waterways
remaining
scraping
##sible
##ilia
1928
##nets
rarely
142
richards
344
shitty
॥
1989
delivery
give
hodgson
jess
##ケ
crap
icon
##rier
##lization
bible
pools
##sus
styles
repeat
summers
bolton
##mm
bancroft
lazarus
tying
sis
1689
prevented
consultancy
france
rebel
kelley
encompass
ts
africans
referees
scott
volcanic
nur
striped
cheryl
francaise
guitarists
embroidered
236
body
##ifice
estimated
mediated
merry
fertility
versus
hungarians
outfits
padma
dynamo
1853
pilgrim
##oic
prohibit
rudolf
##tness
commercial
##ধ
##sta
iucn
lesser
lonely
artificial
clip
party
producing
shimmering
post
spines
vaughan
father
marriott
pleading
somebody
commandos
democrat
honors
lawrence
subway
cables
keenan
##jon
barrier
##त
##ـ
[unused137]
ourselves
jian
applications
tuscany
mod
′
tian
worries
##man
dreamed
compelling
sheikh
embankment
folks
##kei
apparel
ou
stamped
moldova
failing
##mc
##lli
employees
hicks
昭
doping
1826
##ᆼ
assured
kata
peggy
pivotal
##光
stade
aching
པ
##oses
##⅓
domains
bayer
coupe
##chrome
brent
11
##ath
##ld
construct
katherine
necessity
needing
pixel
russian
hounds
derivatives
crunch
sentencing
leicester
real
biceps
albans
stories
[unused865]
##華
##\
item
##ivation
lie
metadata
stuff
土
buying
inexperienced
children
armament
depressed
godfrey
knee
##oration
##bang
区
##claim
mounted
##skaya
asset
jars
exchequer
alien
##gi
folding
instituted
interdisciplinary
tito
caucasus
conquer
fiba
pinched
products
sin
sensor
ह
minority
coke
##see
##朝
1966
organization
sutra
ী
ios
mukherjee
##rford
weekday
ghetto
engages
consultative
northbound
befriended
##pressive
decca
major
reinforced
earn
sega
constantly
ₐ
activity
artistic
tyler
payments
ヒ
callum
##男
makeup
##∅
spice
jenny
##ceae
controlled
pas
fridge
##scia
peaceful
##zation
87
across
flat
gag
importance
##nated
friendships
brant
[unused835]
1630
chargers
such
easier
angle
##nator
regeneration
capture
hilbert
mayhem
unesco
##woods
labyrinth
reyes
ட
transforms
burgess
disagreed
stranded
plum
regulating
##mit
aquino
attraction
##promising
annapolis
gdp
promptly
pak
chronicle
every
##uid
dept
##ely
##felt
stresses
metro
tunisian
periphery
steamboat
テ
alessandro
inaugural
skin
##ξ
improve
facilitated
む
creators
tubes
ava
ع
spaced
##დ
deposits
durga
##ywood
murmured
yourselves
##÷
backseat
palaces
magnetic
441
floated
troopers
came
programmed
concern
eucalyptus
bombardment
mla
ruben
jasper
##tiv
pointed
reddy
take
standalone
[unused898]
fragments
##plication
##艹
##oon
ceo
ignition
rai
single
siberian
hemisphere
moderator
brightened
ventured
##劉
knew
ð
##block
identified
lectured
vt
gotten
language
helmet
philip
tradition
nuevo
commander
uncomfortable
##owa
unwanted
thighs
monsters
jet
bon
overturned
sequential
limp
stakeholders
suspicious
chances
##cent
##fen
##sume
roaring
##rdi
alleging
taxonomy
[unused173]
1974
lettering
shove
##ots
1958
##verted
intellectual
inspirational
bryant
ethnic
##gua
segunda
104
sections
jar
宗
cattle
sava
##con
purely
tim
raoul
##ว
shaped
couple
armand
treatments
blow
apologetic
diving
hd
targets
八
baths
dialogue
demi
office
##tures
barcelona
frankenstein
persona
bye
##nzo
growling
radioactive
discrimination
##hot
##tel
kendra
arlington
minneapolis
mandy
zambia
dialed
focus
##ple
##smo
[unused777]
##ħ
[unused633]
conspiracy
լ
8th
##ese
fest
[unused539]
vin
cheerful
organize
##dation
##子
dishes
gracefully
compelled
elected
##ར
norman
[unused795]
##gny
##博
sima
##eral
paper
leverage
name
475
##maker
ineffective
fbi
cheyenne
dependent
evolutionary
streetcar
veins
plea
##lan
##lock
swamp
cooler
rhode
revolt
##mity
rangers
crow
##vine
woolf
biplane
producers
cannot
რ
ruiz
き
##logie
##そ
chapter
storey
jail
stale
rubbed
greedy
laid
stood
##roved
parting
##ide
wish
hypnotic
[unused361]
bingo
##sett
reading
herbal
dismounted
deportivo
##ctable
predict
##′
bragg
kinds
prelate
beads
changed
narcotics
groove
retains
[unused972]
illustrator
##ington
ص
unearthed
##bek
doomed
fay
##matic
##onda
##26
johannesburg
opposition
ɕ
##eer
##mmer
garner
commemorative
lexi
revenues
wreath
donovan
avalanche
##་
unto
freaked
diane
impressive
lockheed
updates
##《
dent
purge
##selle
literature
slope
bolivian
##oft
chaplin
aeronautical
britten
##²
##≈
serra
thanksgiving
##urai
market
##nde
外
##isance
vans
ill
unsure
kane
flicked
affiliated
chad
syracuse
wolf
premises
[unused912]
transactions
##bered
##icular
oldham
englishman
usage
biotechnology
##yman
[unused511]
delegation
wreckage
##holder
overgrown
sauce
ড
##へ
shuttle
##inga
dissent
residence
granting
##bright
calculate
engineering
##edes
researching
##ffa
behavioral
##runa
196
audrey
catchment
reluctance
montagu
р
franks
humidity
bio
outside
transferring
marble
[unused621]
yd
sparta
house
instinctively
geologic
motorcycle
##cased
verve
heaving
##藤
paradigm
鈴
spartak
reduces
latvian
dumped
##aby
coloration
absorbing
scrambling
sample
##els
festival
hunched
segregated
sutherland
taped
##enity
vijay
neglect
[PAD]
##mei
nicknamed
airship
##cable
latitude
legitimacy
chilling
##mission
humphrey
2d
encourages
induction
innings
[unused251]
fusion
##・
basque
##venting
pulses
36th
hooks
linda
##verance
reconstruction
hay
poem
relaxing
inaugurated
slapping
discus
[unused656]
powered
alliances
sedan
##ո
##lav
mood
dante
227
healing
deputies
im
defected
flour
ached
plans
structured
##nes
[unused292]
abbot
##non
compatible
position
spherical
##als
php
inverness
##100
code
done
latino
marred
donkey
人
##vina
liga
##sa
dialect
[unused660]
deserves
chairperson
##etta
them
maynard
urgency
leaving
##tia
##cot
##icides
atrocities
interiors
reid
tighten
bookstore
sac
##wen
[unused397]
turbine
##olf
joaquin
fried
thyroid
eagles
jae
sheila
##eur
exist
riff
rider
blogs
idiots
thousands
##ggy
lent
ltd
##cco
denotes
exact
funeral
gunners
ruthless
colors
discontent
blur
£10
archie
##ᵐ
##ythe
戦
##ghton
##hi
hanging
pistols
dentist
antique
lantern
##ᶜ
managed
usa
repaired
stops
co
continental
obscured
memoir
insults
##nding
unnoticed
##craft
advisors
admiralty
##unas
palm
archaic
publisher
ก
##ا
##thes
1885
clouds
[unused602]
aqueduct
luck
bono
##ical
descriptive
##dra
captives
inactive
rulers
ri
shaking
1963
grew
ج
taunton
##dalen
bonnet
inspiring
##roller
gerais
announced
lucivar
naughty
kerry
coached
##ム
tugged
ringing
piece
routine
##目
fabrication
racehorse
cleared
appearance
saturated
vikram
lister
friars
values
ᵉ
54th
median
##das
##heimer
##ե
##ice
1875
334
europe
grupo
quieter
richmond
##&
utilization
opted
gratitude
pathetic
##⽥
65
gasps
reflective
##ivar
##ssen
cornell
mechanics
rejoined
exports
captains
[unused318]
[unused547]
clutch
baxter
##lation
bertie
siblings
##la
coat
logo
長
scattered
characterised
limerick
dies
dyer
starts
##ddling
れ
##っ
vox
options
indira
##ment
[unused852]
109
roach
##ire
##ण
lamps
philosophical
textual
factory
transformed
ortiz
sisters
##kha
bryson
epstein
bows
defeating
blood
[unused136]
steele
anal
deciding
proponent
rubble
others
warship
##uven
[unused167]
backed
bingham
chin
##metry
[unused453]
attachment
check
[unused700]
exaggerated
regulars
##∧
gaa
versailles
pretend
semantic
##oides
##rred
singapore
ejected
pmid
australia
shetland
experiment
earl
noodles
##橋
embryo
tournaments
[unused138]
##zaki
summit
concerned
notebook
##town
henri
writhing
hui
2021
suzy
40th
buff
risky
##ppet
ambiguity
mint
19
rational
##eka
##ם
praises
lead
420
logan
nationalist
dan
helping
〉
jared
peyton
rein
transparent
animals
signaling
civilizations
##年
##hara
boil
exposing
nz
pear
psychological
sipped
manifested
weddings
reflect
kahn
whiskey
near
##ruck
1100
learns
[unused262]
carpets
billion
disbanded
scenario
##ates
bacterium
heidelberg
reaction
roy
liberal
##代
137
huddersfield
unbelievable
disciplinary
lars
##iec
papyrus
fencing
##仮
attire
1912
atlas
gardens
joined
suffix
##haw
summon
##rith
inappropriate
ascent
lineup
##hp
tipped
taut
enable
assigns
contrasting
त
socially
##gpur
wagner
[unused703]
francoise
mbc
role
distracting
beverley
starting
teaching
posts
drip
muslims
elevation
twenty
1794
lough
propelled
bao
forestry
##‐
[unused545]
indian
influenced
olivier
breakout
huddled
##zzo
dave
commissioned
sustained
indonesian
denial
attained
bmw
landowner
statesman
disguise
reacts
texts
anyway
vince
adjusting
र
cadets
##ھ
##♣
sarawak
bare
feng
kent
cs
fielder
northeast
sunrise
lunged
zack
adjunct
pharaoh
##sle
competent
alan
##oll
harcourt
reflex
noon
negro
deliveries
slumped
##zumi
zimmerman
aix
293
skeptical
ma
##sr
rapper
engaged
horrific
satisfaction
pursued
recommendations
bengali
##rrier
barrister
incorporates
hs
benefited
best
bremen
malls
##tology
dispatched
votes
[unused893]
1685
##wang
oct
##quette
省
suns
##ping
[unused326]
consent
ears
grind
225
##bre
##drum
ernesto
bloom
trimmed
adolescents
##wed
cloud
##≥
dive
##nged
##gned
novo
atoms
konstantin
onto
fiddle
evolution
blanca
blessing
murmurs
##ago
##fire
##37
[unused501]
sabine
##tat
administration
忠
##gang
tyne
moderate
dusseldorf
outing
##ص
ง
☉
clenched
thomas
spreads
[unused161]
##hen
##wire
cameron
18
cosmic
dunes
hindu
##walker
kingston
##镇
doherty
ordained
214
cache
##こ
nominations
1718
platoon
##dur
either
reasoned
status
conspicuous
grace
deleted
mildly
bandages
##ologist
justice
naturalized
##broken
wheelchair
monastic
ᄆ
rm
speeds
prevalence
expose
intimate
stayed
undercover
##ъ
kirby
stunned
islamabad
whereas
##nous
cod
##graphic
##ras
affecting
mendez
reeve
lin
##sw
nod
effectively
recalling
protector
rbis
demonstrators
kyiv
dams
ibn
attracted
programmes
verse
slipped
measuring
pillows
1761
immortals
scarborough
1915
##佐
[unused371]
tu
ぬ
##iu
boiled
##ש
damian
restored
slater
surveyor
advance
[unused168]
org
separating
81
##tson
vale
sectional
motto
gretchen
1943
bitterly
paragraph
marital
switched
smallest
abolished
perpetual
palestinian
plastered
##bach
##vis
yard
##nos
presenters
cobalt
sooner
##ai
femme
gal
wires
commissioning
w
keeping
squared
patrons
peterborough
皇
##ard
red
##phs
carbon
##yla
juris
leopard
baked
keeper
immensely
##rse
##tate
deliberate
lose
pitch
##ense
nomination
##mps
ruled
flame
ɨ
institutional
貴
allison
##mbling
alloys
samba
recoil
##lake
##bling
rebound
chord
meritorious
dismissal
commandant
taliban
prosperity
tears
##ocene
black
conflict
schultz
naomi
kindly
appears
tributaries
chopped
##ffer
etc
penelope
turkic
eventual
bing
honesty
##ours
sentences
investors
skirts
savings
ernst
films
[unused890]
##な
670
groaning
##enne
picnic
promise
[unused304]
residents
scanned
##wheel
keynote
genome
[unused487]
mitsubishi
agree
empires
dauphin
##vah
ankles
##laze
nba
pregnancy
chariot
trapping
beak
chesterfield
appointed
store
popular
zurich
opponents
##zd
shortly
intriguing
kenji
lsu
147
ʋ
neighbor
1922
disregard
[unused766]
hillary
inwardly
medicines
stairs
movies
swiftly
fourteenth
unhappy
vienna
##ヘ
veto
overs
zealand
writer
acted
##う
rainforest
daryl
##ை
archangel
motown
jenkins
nagasaki
differential
exchanged
heartland
welterweight
york
percussion
javelin
virtue
199
ʳ
territories
1799
[unused751]
wilson
decision
12th
gunshot
regiments
annoying
arrogance
reagan
measured
ᶠ
dali
detail
establishes
flow
##lone
belts
terre
proceeded
##ɹ
textbooks
##piration
nightly
britney
jewels
660
##あ
##or
pasture
protectorate
accused
sponge
batteries
hammond
dia
[unused748]
rico
collective
##rc
christoph
predictions
257
craig
reel
indeed
[unused223]
90s
optimal
february
aback
challenged
forgive
penal
ط
urges
##cton
##eld
ᅩ
bland
##ₓ
##polis
##enia
points
##‰
woven
stable
##sque
extended
##ear
biographer
##ogical
##大
##arth
generalized
##post
1672
mauritius
preseason
sweatshirt
croft
crumpled
ticket
hilda
educating
artefacts
also
aviation
mein
[unused172]
shark
members
oversees
reassigned
##lum
##mata
mug
juvenile
##ure
pedestal
kang
sorrow
##ft
tools
mercenary
##cb
##禾
1662
futile
robe
325
sails
legend
salem
speedway
##ق
johnny
celine
glances
269
425
massive
weather
sinking
quentin
additions
recognition
[unused159]
[unused932]
[unused616]
fi
yield
⊕
outlet
ⁿ
meat
##ked
blog
judgement
circa
lisa
pursue
penguin
turbulence
dunne
[unused909]
orlando
##sack
maze
heresy
corporal
matters
flowering
verde
pictured
gnu
expanse
immersed
##cliff
breakdown
louisiana
prohibits
question
pe
##break
darker
curled
407
drained
partially
##oc
breaking
naacp
padres
##lid
baggage
kam
philippines
##書
##hausen
powder
##utive
gate
snow
lu
[unused918]
assembled
disciplined
##dget
[unused822]
one
sociologist
guinness
tail
merlin
stigma
##村
maitland
dagger
##eva
bellowed
hanoi
hoffman
convent
italians
decatur
##dot
slovene
supervising
better
lemon
vastly
horse
##ghi
jeep
##ope
baccalaureate
exported
##rries
##zek
[unused967]
arbitrary
habits
electorate
ambitions
##ᄎ
openly
gaunt
sounding
spans
sho
torture
disappointing
physician
方
barry
connor
lectures
dod
##／
approval
voiced
dieter
spurs
attracting
boris
coordinated
safeguard
ghost
shake
afi
retained
screams
ץ
##よ
westwood
1970s
clouded
messy
tallinn
monica
attitudes
proving
[unused408]
wainwright
economist
per
ha
hurdle
dreamer
plead
##rvis
щ
biomass
statutory
[unused861]
##伊
##σ
235
grasses
##physics
membership
##ء
photographs
unlawful
experimentation
crude
help
[unused125]
splitting
pierre
##ʊ
testified
##yuki
ad
joan
pasha
##vac
responds
[unused625]
##tung
caden
vampire
mirrors
yours
##宿
toll
jericho
source
8
##works
dax
mccann
elaborate
##zoo
alright
sets
##schaft
awesome
submarines
successor
##resses
gael
column
pinnacle
centimetres
whisky
betty
clarissa
fulfillment
oppression
newell
lick
piloted
[unused772]
##rmi
##gged
##tov
capitals
planetary
##asa
narrowed
keller
spectroscopy
ہ
managerial
##ute
[unused252]
ಾ
##uch
[unused73]
bedroom
##sc
hazel
inverted
peripheral
protesting
politely
denim
recovered
forms
##dha
hermitage
reissue
deceased
1605
##space
murderer
investigates
principality
caledonian
affluent
clarinet
ked
jessica
probably
raw
##花
pasta
march
zoning
##urance
hazards
311
##esa
##τ
armenian
shoot
bu
1880
##bag
（
##isk
pulling
##ᵀ
##ན
blaine
fetal
rotating
ს
beautiful
##zuka
jarvis
##vera
hardened
faa
##ais
##dae
##me
##vial
aesthetics
forth
leland
financial
national
punishments
spot
app
clutched
[unused175]
tattoo
[unused702]
pyrenees
##out
vermont
melted
inconsistent
pomeranian
convoys
airport
ruth
anita
antennae
haynes
ק
inch
armored
##mour
inflated
resistant
lyrics
contentious
##belt
educator
motion
rebels
##vino
1652
java
preschool
suppose
愛
hans
king
ᄏ
pbs
##ris
##志
vocalists
wounding
enthusiasts
seeded
##lity
ebony
paste
societies
ب
happen
##urne
sas
##lga
##rre
represent
weigh
川
promoting
book
historical
steals
fruit
imprint
particle
[unused966]
deteriorated
1900s
casino
oils
thrilling
侍
[unused498]
jr
bray
pianist
transported
antony
indicate
owe
valentin
gazes
ochreous
happening
regained
lc
massif
focusing
isolation
mathew
ste
##star
abbess
##abia
##nsen
underlying
alton
maltese
forcing
walls
##∪
##ལ
factor
##edge
289
yoko
knowing
rocky
richie
##は
##tag
kannada
charming
surveillance
[unused553]
213
explosives
vincent
52
dd
oakland
##ados
70s
1550
searching
argent
##iva
assessments
[unused315]
journalist
school
rear
nice
charlton
knocked
平
minh
আ
mud
ingrid
referendum
ronnie
##ahu
cowboy
mart
ى
前
election
greenwich
wan
cracked
##acy
eyes
flight
baseman
lover
unconscious
esa
rodriguez
פ
##lak
cutler
##tooth
forehead
hygiene
lt
[unused651]
oliver
preview
mix
coding
yellowish
back
villa
cabinets
[unused569]
copyright
intercollegiate
showed
devout
union
minimal
##yev
companies
accommodated
pediatric
vomit
hurricane
garrison
flex
[unused499]
blazing
chases
frequencies
adhere
worn
cigar
replies
antonia
##ees
##ject
gore
kw
royalist
##leg
106
elections
yerevan
vial
interior
##bation
interaction
##dus
athletics
⟨
##chaft
woodlands
liquid
თ
urgently
peaks
##aia
representing
##ᄌ
maud
##zone
personal
##elia
byzantine
1723
container
⁸
##bed
pigment
saying
shrimp
##ᆨ
exhaust
gustav
1807
vera
151
clash
emperor
expanded
forty
line
evaluating
illuminated
remixed
leads
divide
harassment
##zos
ewing
quarter
concepts
strikers
compassion
raising
ditch
exposition
[unused518]
##gum
straightforward
curling
quantitative
shang
##folding
calm
tentatively
##kowski
##feng
##riz
allotted
archbishop
ballots
surf
gentle
charts
lotus
secondly
pi
tennessee
incarcerated
hundred
rick
##39
##uin
##ই
coded
charging
scales
bk
ceylon
##llet
custom
lowlands
missing
servicemen
1778
conglomerate
ucla
upside
distributor
##kali
cafe
↔
spence
accountant
architectural
curate
monopoly
3d
natal
##お
duly
haze
poker
##zhi
depicts
diseases
peace
spear
usable
enriched
strong
manuscripts
britannia
addressed
coward
multiplication
tonic
##mot
demonstrate
past
[unused710]
arises
artwork
dormitory
taught
gov
philadelphia
##省
scramble
##pack
quarterback
communicated
##cker
fuels
glided
insulting
curry
irony
band
lucie
drafted
##esses
144
plaza
utter
ballet
costello
##adan
##−1
instance
cristina
rockets
hash
staged
river
specialty
##ctus
marcelo
timeless
sabres
syed
koch
float
domes
commenced
##tters
willoughby
[unused176]
fast
disqualified
mule
hastings
hushed
smirk
venues
denmark
judas
tad
afb
rachel
##ා
intentional
930
ninja
boundaries
##raction
daphne
##rman
assistance
spotting
memphis
pace
approached
collegiate
##oko
[unused362]
anniversary
720
hess
financing
cbe
talents
longer
unlikely
nolan
amar
terminals
guts
duty
光
patted
##an
##ril
federation
formed
saline
showers
##zo
christina
itunes
[unused934]
##odon
##ව
##pg
##nay
proves
南
ム
##ior
alistair
##brush
hike
alignment
##ich
brittle
northamptonshire
##genase
replacing
##ی
lexington
##昭
##vard
##im
scripts
##tte
lend
redundant
gaze
null
fireplace
##beau
wah
lbs
[unused559]
##resh
##巿
kathleen
nero
##−
aligned
bands
dissertation
downtown
organised
berries
proposition
nepal
suspect
prone
っ
##fies
[unused447]
##gel
geo
aviator
caution
raf
suffrage
##示
##ayton
acquainted
royce
ul
charlemagne
sufi
sue
##edging
mil
negotiating
minimize
1618
abel
mistress
[unused584]
[unused309]
##ating
terribly
campo
##⁹
absence
andy
pastures
blend
##hetic
synthesis
contributions
hate
##八
##pu
lung
loosened
mainz
susie
##90
##urized
1945
carnegie
##rity
6
thistle
celebrates
spokesman
fully
painful
borne
poe
specialized
[unused523]
sri
[unused356]
indigo
jamaica
newcastle
notices
tough
31
##rie
captivity
↦
emptied
greeting
climatic
monte
personalities
filled
supplied
rogue
bounded
horses
zone
personnel
##і
hips
bonn
crambidae
rollins
##±
730
rabbis
##case
##nidae
threatening
1200
##rained
corbin
dots
##eye
dong
##udence
aden
counterpart
denis
elizabeth
stunt
vis
concealed
##事
[unused960]
siam
##cana
##ended
honorable
##hala
cologne
frost
controls
cuthbert
##llen
reggae
verge
##tries
##—
guru
midlands
⁷
crushed
yu
illusion
hawaii
shaw
sink
receiver
approximation
attaining
validation
regards
bharatiya
[unused23]
roadside
usl
neighbouring
choreography
lack
freak
items
anthem
[unused681]
masonic
garments
temps
##gur
lives
psychologist
##ggio
transaction
beau
slade
warring
factual
prospects
##白
spine
##tort
ordered
printer
##idae
pipes
fuss
affair
##aith
feel
receipt
[unused254]
secretaries
原
peaked
##islav
##ssa
deadline
##mani
bobbed
##cio
allow
tenderly
tessa
##sty
[unused931]
philips
impress
sporadic
##h
nak
##lated
niagara
elevated
heritage
with
initiative
##dicate
premier
concussion
perez
##ury
linking
caucus
truth
abdul
sec
endeavor
[unused303]
ngc
employing
feathers
condom
##rrado
cultivation
[unused938]
tow
##ance
clade
canned
##olate
cleansing
manila
##usia
koln
pastry
textures
score
emilio
disorders
registrar
prevalent
humiliation
measurements
##shan
prick
寺
##tron
locomotive
departed
##vu
communities
##los
creation
gregorian
realised
drawings
zionist
incline
finale
found
##uck
316
##orro
[unused725]
ن
##owing
startled
unitary
parallel
davidson
milo
parcels
centennial
wives
ज
socio
glacier
##ᵤ
famous
##oya
##sea
extensive
filter
subunit
##rift
ε
pussy
##heads
linked
confessed
exclaimed
addresses
##odes
##enbach
awakened
criminal
##ropolis
motivation
caracas
##ten
effective
##edd
##haya
exactly
pledge
scratched
substantial
unique
ₓ
##lp
##ape
1992
andes
##×
ノ
##rner
visibly
bulging
spitting
cds
##tting
clayton
electrical
dusk
otis
importantly
transverse
##kle
g
##tai
marking
scan
countess
reasoning
##dian
reigned
management
296
##tham
clause
biting
kicking
closeness
hostile
becoming
rpm
officially
##actic
intuitive
purpose
arrives
roche
croydon
years
friend
workout
zu
herd
assassinate
feature
##nism
##cini
valet
##kumar
##sphere
glimpse
johann
festivities
##patient
hangar
mentally
ᄋ
consciousness
1300
deprivation
eritrea
outlined
##ך
picked
##alo
introduction
ancestry
baritone
hugely
productive
lighted
khan
malaysia
telling
є
white
uncertain
##drick
339
fang
semitic
171
¢
##rar
user
サ
repair
succeeded
mgm
kumar
##ur
2016
tube
combustion
regent
##ס
mcmahon
##grave
1632
haas
subsidiary
podium
consistency
##osta
broadband
kay
1708
intuition
foothills
##eased
steer
hence
а
[unused458]
lease
rate
sides
stirling
liability
intellectuals
leapt
##bir
vanishing
segregation
stray
bound
satellite
outfielder
auckland
[unused19]
continuously
oak
ء
npr
toulon
一
tune
##1
1959
favors
##hane
slowing
compulsion
ki
υ
rubbish
simulcast
computing
##nger
ま
##tua
minions
##psy
06
2010
drawers
1871
jem
##kot
##dner
charred
樹
totaled
baskets
maj
cosmetics
presiding
gill
discreet
remove
arresting
stump
mcqueen
[unused122]
55th
condemning
trade
##а
juliet
consulting
nevada
ভ
jesuit
flipped
##ado
oppose
piedmont
ballard
celebrating
connell
directive
runes
syrian
xl
colombian
rodents
garage
sf
ণ
1659
ₑ
extend
##lay
creativity
definitions
cater
von
##ross
gamma
ni
topped
##ship
##are
steamed
priest
amplifier
[unused864]
overrun
refugee
on
forbes
reject
exceed
publication
concurrency
[unused37]
##ц
matrices
whales
nucleus
towns
bridge
##ot
relaunched
##cars
##bert
##া
##app
ezra
soprano
predicting
mathematics
lacking
granny
astrid
145
chorus
opposite
threats
laude
mvp
bullets
##•
complications
stack
hacker
##cting
chamber
[unused358]
limit
music
63
##ders
raped
##liga
resides
##¨
illegitimate
yanked
##dion
haji
perhaps
[unused943]
alexei
madman
##;
authors
legitimate
flank
peas
272
345
nicholls
տ
##atory
loop
study
tale
campaigned
uniformed
genocide
purchase
##hiro
[unused338]
royals
##sten
manufacturers
prologue
[unused463]
##rand
richest
yale
monsieur
reinstated
danced
airing
##dge
psalm
326
wiley
cas
##ь
customer
whatsoever
##hesis
ac
demographics
##umen
semester
##も
##80
pleaded
##force
##icus
ك
##sho
marina
sounds
ant
switch
bobby
curt
nerves
vogel
receptors
##dote
smooth
ₖ
wolves
jewelry
traffic
hillside
feared
lakeside
忄
cordoba
lurking
##del
##ר
reaper
seam
thoroughly
ـ
suit
squat
yorker
layla
routed
pre
eng
databases
exhibits
nh
packets
charismatic
emir
junctions
##ker
valuation
symbolic
##8th
##moor
smelling
fragmented
larry
##cino
feasibility
estates
rides
##sters
nebraska
wiping
##icon
bearer
strangled
##д
hack
juice
alps
ʀ
##nir
postgraduate
gave
د
needy
anatolia
moons
easton
[unused769]
1809
ingram
specimens
##herton
eats
passage
balancing
mba
##林
dazed
protest
292
graduate
undergone
teresa
devoted
metre
instantly
sheath
omitted
specifies
donaldson
feels
juno
##film
mausoleum
racism
cubs
lutheran
crimes
kota
acclaim
flushing
drones
mohammed
motel
tanzania
cuba
qin
##hm
##put
##sil
getting
monitors
##mide
h₂o
absently
indicators
norfolk
leicestershire
##ality
devoid
gazed
addicted
swimming
trophy
goldman
2012
[unused425]
batting
essays
gamer
rocco
##utation
recalls
tel
59
##atics
offspring
##wr
##的
tod
fines
bates
smoothed
dull
brushing
##tors
constantin
sophisticated
torre
##sler
commemorating
disk
##ato
##tsk
evidently
yun
lavish
bengal
[unused519]
proponents
perpendicular
erie
branch
standardized
lap
clubhouse
189
[unused34]
frigates
##ouring
brood
health
queens
intersects
cuban
##oint
bulgarian
kimberly
[unused274]
accessory
embodied
narrowly
romance
wooden
rainy
bromley
elects
##hampton
fringe
[unused978]
italy
joins
pills
ci
##nton
327
nico
lifts
shortstop
pledged
insist
scarlett
##二
reminded
rental
violent
##־
deployment
diplomatic
reward
み
##rcle
##ulating
directions
discouraged
##ও
##lles
sanjay
##ardo
accelerated
corresponded
evans
doll
folds
hewitt
安
profession
weightlifting
badge
hanover
##nished
wellington
turkmenistan
[unused484]
sodium
##ffs
reunion
##stor
λ
eun
##tian
oral
00pm
lecturer
error
stockholm
kan
flawed
wet
robbins
clubs
sikh
stalk
##rchy
bethlehem
##gni
footing
[unused283]
realizing
##ュ
[unused246]
minnie
melanie
log
organized
194
prehistoric
matt
lungs
passport
tre
bjorn
discs
გ
scaling
1926
digit
hopefully
quite
oz
##chang
##rdan
##gative
suicide
alzheimer
##■
abused
granddaughter
examines
pol
##gar
##न
licked
ش
て
patel
rica
pitt
sonora
urge
я
espn
cruiser
account
1892
##ounded
willingly
##bner
##lda
355
freestyle
##iter
1666
cellular
descendant
##onale
##ents
arctic
cautious
interceptor
maddie
bones
dorsey
background
##田
folly
crazed
qur
##ame
bandits
sheds
yells
communicating
cavalier
chart
hyundai
##tation
[unused644]
philanthropy
##lson
##dit
90
##方
leaders
peppers
tempest
endure
least
neighbours
toxic
bounty
loaf
electric
##cation
hammer
undisclosed
##hc
affirmative
pound
ħ
colossal
dominican
[unused90]
lux
plumbing
ritter
jarrett
powers
capitalist
rushing
α
心
##iae
480
ethan
hp
peculiar
##ching
erroneously
dublin
warfare
bertram
##ately
19th
rejected
bam
stephane
patrolling
leonard
libya
carmine
##bio
willie
nigerian
speedy
signs
candy
grayson
hernandez
houston
outpost
filming
window
##立
##efe
cfa
submissions
xander
dubbed
truman
writing
у
strawberry
logos
underground
relation
forgotten
meets
##gh
tae
[unused379]
##մ
1860s
##く
backgrounds
##eman
apprenticeship
punch
this
vitro
##pine
flea
ludwig
funky
hymn
registers
these
##lah
tease
jeanne
storms
underwood
confirming
fourier
villages
hellenistic
cambridge
held
claims
swore
angelina
archer
##otti
##wice
##pon
stored
[unused879]
##sher
dna
flowed
objective
hawks
##rified
##cut
swarm
##bbe
bergen
schwarz
appointment
338
deepened
fiance
chronological
336
blanco
1736
bolted
sahara
##aton
nes
sponsored
##main
numerous
optional
hepburn
##wyn
##hop
barnett
liberty
punishment
silesia
killer
##tlement
hires
criteria
largest
decommissioned
caps
locus
official
churchill
##ning
none
##ners
weekends
mocking
##cking
[unused936]
##avian
francesco
##dicated
##lts
glittering
searing
legally
xp
[unused256]
babies
calculations
[unused388]
disruption
overboard
useless
nicholas
gala
stalls
arkansas
laundry
litter
##air
reminiscent
dating
##bh
prussia
ra
response
##otho
marks
[unused854]
convinces
labrador
grounds
setting
す
##he
alec
vernacular
facilitating
ceramic
♭
corp
gujarati
cage
crafts
integrating
canterbury
backstroke
##ler
stanley
stalker
dev
##bson
##lysis
aroma
fabulous
##edo
##政
##idi
[unused174]
jay
fee
##ya
hazard
##iling
id
pasadena
##liffe
yanking
82
refugees
southland
ultrasound
resonance
ellen
evelyn
kilometre
sicilian
tsunami
acceptance
agrees
curated
widows
lily
##eu
kill
₂
03
##dial
[unused650]
fires
slated
author
sure
subsequently
ӏ
##igraphy
conserve
elevations
autobiography
exams
1748
lublin
[unused337]
auspices
expectation
underwater
ak
burton
sunny
sami
cortex
computational
##ef
blackness
visual
trondheim
original
greeks
sacramento
##ppa
gardener
დ
##‡
##position
[unused598]
118
draper
flicking
recognise
handicap
premiered
headed
2009
##¿
[unused107]
262
dominating
fife
frowns
photon
skilled
##gata
shatter
##lik
##ף
marries
##grate
##¦
##gong
wilderness
byte
bridget
final
nowadays
roasted
switches
cooke
180
pained
##cule
tips
participating
春
paula
shortest
staging
adelaide
##ω
districts
portal
thank
beech
christy
looted
commemorated
vulgar
##ே
##written
admiring
aegean
sob
roosevelt
tourist
blows
borg
extensively
ribbon
##erland
267
clint
##ode
1883
##hip
[unused961]
ending
hedge
rats
massage
[unused929]
booker
automatic
proportions
##py
[unused969]
throwing
airplanes
champions
list
flies
rama
##zquez
specified
##ahl
##res
seconds
talent
##ffle
ham
dynamite
##。
ljubljana
##leen
pertaining
##abad
grazed
maintained
##trix
##ₕ
acquaintance
launching
##cytes
##ske
louis
pump
logs
rosenthal
waits
4
##smith
commodore
shiva
##enberg
heats
beneficial
nos
whitman
tension
153
mcleod
hills
philosophy
##enas
logical
springer
##press
freezing
pedersen
代
sack
pandit
scripted
221
sharpened
themed
barrow
dir
kim
##mium
meng
##ntation
strap
immigrants
his
lindsay
unfamiliar
workers
sparsely
##65
##ided
##omorphic
##pled
peers
permanent
##etano
##till
##ns
believers
archdeacon
disgust
plausible
##ities
1835
##bled
disabilities
loyalists
##wives
mantle
broom
ellie
dammit
##ulate
classified
laureate
aisles
applies
atmosphere
[unused494]
animated
applause
generally
ambrose
coal
001
defended
principals
seemingly
told
healer
general
invincible
brook
##rton
flemish
libertadores
anchored
##litz
catcher
magnate
nk
borrowing
souza
##itor
##jean
cleaning
towers
gambia
₍
##raphy
gan
quilt
reprint
romani
earned
insulin
plaque
406
peered
eyebrows
##ium
otago
historians
spell
sweaty
##中
granville
hue
indy
shall
##帝
citing
##．
##zz
##si
singular
°f
olympian
ⱼ
grams
posted
sway
leo
rosary
battle
healthcare
##aling
exodus
म
recital
impact
mandir
[unused535]
meanwhile
optics
southend
phenomena
tuned
modified
corinne
bared
harrisburg
##combe
palatinate
colonists
wasps
temperatures
stewart
1663
hq
##hur
vic
giuseppe
promoters
##ille
岡
##haven
porter
montenegrin
は
[unused808]
143
cowan
regression
shrugged
##ɯ
toulouse
monkey
difficult
netherlands
1789
streamed
##tical
##acker
##berman
heap
##bbed
roommate
##ith
##phonic
cleveland
holders
little
ricky
sino
natural
pits
cactus
jam
christians
implementation
##yu
##za
salamanca
technological
reproductive
macedonian
cholera
education
##イ
##icia
meaning
archived
##rew
[unused432]
417
hermit
effort
[unused308]
must
estranged
pick
vapor
ecstasy
美
[unused490]
proposal
flesh
##!
##lic
excitement
exploited
grover
unleashed
tops
##any
makes
governors
cohen
hindwings
cartel
overcoming
shan
##ania
##usion
##uki
##cated
glowed
breaths
neighborhoods
chosen
##jah
anglican
diversion
mill
[unused10]
excluding
bipolar
sar
##dant
complained
1997
galley
quivering
utilize
[unused400]
coming
##ी
##lassified
filmmaker
accounting
concerning
mixing
spectators
quote
flights
sharks
thom
questions
##anda
waller
along
##hl
eddie
named
sales
table
preston
internet
method
…
kabul
paraguay
pink
locality
љ
alias
a1
rossi
discusses
concord
##ticus
ionic
elena
##itical
thorns
rouge
define
myspace
clicks
christensen
haydn
bosnia
お
bathed
##⁄₄
¬
##etti
inquisition
eaten
podcast
axel
panther
decay
##見
remarks
stud
##stellar
##bc
##♦
1877
nudged
omar
ﬁ
mccain
todd
balloon
夫
layne
wipe
/
catalina
##bell
[unused883]
surpassing
niger
determines
251
condensed
taste
vomiting
kicker
scarlet
##zam
middlesbrough
any
[MASK]
complexity
newspapers
dangling
##morphic
cords
##sch
oclc
trees
highest
##{
##kova
elisabeth
pep
returned
arranger
rotary
individual
sloan
subsidiaries
eating
##spar
mars
teller
##dt
contacted
medication
aristocratic
1801
cory
mated
variety
wonderland
braid
tin
staggering
উ
differentiation
between
familiar
titles
leigh
##sie
##ti
archaeological
refuge
チ
sloane
crawford
various
dorset
##carriage
[unused746]
however
locking
output
stockings
afro
hardy
##ude
hickory
##ko
professor
sell
ᵃ
futures
sally
tucked
babylon
tremor
1908
##gist
massimo
##baum
##tary
##17
fluid
nelson
##gau
##20
5th
ramirez
technique
##fly
##nya
species
clerk
dahl
joanne
98
attic
tanker
charlie
needles
##oned
randomly
grabbed
humboldt
##60
paces
bangor
ying
[unused708]
1745
schedules
wages
italianate
hughes
central
nw
##jet
ajax
1793
ems
peeled
attending
refueling
activate
pinyin
meet
bolts
farther
ա
scheduled
ensembles
backyard
##erved
##going
fingertips
convertible
dade
pregnant
proclamation
##abi
commune
declined
##phus
dump
offshore
[unused253]
go
practitioner
brothers
irrational
##tsa
beneath
denying
arm
breathe
esther
manufacturing
ン
completing
##cans
1831
bullock
courier
[unused471]
splendid
walled
ponytail
##ju
woodland
##lei
eyre
##ductive
climbing
clung
emergencies
mai
nik
transitioned
amusing
milky
mandolin
##sef
510
thankfully
##chner
##tland
porn
moines
breadth
##mia
##twined
privy
幸
##pods
##raphic
##zzled
##rly
agony
coping
leonid
125
[unused901]
##iger
inhibitor
##lov
##amy
sullivan
impression
rattle
bach
##ept
##o
dance
myths
##ss
tracker
patio
wine
##pin
##њ
ardent
freeing
##antes
liege
portrait
prophet
[unused157]
ᄉ
alam
skinned
flourished
##つ
lankan
restart
diocesan
arabic
server
##ᅵ
##feld
furious
harmonic
tucson
embark
[unused885]
[unused275]
trouble
[unused806]
burke
1930s
kincaid
plumage
versatile
##cast
##ィ
##fy
osaka
acacia
applicants
lear
buyers
226
enjoyable
winslow
oboe
pharmaceuticals
##yon
deer
leiden
loretta
rome
##ally
305
[unused568]
peninsular
##erly
remixes
fictional
greens
##க
##achal
forbid
reformed
medial
doing
footage
deported
preparing
1971
glamour
levels
##rasia
ए
##dine
precisely
targeted
fraction
promotional
##،
##ה
deposited
played
##athlon
marcel
cells
##kato
flicker
##sar
stryker
croats
hints
longitude
##kia
northumberland
lego
ore
richter
ups
rhea
##kley
##auer
##ʑ
[unused119]
chicago
jacksonville
nun
exam
literacy
waist
[unused307]
hoping
champ
clues
split
##zi
residency
transportation
webb
basil
starred
[unused437]
##lm
##⊂
ˈ
##washed
orson
##eem
guernsey
societal
dogg
domed
##´s
inadequate
thorpe
332
##mada
¨
landscapes
jewellery
jp
converts
corrections
khyber
compact
steppe
leningrad
br
nightstand
annoyance
remarkable
uv
##'
##υ
arab
##hue
##uer
subdued
assortment
cremated
##མ
ce
[unused643]
murdering
tits
##fect
childless
considerably
oval
une
freshman
##a
##cius
weeks
##cha
commemorates
##unt
coptic
clerical
##ete
460
furthermore
preacher
##oka
gymnast
inferior
##scope
galerie
subdistrict
alvin
resolve
rebuilding
lineage
ned
leaking
wilmington
mass
《
extraordinary
merrill
louder
##iable
nautical
rocking
artillery
[SEP]
##vid
##ue
theorist
##ate
##utz
##lander
demeanor
ugly
lane
apps
##hs
[unused805]
favorable
banjo
##station
mali
##thing
[unused640]
petersen
##nx
threatens
universal
hit
##ˤ
codes
hastily
##nic
subconscious
mongolian
patriots
##我
[unused97]
fray
practical
activists
indoor
166
triumphant
291
##des
##dd
##urgent
knocks
auditioned
outset
horton
acknowledges
turkish
##nche
downs
hierarchical
##<
incorrect
put
theft
scents
federico
legislative
jolted
##utus
hilltop
seen
##imate
sorbonne
nakamura
trough
##œ
interfered
perceptions
smoothing
vital
[unused335]
spatial
##ppe
holder
northern
reuben
lions
modelled
accumulated
apron
snack
##orough
##poo
announces
connections
floppy
terrified
1828
##に
phoenix
robes
##loe
initiated
wasted
##nel
generosity
comrades
prostate
wildly
tracy
hydra
grove
timmy
sequencing
supervision
ahead
atop
1400
destroyed
enjoyment
##c
decided
[unused242]
thrusting
cites
hey
trenton
relevant
constantinople
##rogate
socialism
katz
pricing
##メ
crossing
launches
tomato
##sities
detachments
disgusting
##lita
misconduct
apollo
ز
hu
computed
barclay
harmonies
[unused567]
retire
coveted
demon
noteworthy
ashamed
##tty
inequality
sadler
##eed
diameter
##roids
bribe
##rrell
lebanon
luke
baird
##rno
drums
veronica
dissolve
##eger
superb
curvature
sahib
carlton
##jar
travellers
presenting
justine
##м
damp
mere
chinatown
bernardino
handling
successful
[unused472]
antibodies
encircled
practices
assembly
evenings
calvert
authoritative
flirt
popcorn
synthetic
accomplished
dorsal
songwriters
nickel
poking
1985
spite
shore
sorcerer
##ज
groups
lodge
loaned
boulevard
correctional
presented
futsal
##dio
##opped
eureka
gunner
##dp
##gt
##xy
[unused577]
priority
survivors
driven
##finder
seminar
skater
irving
##kin
masonry
rams
1603
norway
nova
bra
williamsburg
joanna
anna
writ
##raph
intimately
$
##icz
68
disputed
##mere
270
execution
games
homogeneous
speeches
stella
162
wandering
##rov
piracy
##hort
beatty
##sham
##rent
##lite
##oche
attempts
keyboard
adults
jewish
age
leaned
##rera
treasurer
gloss
strange
gabled
sealing
wilkins
ventilation
international
##cide
[unused579]
windmill
throbbed
residences
opens
roofed
29
##ᄀ
brute
cappella
endured
284
alex
mozambique
##dable
1644
leaked
##oo
albania
[unused257]
apostle
poet
[unused135]
looked
goth
##llo
bonded
icons
recruiting
##ough
observation
##ride
commodities
entrusted
wu
waters
vinnie
abruptly
arched
tasked
ryu
smallpox
homage
##of
somalia
thumb
condemnation
westfield
herself
124
##〈
vicar
calmed
utopia
doubt
champs
alderman
negotiations
punching
scrambled
hunt
keystone
[unused782]
counseling
ramos
boating
cal
agent
whipped
substantially
民
empowerment
星
##aw
##power
[unused878]
prank
##pment
melville
snoop
vanderbilt
##se
bowing
unfortunately
editors
##vity
rooster
sirens
advocate
##fm
[unused716]
belfast
##ret
[unused266]
bag
bigger
cinematic
leroy
##ische
##xide
abnormalities
sud
raged
nashville
tone
happiness
##overs
duffy
##sibility
##כ
##漢
##iah
conclude
ago
beaten
##rland
rodeo
simply
metis
仁
carrying
##son
##wala
commenting
sven
brandon
theo
##rs
alf
enactment
##ists
貝
approx
##bu
##uj
tavern
nadia
coop
android
curves
smartphone
##mith
##ラ
centuries
lodges
disappearance
crown
tagged
melissa
##riation
inlet
microwave
hearted
##tra
jug
##ool
##♠
##貝
inducted
##gaon
bind
##52
##hog
dynamic
thing
parasites
##oud
dukes
godzilla
jimmy
handball
ᄌ
##ம
ball
glistening
##est
rally
accounts
causing
declaring
freight
gemini
shoving
updated
alpine
texted
##anu
undeveloped
157
##bbled
katie
##sf
[unused707]
##bard
overcame
mines
revolving
stampede
##բ
oxidation
ᅥ
judging
##43
##bai
rowan
creamy
layer
possessed
church
talbot
bosch
ध
45th
contemporaries
－
wall
commanders
mari
adjustable
swear
harness
nightclub
broadcaster
repeatedly
sorry
^
asian
luis
##glass
##nna
picturesque
trunks
##ient
corporation
tidal
your
##tower
immortal
##eyer
attacks
ousted
reacting
402
seneca
monitoring
tall
##sl
gastropod
marlon
nah
screenwriter
eye
##扌
administer
##quest
arabian
puppy
geneva
procedures
writers
##some
contrast
হ
liv
##nds
##own
[unused143]
countered
tanner
alumni
skills
myles
island
mika
imperfect
江
##wu
ivory
blockbuster
##udi
translate
stroked
##while
markets
devin
101
latter
medici
tumors
legislators
mayor
duc
collin
##ians
biodiversity
hostess
pill
website
52nd
grinding
flashbacks
infants
humanitarian
insistence
##heim
pg
##र
frequent
enduring
compulsory
prepares
sevens
xv
michele
practiced
dillon
ba
walkover
europa
vascular
refrigerator
made
thigh
anti
whites
undefeated
##race
animation
[unused641]
sleeper
chinese
influx
zoological
yeah
⽥
promises
##lun
##itt
praised
enthusiast
rat
wichita
##ter
rhythm
##dic
eruptions
1812
timing
##aris
fiscal
bern
ס
##nia
δ
sex
inhaled
##elles
credentials
##plate
##leaf
[unused276]
halftime
vanished
morphological
now
flyers
notions
quotes
##col
##nable
featuring
grains
princess
訁
##།
##kai
##lou
##寺
include
juniper
7
fk
brig
altered
ravens
##khand
gymnastics
scar
espana
##tier
afternoon
sense
respecting
##ת
representations
cheaper
turing
156
seized
##ος
finely
1752
mutations
##ech
knitting
##thermal
territory
underwent
vegetation
##bau
smoke
material
134
organizational
covered
karl
bram
spoken
##ك
base
timer
vibrations
rich
properly
##linson
leukemia
annex
##ful
brethren
guiding
because
mcintosh
224
austrians
milestone
succeed
might
yang
##turing
spears
foot
dock
##tenberg
hobbs
##食
expecting
blessings
punjab
2001
elevator
##nka
differentiated
excavation
swiss
jealousy
shivered
nuns
francais
malvern
hiroshi
##島
[unused239]
slain
sucking
##mussen
exploit
##omics
thrust
declines
speeding
##growth
rite
applicable
[unused902]
##oja
dancing
golf
galileo
##onal
homer
##nessy
providers
##ential
##lars
squinted
##wa
plump
kun
napier
##oco
χ
##dez
##lore
containment
1962
arnold
[unused801]
##waite
conservative
engineers
gaped
jurist
##€
##rocity
##lwyn
flourish
##gement
gen
innocent
loyola
[unused565]
prohibited
##rem
alert
bribes
excitedly
overseeing
fcc
##ан
dam
##ª
chu
warriors
ɹ
##宣
domenico
jedi
where
rails
jena
##曲
44
##rissa
##rled
mountains
labeled
stuck
fantasy
hillsborough
networks
unicorn
##ddin
1622
anthology
1840
woody
charms
bays
##bial
anders
ferns
excavations
blake
once
[unused810]
predecessors
##code
magnolia
collaborator
withdrawal
finished
thinks
vehicle
lads
##gm
label
cuckoo
initially
adamant
grill
[unused683]
17
##ype
contested
##ᆫ
##do
##west
cmll
##ricted
kochi
closely
rutland
diet
kung
wanted
##oso
breuning
utterly
##bird
[unused6]
met
devastated
unopposed
trends
cues
proposals
dungeon
west
##≤
adolescence
spin
wien
prentice
saxon
shifted
也
commission
canada
continue
##fe
divorced
≤
stair
cote
bees
defect
karnataka
##ped
##fat
##lets
skeletal
##xia
##say
apical
housed
##iko
##bbon
gerald
lied
reunification
shin
##dun
carr
creator
[unused20]
atari
muse
[unused573]
##↦
##chu
accomplishment
irs
basement
271
boise
orthogonal
originated
mcpherson
##6th
colonial
car
##dridge
caliphate
ecological
shivering
freiburg
transmissions
tt
emerging
casually
##riders
##eki
magdalene
releases
fates
wasp
face
statehood
competition
curl
village
nobel
reflection
##み
seek
##wear
cooking
heads
graduating
brad
revenue
puck
[unused540]
dempsey
addison
seventh
##ending
1980s
amphibious
grief
academie
dried
2020
turmoil
prolonged
moonlight
二
##kel
engined
303
miserable
capsule
raining
donors
giggled
retail
ari
rene
pointe
##ucci
manhattan
vidhan
##ndo
capabilities
##ش
dexter
musique
##zziness
lafayette
paz
claus
##bing
marlene
wang
articulated
sacked
wi
daring
colombo
command
##imum
##ह
budge
lies
reduce
goodness
violating
intercity
propellers
works
remote
disadvantage
octopus
[unused331]
greco
recorded
interactive
priesthood
unfortunate
grenades
##地
heal
professionally
##fur
fetch
##cia
gravel
lou
##tama
restricted
hummed
##bian
allocated
doc
keeps
accidental
cooled
pour
blu
##ango
##tees
baptiste
ciudad
sizable
##igan
##jak
##rita
[unused979]
imagining
issn
session
olympiad
messenger
##xt
##re
westminster
buddy
birthplace
##hold
##orth
##da
immature
[unused163]
honest
portraying
recited
reconciliation
##ulation
reworked
rites
tatiana
##ncy
harsh
lehman
##ulus
markus
giles
##dini
camden
direction
staple
##urg
ry
open
pup
楊
vacated
jon
debris
ironic
yarn
centres
disappear
contiguous
##hak
rb
bryn
faced
nominally
cis
moran
lightly
intensity
classify
##bes
sobbed
##il
approved
cheerleading
swiped
##lty
considerable
compilations
berkshire
client
♦
violinist
metres
##iology
##lta
interpretations
guaranteed
inherently
mccoy
plaid
viva
##missive
treasures
##masters
##”
telescopes
degraded
##50
apologies
peck
receptor
vested
##nn
signage
halifax
liner
columbus
##vitt
stalled
##`
civilian
theaters
brings
pitchers
##म
lingered
supported
coco
fiercely
##戸
occur
groaned
roll
finding
113
##ggs
##宮
signature
fritz
concentrated
variability
essay
epic
[unused43]
travelled
romanized
dates
13
guides
combatants
cop
earnings
they
[
##lea
bypass
donation
##rock
##ckey
basis
afterwards
jade
harvard
bishopric
##bn
elf
も
pinning
broadcasting
artery
jaguars
units
watts
brutality
assault
continuum
##∨
surfing
jimmie
##gami
##tf
[unused211]
riot
avila
nippon
allie
warnings
violated
##¶
polite
252
##ー
[unused761]
adjust
##hly
alejandro
roundabout
greenberg
me
investing
[unused532]
##pire
overdose
petals
oklahoma
conveyed
barracks
##wart
groans
invites
peek
[unused312]
characters
explode
penang
tyres
moat
neptune
assassinated
vanguard
ferris
eruption
inhibit
steep
ف
analogue
feral
panzer
ₘ
surged
‑
##icative
noble
voters
congestion
gundam
kellan
libraries
−
bonding
##ennial
##rne
##eth
methyl
dona
recent
digging
gilles
chick
institution
jong
ministries
rigorous
darling
reforming
##rting
norris
explanations
salesman
communes
attach
displeasure
station
odisha
rubbing
##nist
montevideo
##ᄊ
##camp
litres
fluctuations
sorted
baku
emergency
mutter
policeman
cincinnati
1867
albrecht
deutsche
1743
periodic
##є
##lang
intent
38
戸
radius
strongest
strung
va
fin
harbour
anonymous
cale
vs
##lard
spill
pune
mao
holden
intra
peninsula
robotic
148
basically
professors
hits
sim
syndicated
cebu
##aday
resume
consolidated
terrorism
##ico
[unused505]
##acies
waking
[unused860]
warmed
taiwan
catch
robots
##sław
##ᵏ
immigration
supplemented
battista
surviving
##tory
##uez
allegiance
connects
sarah
302
bench
undertake
##ered
carries
johansson
drenched
pendant
morality
ike
##moto
scrubbed
twigs
marshal
##zio
48
gasped
tucking
bolt
woke
[unused460]
faces
solving
slam
enabling
[unused596]
finish
[unused781]
##ana
somewhat
tightened
##net
kendall
malice
simulation
procedural
mosque
seats
type
veterinary
adversary
invariant
brooding
hart
affinity
as
frankfurt
fucked
invalid
challenges
resembling
kobe
##burg
[unused448]
duel
how
##宇
shrines
wastewater
##lein
conquest
##rove
manga
ascended
specifications
sophomore
hockey
erected
new
jennie
envoy
[unused369]
monastery
burkina
communist
lately
##ser
aftermath
1728
freddy
reassured
##ingen
lanes
sibling
filtered
mixed
sept
##landa
fortified
uruguay
##य
identities
gamble
lowers
##nto
folklore
tables
pig
##₅
mach
##sation
reappeared
clear
##eers
furnace
madeleine
ripple
removing
gesture
roast
plymouth
finest
##bat
acid
ie
vary
rei
skip
am
semifinals
prairie
luckily
receive
##ʰ
ithaca
##aki
2004
currents
oricon
extension
revisions
sofia
saharan
[unused381]
mage
1973
persisted
collaboration
send
##₂
riverside
buckley
township
archaeologists
recognised
##ious
notre
proportion
!
##adi
casting
audience
##acing
momentum
##orum
##ant
provinces
pratt
sixties
dinamo
[unused680]
ignore
passports
spots
##rave
techniques
presentation
m1
sacrament
numbering
##iba
jillian
rabbi
himalayan
insanity
backwards
chased
doubling
girls
23
##rona
analyze
audio
sculptors
##most
business
##it
nexus
neural
requirements
ス
overheard
##dberg
factors
trainers
古
[unused207]
[unused647]
ramsey
##iation
walk
relatives
aubrey
##llan
magnet
comic
endings
indices
invaded
rescue
##eis
[unused4]
##yam
odin
##borg
耳
sinister
##gna
##к
scandinavia
indication
prom
boys
51st
stalks
##ayan
°
##ula
linger
##nte
glue
##ell
odor
1895
shrink
qaeda
##met
institutes
strangely
1803
##cera
carmen
##firm
pigeons
staff
radcliffe
##standing
baba
beatles
endorsed
##vo
wrocław
else
##-
overtook
budget
differing
attorney
millennia
##cis
conversation
shelters
classrooms
322
laszlo
lew
mayors
illustrating
nowhere
》
beats
survive
annual
notoriety
accessories
bump
nouvelle
[unused989]
graceful
dwyer
##sche
montenegro
homecoming
closing
adrenaline
category
shrieked
scarcely
aa
myanmar
accumulation
native
##↑
routledge
backside
experienced
glare
framework
arrested
lights
##け
##zie
quake
toilet
waved
assemblies
##ւ
industry
bear
##cross
concentration
giggles
[unused701]
shu
2500
[unused649]
life
##em
1870
sardinia
foster
##tura
promo
officer
400
##holders
[unused744]
toe
ave
##frey
repairs
##rgo
##vs
offering
lawful
re
sick
shielding
play
during
[unused63]
hovering
mattered
concerns
riddle
ா
letting
rosario
brewing
end
draught
##dating
[unused677]
execute
sic
##dates
chuckles
thumping
obituary
peterson
undone
chocolate
backdrop
reunite
jamaican
terms
mostly
1653
##deh
del
lucille
₄
∩
##mare
charity
forthcoming
[unused525]
##อ
[unused181]
teams
##nts
raked
structure
ɐ
prices
nantes
authority
dudley
##ars
brigade
cemetery
primetime
alfredo
disturbed
rhetoric
survival
default
##zel
erebidae
##lka
stepping
consider
##tma
potential
choked
preferring
nineteenth
scream
##ager
nonstop
owen
exotic
cramer
mx
jake
ignores
polly
cereal
illegally
owner
##ntly
sleek
yearly
slow
##one
layton
##erence
wondering
287
##ament
patrice
ᆼ
physically
heinrich
marquess
occupations
pitching
wagon
signifies
combining
soyuz
##ditional
##imov
##pore
respected
rounds
nominee
##just
weren
alla
##rations
[unused959]
[unused409]
abolitionist
cyber
terri
indefinite
tolerant
133
average
mavericks
momentary
sanitary
sweeps
reverse
perrin
##van
karlsruhe
canyon
gideon
realism
downhill
##than
##wana
false
##koto
left
regulations
swim
debate
##io
macmillan
medieval
toxin
##ll
105
comics
comeback
centers
##ე
morning
losing
trophies
##ulla
##ound
trucks
##pes
##stand
chassis
iphone
1692
pornographic
disks
lynch
##ville
mobilization
unofficial
##umi
1700
brotherhood
comment
uncles
damon
mother
##fold
silly
sniffing
##pal
forewings
holiness
mind
##ography
##bahn
engraving
groceries
neue
##pel
##nsky
##u
nix
truly
lengthy
##uled
descend
##orted
hindus
spirits
patient
underworld
spicy
[unused465]
faster
sonar
blazed
transition
advises
##wind
ones
##ancy
adam
sold
[unused837]
viewing
social
ui
##aur
bethany
discrete
##xon
##ug
huang
##asia
fielded
bags
methane
chanting
offended
##sca
fifties
pushing
answers
1860
sensual
austrian
scheduling
lore
##enko
lizzie
##orno
##iring
struggling
guantanamo
ransom
fletcher
notwithstanding
##ロ
##di
capita
guest
prayed
[unused299]
rotten
behaved
arrangement
retrospective
shadowy
##rud
[unused753]
listened
stated
shenzhen
ultimate
neolithic
##roup
knuckles
noticed
##京
telecommunications
[unused933]
edged
adventist
statistical
warsaw
##gu
##ob
andersson
sad
ken
sources
lightweight
neil
cosmetic
respects
comprising
sight
plc
indicated
##eves
malaria
ogden
baroque
angrily
skipping
222
frowning
turbines
hammersmith
parenting
##氷
darius
rapidly
##郡
lanka
cute
laser
capitalism
thought
peeking
##]
##thor
josephine
hostages
gut
validity
marin
hapoel
seahawks
waterfall
lash
albert
paradox
wandered
scene
greyhound
þ
fitzpatrick
laughter
abd
progress
slave
[unused799]
##gos
savoy
##ய
khalifa
slams
##lier
fictitious
shia
overseas
sulfur
smile
##brook
##ف
finalized
##hear
thirst
##ux
meg
robbers
alternative
convection
charged
[unused376]
##ⁿ
imaginative
lila
##神
crocodile
roads
##øy
retaining
319
total
throbbing
langdon
easter
derivative
##ach
consideration
contamination
##eles
##kam
##ds
brno
dalton
1776
eels
hole
jett
termination
135
[unused594]
boosted
[unused662]
gaming
[unused950]
triassic
##the
cheltenham
footprint
##wari
mt
salsa
phoebe
middleweight
population
situation
viceroy
winding
culinary
strengthen
acronym
##水
graeme
energetic
##away
bertha
bn
universities
buck
wat
serena
##amen
##ako
##udged
gallantry
slammed
exhibit
##pac
exhaustion
sensing
examinations
atkins
sewing
extreme
shadowed
##at
##sai
benedict
catalog
##ion
jefferson
privileges
submitted
youths
°c
##clave
overlook
##hui
loki
pier
##之
##kti
zev
lac
##18
marilyn
cai
hostility
norwich
t
remarked
carla
##cate
[unused622]
brett
mann
alexia
differs
conductors
agra
precipitation
guided
##ont
catalogue
##保
misty
uzbekistan
[unused151]
mls
strode
sebastien
411
##ses
sort
wielding
belgium
macon
colleen
regulates
cerambycidae
rothschild
silent
triangle
featherweight
ob
rope
creek
since
weight
facing
bets
penalty
only
空
เ
farmer
backstage
cochran
[unused124]
arch
##ishment
reflecting
##igh
chose
[unused610]
meyer
##rgos
volumes
ア
maya
kennedy
peel
pius
billie
plus
~
bauer
guessed
dun
docked
overshadowed
rf
mystic
##pio
rift
emanuel
woodstock
transform
coroner
mri
##x
act
##学
##nis
japanese
##box
##itas
push
driveway
complexion
helmets
lace
##pe
[unused440]
beth
ensued
dal
##cards
hurrying
mirror
phonetic
[unused517]
bohemia
ferdinand
madeira
striking
dug
concourse
drive
neumann
profits
batavia
transcribed
rohan
disability
team
honoring
sealed
billing
burroughs
investigating
[unused589]
willed
fatima
fitch
ads
[unused153]
santo
comply
nedra
##lo
[unused11]
見
harbor
eh
lima
1785
coats
##zzi
eased
prisoners
albany
supports
bankruptcy
##plify
##ಾ
schumacher
equally
cardinal
yank
##hire
ᅮ
din
[unused704]
lyndon
marche
tracking
assemble
outnumbered
deeper
entrepreneur
##lus
palestine
atlanta
exploded
divert
pea
year
women
##uded
naturally
bros
mob
unified
rebelled
handled
training
tours
flew
csa
meteor
helped
customers
duff
##ops
nasty
destroying
reclamation
willis
alerted
transcript
write
xiv
氵
obligatory
##raya
##ldon
plain
admits
thou
allmusic
luftwaffe
##izing
uc
dismiss
##lved
sentimental
telangana
decisive
depleted
##rata
cried
lawsuit
similarly
kicked
nationally
perry
[unused373]
limb
res
pleased
pulp
ca
carnage
##э
fantasia
mane
subtle
ᄇ
liberties
##mara
[unused619]
afford
##llon
subscription
##ridge
##park
[unused31]
##dded
[unused407]
eroded
gambling
[unused297]
slamming
muscle
pumpkin
drain
stakes
compliment
##ort
##ider
outlying
☆
##ι
[unused270]
stacks
olympic
suarez
warmth
brianna
##ova
mice
chili
##yne
modernization
tempted
##wave
audition
##itating
dimitri
improvement
upon
უ
index
246
poems
spawned
kerr
##mins
sucker
monk
pinch
raised
topological
cornwall
celtic
volunteers
uta
cheer
quincy
##yson
##⇌
[unused992]
cedar
endangered
ferguson
watt
lunch
improves
cheekbones
##ist
fiery
##ups
##ա
ida
boroughs
ranging
gravitational
tuning
norm
##liest
paranoid
[unused67]
attack
salute
##kir
[unused896]
##gins
##oria
##dom
cups
dfb
payroll
quicker
su
diabetes
kings
through
unions
395
numb
weekly
arrived
griffith
cinderella
limbs
[unused792]
prove
##aux
efficient
standings
siege
barnsley
legions
divine
cerebral
[unused812]
want
errors
traits
##oked
adventurer
aces
##card
instrumental
procedure
developments
yourself
##opsis
##bla
bumped
provost
editions
immunity
wince
rafael
##therapy
##ented
detailing
[unused22]
directly
vowels
raion
balthazar
sing
scouting
aux
atp
##ng
superficial
positive
jill
equivalent
biennale
##mina
craters
biking
measure
fault
##eia
quiet
crystal
##ges
crashing
puppet
musee
↑
anthropological
##imating
airborne
aspects
crawling
foe
##rued
inflammation
bend
oceans
second
legislation
mfa
cloth
##graph
highland
joking
allows
sponsorship
##used
flopped
camouflage
rumours
maintenance
transitions
##rrard
##po
##↔
liberals
##neuve
distal
184
proclaimed
##с
hamid
suggestions
tame
goldstein
witch
disneyland
owners
whoever
[unused601]
##ioms
deals
distrust
κ
ships
preaching
surely
jesus
##ₚ
awhile
involves
effect
##isms
hotspur
believed
##chee
khalid
##git
[unused62]
complaint
leaped
big
##ble
sumo
substance
1719
##chon
##wara
harvesting
##get
surfaced
upstairs
pinned
paw
reciprocal
##ვ
ambiguous
callie
##trics
objected
##com
##wt
circus
jean
emptiness
swans
ы
##ev
dilapidated
conservation
textiles
trapped
pueblo
palmer
laps
dead
pairs
##ecure
##lina
crabs
enjoyed
sparkling
posse
##vances
[unused834]
selective
₩
[unused580]
ན
aquatic
1721
dollar
fujian
recalled
##mpt
holloway
##meyer
stairway
reserve
marvel
threads
asks
wears
wales
fatigue
##coll
clarke
novels
sprawling
knight
mateo
songwriting
shout
phi
redwood
##aldi
ɯ
netflix
##秀
elephant
archival
shirley
donna
majors
ʉ
##モ
sal
judy
boon
evolved
##40
##lary
landowners
##ease
uruguayan
derbyshire
##k
dispute
stadion
960
##vers
1st
devastating
##kur
fumbled
場
sailing
recipients
selecting
whoa
seoul
narrator
shelton
acquired
introduce
1866
prompting
modification
simi
keel
messages
[unused937]
wrestlers
1787
##guchi
criminals
disqualification
inclination
surrounding
##ℓ
castes
moans
suffer
antrim
£5
likes
sparhawk
crusade
##asco
[unused154]
cpi
boxers
hee
hell
nap
bennett
bomb
doctoral
continuous
definitive
##春
removes
##llas
bloc
intently
up
##oom
##gly
curator
newest
dad
tomorrow
505
vinyl
beam
ensured
advise
refuses
die
asthma
effortlessly
disrepair
mazda
ancient
program
bridges
1797
avenue
expenditure
blaming
shifting
sellers
contempt
nj
##finger
##sum
│
abundant
collided
chat
hearth
landmark
breeders
buddhist
attacking
wadi
started
##pkins
household
1734
ever
sa
書
cubic
railing
primaries
compete
realises
sanitation
military
matteo
diver
poland
herbert
discretion
recreated
1868
י
transcription
swift
₁
cinemas
tri
tal
constraints
expeditions
microsoft
##ap
grafton
aztec
##house
ve
##issa
ud
employs
##ehan
kamal
wouldn
л
beacon
hubert
mia
same
comparable
essen
foundation
##mobile
[unused906]
meditation
gallery
##encies
thong
consortium
##ße
##oot
pointer
condor
injustice
cyrus
##sky
##ʋ
##ต
stratford
glared
##47
clocks
hog
scribe
cretaceous
specifically
laurel
turned
maneuver
newton
##介
##te
southwest
##lish
package
##nare
disgrace
dell
returns
horrible
licensing
##torm
bumps
glint
##vin
1863
ii
elle
[unused24]
wikipedia
ɴ
lust
grange
jerking
publicity
##む
tigers
##10
witness
##ean
intrinsic
##yl
teen
supplements
##olved
##llar
bread
pigeon
lit
capped
townships
madness
raider
suite
kingsley
nominal
transgender
friends
descended
chronology
forget
##サ
‰
alt
gingerly
##tet
orion
crowds
ھ
[unused288]
ashland
objection
pearl
prefer
##オ
audit
cracks
253
sheltered
##π
boxes
miles
jury
spelled
props
grandmaster
settle
avail
housemates
tibetan
implementations
polka
##ssion
farrell
[unused990]
horace
}
martina
panchayat
##ley
procurement
##ucible
motives
文
defeated
##tius
1611
lowell
principally
machinery
departure
rag
##uda
##ski
dubois
gallons
relates
austen
positively
pouch
crowned
expert
##ћ
ethical
mayfair
ʂ
businessmen
[unused524]
flown
extant
relations
ran
rhythmic
[unused867]
nu
separate
saxophonist
bucharest
##org
undertaking
cairns
passengers
##umber
##elle
compound
ka
##art
##ང
bolivia
brunette
onboard
tense
plateau
communism
therese
trois
brendan
shuffled
insights
recounts
armor
gameplay
judd
##李
[unused473]
caroline
##ilised
tudor
##free
##wc
##র
insect
₉
wire
sexual
retain
revive
melt
skylar
steamship
burns
raleigh
1899
prima
cf
possessions
王
supply
perceived
racing
retiring
lower
tongues
america
pr
tailored
eventually
botanist
ᵏ
lamb
evan
earnest
raid
##vez
##lands
ethics
time
##chenko
##प
anglo
...
coin
essex
shoe
nokia
sonya
spaghetti
electronics
siren
byrne
34
##ッ
adolescent
july
stacked
##pop
##uchi
jaw
ল
grenade
sargent
mcnamara
lawyer
pantry
elvis
rc
reliable
entities
ukrainian
##発
coupled
internally
uphold
adventures
ymca
satisfying
bunk
tides
choreographer
intact
soloist
brake
joker
george
student
1679
[unused480]
[unused788]
arching
lifespan
papal
ft
##foil
##cky
##isha
drowning
mount
squeak
##eau
正
glossy
##iel
##bot
dipped
##rish
##hn
##উ
##llie
1865
german
girlfriend
vie
dawn
1936
##ishly
pali
bitten
##thesis
1767
call
##»
nilsson
curses
ind
analyst
instead
[unused661]
charitable
##ailing
electrode
[unused964]
scoffed
suggests
tumbling
ュ
[unused541]
moshe
waitress
publicly
admiral
##pants
border
settings
acts
separates
##₱
uniform
evening
precursor
belinda
##bella
cast
flickered
holes
beamed
interest
portraits
painfully
wen
whistle
[unused420]
chatham
##00
cher
##rut
patterned
##lce
salvage
schoolhouse
##か
[unused429]
avengers
mastered
djs
yielded
handheld
##tton
western
##oof
ར
[unused113]
break
johor
wiped
dolls
##ume
domain
flores
gangster
manners
reply
supplement
accusation
政
ufc
fulfill
upstream
giggle
sleeping
##jevic
##tya
collecting
investigated
##tani
gina
recording
israel
ongoing
sawyer
series
##print
後
##lino
pittsburgh
77
explosions
bachelor
jaipur
metropolitan
tribes
cia
aboard
buchanan
##cz
doi
induced
tighter
##gai
harmful
carlson
masters
felicity
kawasaki
meal
taxpayer
quarters
同
##baldi
##kov
304
offences
stress
inspire
##umb
##gnant
stefan
bride
commonplace
tapes
##འ
##wley
##gb
mixtape
afrikaans
tam
##pet
quarterly
bibliography
cherry
experimented
capacity
classed
frederick
pretended
browne
sediment
caine
lowest
springfield
##outh
acknowledged
jonas
racers
stumble
galactic
idol
1790
dipping
clube
##lena
bert
referee
hodge
sculpture
bollywood
elliott
relied
succeeding
uci
disturbances
[unused294]
assassination
violation
guilt
bowling
poznan
adopted
crisis
prevents
styling
##log
warlord
develop
confidential
##holding
##mp
hari
dortmund
inquired
suppliers
declining
precision
afraid
dmitri
[unused685]
icy
accurately
certificates
nasa
##keepers
relocated
[unused293]
credit
replace
##mount
##anies
iii
sutton
bahrain
76
đ
haley
voodoo
vincenzo
##ᅯ
violet
wrap
introducing
##～
gall
oxford
##ciation
swamps
##ᅦ
likewise
ß
suicidal
codex
fog
gestapo
##kled
swedish
keith
documentary
momma
##iver
flawless
##tner
##dilly
cottage
##rad
##iq
thor
branding
groundwater
friedrich
research
advantage
strive
cinder
fire
information
roanoke
pacing
catalyst
pursuits
panda
[unused284]
nitrate
foundations
suspension
beach
ohio
splinter
token
##watch
coaching
entrance
tightly
illness
崎
##ec
1979
##mur
startup
messed
##sor
ga
thai
##vir
receptionist
##ides
admiration
interviewed
##ee
kickoff
rubber
austro
geese
shoulder
slowed
##toy
governing
mischievous
faculty
drawer
emissions
apologized
upset
bleak
elton
jamal
inspiration
raven
serie
wendy
##wy
clinical
rebounds
ara
middleton
kitten
##₊
46
panthers
ubiquitous
attendees
revolver
##osed
pork
sabbath
purdue
archipelago
seeds
##boat
kant
julian
bart
##giri
watches
rao
reclaim
stephens
##for
##tched
[unused665]
inclined
inevitable
sgt
fails
assumed
##won
##phi
##え
##gizing
[unused887]
acton
chilean
brief
characteristic
junk
endless
ב
nearest
synthesized
terraces
hiv
freshmen
blaze
traveller
moffat
##eros
brackets
##uder
##aged
cannes
congenital
consoles
resorts
relegation
wallet
##tip
faber
maison
sought
5
scowl
anderson
president
##beat
650
math
understood
rivals
##জ
[unused296]
gains
verity
treaties
remorse
folk
squirrels
sufficiently
##kken
vlad
ernest
guitarist
oro
clean
[unused714]
matching
anand
##ट
mammoth
##kill
stemming
epoch
connecting
##tee
twisted
picking
strings
trousers
203
guildford
reconcile
sunglasses
relativity
darlington
transatlantic
psychology
balfour
foul
precious
whose
22
patients
contents
deco
##cula
enzyme
folder
1932
gel
##pura
interceptions
digitally
clothes
motorway
attends
instinct
nuts
rodgers
warden
banning
forerunner
harrow
mental
illumination
enzo
##ines
reckless
apex
wurttemberg
knives
coating
[unused123]
seventies
##list
varies
##手
sprang
##ther
drag
spaniards
skinner
duke
chunks
humming
sits
umpire
bari
polgara
illustrations
fading
##hdi
catering
kolkata
axial
sterile
herrera
enlightenment
involve
qualities
renewable
criticism
answering
popularly
##lica
arrivals
lincoln
[unused423]
actions
`
marriage
penitentiary
sitcom
estadio
january
##ani
vida
arrow
五
1a
bali
expects
cavern
running
##recht
blizzard
happier
virtual
氷
grandfather
##ston
cover
##ntino
[unused520]
gigs
carroll
rae
wide
о
##ife
medium
##ailed
elsie
wishing
colchester
availability
##evsky
##miento
##drome
colorful
##roy
oxygen
celia
kappa
##may
telugu
barony
survives
armies
##zee
[unused281]
##wald
debuts
ひ
ana
moses
domesday
down
##att
rags
##ᴬ
owes
discuss
shady
228
demonic
garrett
patna
##定
œ
##ome
lebanese
ˤ
lip
war
denies
ٹ
accustomed
monarchs
antilles
レ
thug
##vish
志
included
501
timeline
carey
dated
eligibility
september
##esh
##istan
corrupt
integrity
price
ashe
couples
kelly
hollywood
##tone
letter
fugitive
showing
、
##42
##dley
[unused917]
sprawled
enhance
franco
º
culminated
750
depiction
##章
interned
wrestle
bestseller
microscopy
modules
sniffed
##ད
benny
request
##₈
grade
hilary
action
jeopardy
##liche
dissatisfaction
dorothy
twentieth
ᄎ
##ou
tombs
irregularities
##谷
guarantees
solids
##ett
havoc
universe
goin
relationship
detailed
sabotage
less
##¼
ahmad
lorraine
introduces
saints
beige
53
contra
clancy
hostel
flung
rent
novak
commence
paired
##dre
infiltrate
scooped
depths
influenza
referred
short
place
engine
vicinity
mathematical
aroused
devotees
mercy
vegetables
regard
horned
vessel
belief
##ady
hats
berry
supremacy
##girl
ate
[unused51]
abnormal
##anger
depending
formidable
##lide
##zza
mariano
[unused129]
jozef
nathan
raul
##oop
fabric
calming
[unused418]
reserves
##in
journalists
southport
declare
cheshire
gleaming
##lynn
##vating
chain
lilith
subordinate
prohibition
##iji
##z
alabama
viruses
hired
universite
production
southeast
tuba
museo
##ю
[unused876]
emigrated
##kshi
iec
信
katrina
ड
yellow
##―
##shu
learn
辶
refurbished
notes
##ow
attacked
donald
rematch
tarzan
greyish
carpathian
increasing
aspen
##ctric
##mons
[unused58]
reprised
observe
##δ
subtropical
abandoning
framed
1944
midfield
dining
##you
mccall
finnish
##stein
rustic
127
##shing
spp
summary
zulu
pieter
bursting
casinos
wcw
##uing
neuroscience
ours
keen
forcibly
clapton
##義
jagger
##rber
##nco
pitchfork
sera
pirates
[unused575]
kanye
##ial
maximus
1724
##nai
crafted
obeyed
##aldo
##pres
cinnamon
adulthood
porsche
##ump
brought
our
jim
##acle
1840s
[unused611]
bourbon
dream
##ɡ
opus
50th
estate
localities
subdivided
webster
occult
odyssey
shadows
cunning
statute
urine
rests
orleans
comparisons
sv
mystery
intense
teaches
fling
⊗
accolades
⁶
##oia
vikings
alice
##ј
ceremonies
tx
hating
pennsylvania
strengthened
##kong
##ت
harpsichord
precise
##logists
barked
##anian
straw
##americana
kathy
anya
star
##rda
##pati
erin
revisited
##dora
##吉
configuration
miracles
##chen
playhouse
ass
retired
ξ
convict
1670
の
nigeria
pee
##ław
clue
feeds
unnatural
pedro
statistics
honor
branches
shocked
box
##erin
defiant
outraged
witty
秀
wavelengths
vacation
headlined
continuation
specials
lenin
adventure
heath
videos
embraced
engagement
97
mcc
imposing
snowfall
soccer
licence
nixon
##lk
generates
altar
decimal
duncan
maneuvers
invention
eki
##愛
hissing
respectively
##eering
adi
[unused514]
funded
anxious
airfields
##│
comedy
##tated
travelers
migrant
ge
drills
ribs
programming
overly
phillip
hm
##shaft
sulawesi
##gia
##ouk
shovel
piston
knockout
学
##osaurus
trier
weep
[unused485]
##frid
##bad
[unused522]
maid
milk
nwa
focused
ˣ
cynical
simon
architect
nhl
resignation
semi
ode
hancock
imagination
ridiculous
try
nature
playing
rumbled
sickness
belongs
allies
₈
reynolds
##alle
lashes
hospitalized
1813
##rated
markers
[unused247]
enterprise
##uria
##hat
[unused406]
##inging
640
cafes
consists
police
comune
context
fore
hamlets
admitting
cartridge
mrna
fat
rectangular
prevention
##ᶠ
marxism
ニ
refrain
hannover
vacant
things
bypassed
##bba
theorem
macedonia
competed
jobs
defective
##ously
late
oswald
engines
successive
ტ
[unused639]
gallant
pathology
pondered
global
hutton
gregg
rallies
hush
common
н
gritted
han
robert
fable
handler
##rable
ks
ness
troops
[unused351]
mn
[unused325]
sakura
sword
santos
imaginary
malibu
sherwood
connecticut
confiscated
humane
stimuli
analyzing
collar
artemis
invitational
easy
read
lilly
miranda
ensures
##lence
bowman
panels
##akh
nitrogen
gospel
screwed
pamphlet
serious
##ara
passageway
erased
sham
weighing
nawab
##wad
divisional
subgenus
ʔ
snarled
clench
notation
unaware
draws
##ings
about
say
[unused380]
copy
soldiers
crowded
ক
ₒ
fiji
[unused899]
continued
casualty
drummer
##dled
essence
metacritic
##vd
patrick
edge
enraged
taiwanese
##lind
exploding
franchise
780
passenger
wearing
stanisław
rises
strict
##w
favourites
hms
champagne
agents
6000
joachim
anchorage
jude
560
looking
183
##cle
##止
neighbourhood
psalms
dreadful
identity
ranks
##『
kimball
tortured
##ᵖ
spend
erskine
[unused277]
pajamas
##burn
liquidation
™
defensive
hazy
##ios
##inda
##ulton
monique
county
mandate
mtv
kristina
sharon
desperate
compiling
collins
ornaments
awkward
trailed
legends
##opa
explained
penned
kitchen
1811
sb
##eno
spy
##osi
[unused531]
edo
##am
##ٹ
cot
blasts
highs
nagar
lucrative
theoretical
1980
177
cunningham
reached
terrorists
##ener
##ness
##„
##rot
##bles
breeds
outstretched
##vy
correspondent
##lling
tiger
spectator
richard
micah
39
tufts
##achi
##eaux
taking
##उ
burlington
argument
sacks
point
##yal
retrieval
wore
daniela
knot
##centric
coven
disturbance
lex
rectory
##tead
lynn
##inator
dressing
##龸
middlesex
300
josef
defects
ই
streaked
dangerous
##eux
白
blankets
not
ظ
dwarves
##ake
populated
漢
本
syntax
##irus
guerrillas
forgiven
macintosh
##pod
##ics
##urse
##yre
dispose
reza
penn
bracket
quasi
1942
ownership
planner
##ট
suggesting
##ger
##nko
##vil
1996
##tm
##ப
olaf
##mic
bumper
squirrel
47
administered
carol
##was
lounge
slim
##cit
##erted
[unused696]
copper
photographed
永
byu
־
cove
boer
loving
##ult
comments
congratulations
ideological
namibia
dunbar
prison
[unused582]
spectacle
comparatively
##mbit
zeta
[unused711]
operate
flushed
mundane
designation
ring
roaming
temperature
##rke
##amina
deliver
inputs
jose
##esis
drinks
##მ
[unused0]
weasel
##media
escaping
lovers
##tones
claremont
aquitaine
[unused258]
confronted
enters
vickers
withdrew
stadiums
##lau
taluk
feeling
playoff
[unused481]
##mini
216
ₜ
525
加
##oin
candidacy
[unused220]
1818
sprinter
##mma
honours
[unused227]
butch
##imo
##amo
clenching
comprehend
except
##fare
pac
164
bargaining
mac
peacock
recaptured
congregation
offerings
##bil
messaging
tripoli
国
trans
##tp
##ami
##orous
stimulus
um
##nem
visions
##hosh
firing
longing
lighter
whale
##軍
handcuffs
buys
##’
organizing
trial
russ
prosecutors
##torium
##oma
bias
##lese
blink
dignity
interested
draw
preparatory
roots
sleeve
foam
pathogen
grades
noticeable
512
grasping
benz
support
interview
notified
stretch
recurring
[unused648]
##ums
mas
##fting
##hardt
pope
majestic
##tad
sites
soothe
ᅭ
darby
female
newsweek
mongol
corruption
destruction
##dent
##gram
dig
##cam
agreed
pie
lifeless
goalscorer
generate
morrow
[unused210]
##vr
learned
ann
[unused608]
canary
exchange
without
bounds
yamamoto
##ration
ren
johanna
milling
huron
model
cranes
##ि
boardwalk
connect
titular
ax
claudius
dividing
paint
exclusive
perform
##yx
online
ncaa
stanza
val
ச
destiny
contributors
cure
69
gabby
linen
viewer
campus
seaside
[unused92]
chow
cards
[unused208]
menacing
##fusion
potentially
explored
harden
##ː
amazed
neill
mario
callahan
alexandra
##¥
avery
globe
jase
ligue
mobilized
##ido
turtles
long
inviting
acids
steamer
fear
parapet
decor
quad
##lc
ip
160
compton
finn
sliding
potassium
salon
uneasy
pow
[unused438]
plaques
toby
brenda
##lent
vidal
potter
apparent
regardless
internacional
lined
vfl
agreeing
##ek
maritime
##kh
estonia
mouse
lunar
mummy
##boats
punched
carriers
entirety
pyramid
ː
##mics
ζ
##quel
penetrate
therapeutic
1827
##vna
giggling
kv
solemn
』
1635
si
fleetwood
staring
courtship
courageous
handel
stark
##pot
cid
clermont
challenger
americas
era
interact
shaun
##wi
brick
courtyard
ministers
nm
margins
[unused774]
epilogue
detrimental
abbreviation
frenzy
decker
darkly
##fle
craftsman
beaming
lobes
28
1893
estrada
adolph
goldsmith
promotes
inaccessible
167
adequately
groundbreaking
pollution
##istles
##ando
##idad
billed
blanc
attendant
exposure
lancashire
tequila
jewel
vhf
galician
counters
weighs
whorls
deng
sergeant
blonde
alyssa
noses
v
armour
au
prefect
egg
impressions
delhi
prose
groves
[unused845]
internationale
marxist
rafe
pilgrimage
glide
melinda
castle
lance
recorder
##logical
catastrophe
leaps
diffuse
vietnam
hoc
intensive
pots
##ono
##tite
[unused915]
landed
trumpeter
hospital
soft
brian
boyer
liaison
[unused658]
mona
##nish
blew
regan
purchases
##क
maxi
[unused75]
morales
disco
##phon
karachi
##qing
unemployment
publishes
##ια
trio
norms
venice
##⁄
##lten
ন
##pool
emphasis
[unused697]
bark
mirrored
triangular
cornerstone
##dson
wraps
##uno
##ᄑ
steering
santa
acres
relinquished
kei
[unused235]
hawkins
sector
eine
offence
donnell
cruelty
##athan
turbulent
[unused374]
zinc
roam
ambition
junta
modes
##idal
saunders
establish
reigning
torn
catholic
##scopic
touching
via
mandates
agustin
atomic
consisted
reverend
sexes
runways
[...]
