renault
ʁ
cater
customers
posterior
prentice
venezuela
misery
phylogenetic
release
simeon
##ե
ˈ
letting
##unt
ranger
##nty
625
[unused608]
organized
mari
cheers
traveler
13
[unused565]
carey
##written
logistics
##nical
[unused71]
effect
##lal
mountains
oversee
surpassing
##llary
ein
239
organisation
costly
parasites
yard
##erved
kurdistan
brien
promoter
resurrection
rejected
cypriot
named
##ean
engulfed
gossip
djs
spaced
nexus
##ᅡ
territory
spawning
skins
erin
intimate
ambassador
glancing
ら
2016
categories
releases
curiosity
naturally
change
martina
pei
##arion
ा
##sibility
147
intellectuals
650
nas
##kee
##rist
appleton
selector
signifies
##nent
##ject
[unused75]
declaring
membranes
li
nicknamed
stadium
creates
[unused337]
ortega
sen
nurse
eduardo
restroom
adrian
selena
1610
ա
ban
brink
co₂
antonia
fern
[unused888]
splendid
restricted
contempt
##．
showing
societies
##biology
blacks
shadows
##lon
nearby
mercer
orphan
guyana
neighbour
jeremy
sas
resemble
missile
pussy
ح
wat
##aris
throughout
winfield
blair
clarissa
gaza
protege
enjoyment
##lc
flatly
probable
##dt
##nk
seen
[unused215]
that
burt
##chel
haste
deacon
##raz
##⊂
pba
*
portion
textures
waitress
iata
980
mitch
1936
culminated
ridges
traces
drilled
bowman
kapoor
##ᄑ
erica
##by
manifesto
persona
##weig
##alla
um
1625
lipstick
frame
##aid
##boards
##rom
redskins
atkins
snatched
福
sling
[unused280]
judith
##growth
abruptly
christensen
hesitation
manipulation
steps
troubled
television
##uli
premiere
##rma
striker
boundaries
lana
elongated
tell
enduring
bandwidth
bumper
outright
penetrating
ய
det
##}
[unused506]
commodity
cops
guest
decisions
##¢
bizarre
gloss
invented
nbc
treasurer
aground
##ᵥ
directional
##ᆷ
##chs
ann
crucial
avenues
bruise
ref
yields
arranger
queensland
##llins
eleven
accept
unseen
##rued
bedroom
minnesota
croats
##rn
runoff
##phine
lobe
kolkata
garments
godfrey
herbert
kerry
[unused109]
minimum
##cating
bears
scientology
sixteen
interviewing
志
tip
##mel
dominican
bolt
eurasian
store
polymer
noting
strand
answering
ն
perhaps
secrets
israelis
limit
researchers
isla
##eit
zu
##asi
##ady
lake
illusion
inner
unpublished
vampires
acknowledge
monitored
##yn
##غ
destroying
jug
##pled
sousa
steamed
groove
erskine
looted
fulfilling
[unused36]
180
brave
pseudo
some
##hawks
uses
havoc
sava
##inates
1788
informs
##jin
##lent
uniting
rags
hooves
tracks
displeasure
geese
leonard
landfall
palazzo
paraguay
lonely
far
##ump
proposing
kb
ᶜ
swollen
pivotal
##aly
instructions
obey
sin
wandering
chambers
flute
≥
parent
##uer
deng
cruelty
displays
##fide
integration
romans
doll
##owe
limousine
resided
translation
山
joyce
1925
saxe
benz
case
hawk
auguste
penny
##founded
applicable
shrine
first
animator
highlands
##oit
1902
242
chatter
entrepreneurship
##ament
##lib
spell
##hering
authored
sadness
##竹
1991
##ulu
##ল
cultures
1749
##onzo
event
kicked
sheila
superhero
burnt
##good
##mad
linda
oblast
pune
lowry
diseases
same
equipment
burke
ally
fright
journal
obe
##naud
1720
christmas
economist
guantanamo
lucknow
bumped
popcorn
##ian
blockbuster
visa
tribes
##nds
##tl
french
hierarchy
proximity
villains
arya
##『
##明
analysis
bukit
##hend
tending
strangely
bases
##mps
jd
##oteric
wide
footballers
frequently
harmed
referencing
##uki
rhine
##llas
histories
poultry
mack
[unused306]
instincts
soprano
瀬
##bine
##hit
marsden
novice
predatory
##ring
##sur
antiques
##een
##ɬ
grandpa
webber
activist
[unused942]
shade
##foil
kenny
browne
sighting
##gis
bullets
hacker
staples
drum
##ctric
hunted
bubbling
slides
she
revived
##kei
ranch
slang
meetings
##rland
##bari
332
##ħ
archery
grandparents
nad
##nzo
implies
##yang
sheets
ecole
##press
airfields
bidding
##ifies
##33
bladed
traditions
struggled
politician
supervisors
slalom
willie
searing
vibrating
consultancy
kidding
[unused403]
fitch
fate
modernization
ל
tramway
causing
toni
safety
elder
abolition
brigade
hole
raft
remixed
##ische
benedict
##cultural
author
infiltrate
tierney
xavier
larvae
islam
ok
2020
geraldine
grid
laughing
relies
wikipedia
sobs
moral
##dak
##ations
moody
artificial
##onate
##ista
intercept
babu
1879
airplane
billie
trademark
##wind
president
final
kingdoms
nineteen
prizes
##nikov
insurance
##deh
bournemouth
contra
leaders
nods
swallow
aired
thee
measured
##ptive
aforementioned
##osh
eccentric
gt
feedback
،
marius
kam
dieter
ল
sun
##oids
revival
subterranean
wellington
grasses
spelled
##9th
##cas
##may
servants
landing
smiles
forgive
accordance
metric
##ryl
states
mustache
##mal
##walk
malaysian
##ingen
onions
alf
[unused310]
lacrosse
drink
race
disruption
interesting
1867
primarily
sheep
shiny
ர
diane
ю
[unused660]
hawker
highland
discussion
summoned
kota
fleetwood
luton
王
confusing
library
mira
contributes
politicians
served
stabilized
slips
bono
pieter
##aw
unreliable
03
1716
oklahoma
organizational
forgetting
iqbal
temperament
overcoming
postal
cartwright
liquidation
funeral
merchant
punching
interacting
lyons
1874
##nti
telangana
1864
flash
whitish
crop
owed
bai
chapel
detecting
め
[unused792]
##—
espn
muslims
catholic
3d
conscience
resist
declared
clutches
leaned
stripe
[unused877]
substantial
ill
ufo
kei
wrong
##ev
certainty
italy
angola
floral
hapoel
tearing
##front
butcher
sv
##ering
chorus
anthony
##est
edmonton
colours
evergreen
monkey
cousins
570
energetic
cullen
##wang
timber
precedent
1570
australians
##ace
cambrian
brodie
[unused865]
carp
argued
legislator
lynn
quiz
sawyer
##hwa
shit
edible
learners
donetsk
directors
groups
relaxation
calculus
cap
liz
gliding
trenches
[unused758]
neatly
hospice
cores
ь
##坂
321
##ume
1856
fitting
youths
ruin
scent
speech
faa
bargain
##gging
cambodia
headlined
smell
mel
[unused26]
patsy
##п
##_
ancestry
argentine
##kle
linear
montenegrin
solo
stripped
vamps
##phon
sensors
lyricist
coordinating
portage
##ja
initially
alternatives
hasty
stephens
pulp
##mbit
vu
##bina
secondary
ม
tail
calculate
kosovo
shooter
##rst
restarted
compiling
##ency
beast
normandy
פ
##ibar
[unused578]
fountain
cooler
435
lambert
க
forks
shakes
##glia
inheritance
laboratories
emir
jeremiah
wu
##itas
scowled
butt
nominee
⁷
defending
monty
elsie
ᵈ
1868
accordion
##tral
hired
treat
scene
##ᅥ
お
##pani
hunters
1721
kan
##ricting
blake
endowed
lobbying
vicar
desperation
laws
##bs
agree
ain
outlets
##promising
buckle
checks
mondays
風
gina
place
rigorous
achieved
##hope
maddy
divorced
manila
##jal
##dating
minority
vance
##‖
inmate
ride
##imeters
finland
valor
broke
gospel
sprawling
believed
toulouse
island
condo
norte
springfield
mary
1940
##¨
mlb
●
banquet
tina
knelt
commander
herd
##ney
steering
ᅦ
hide
##ssar
lure
suspension
psalms
formation
##ities
238
elliptical
sensor
micro
psalm
##hem
papa
segregated
fun
journeys
##liner
someone
desirable
henri
cisco
sullivan
##gc
chained
1995
servicing
1815
over
obsession
walking
offspring
arcade
##fine
ar
comte
##kovic
[unused214]
retail
sergei
mcgrath
injunction
showered
substantially
eva
principality
##cturing
indigo
##oca
##care
promote
glared
crocodile
recruits
##ᄅ
morning
needle
##ђ
enchanted
liang
##sity
netball
alter
annette
contracted
fabrication
plaque
prohibited
roberts
forerunner
spokesman
##station
45
gold
1710
underground
ᄅ
day
1880
glad
[unused10]
attempt
regulars
sentiment
breaststroke
header
mythological
##oslav
canonical
##olio
guides
upcoming
sm
##mian
bonaparte
soviet
प
hello
horseshoe
hardware
elections
creatures
##∩
melanie
##riders
##iques
[unused263]
johannes
semifinals
##resh
₉
scoffed
##vius
chapters
flora
##ragan
imaginary
leroy
overwhelmingly
ussr
kelsey
wan
weir
escape
ᴬ
##内
bengal
flotilla
sweep
telling
##hurst
##ul
clients
rashid
ক
enfield
modular
carnegie
sylvia
girlfriend
124
##bush
hush
dispersal
overseeing
styled
outsiders
influenza
##ル
repetitive
croft
defender
##vate
frightening
寺
##rber
子
[unused291]
tradition
belts
ding
jr
##ths
107
##ヘ
crude
styles
window
ο
socket
weaken
fat
puppy
beverly
loneliness
##vino
origin
intimidated
##kas
##fk
tarzan
greens
{
collaborate
##raus
##oran
fellowships
##omp
stubble
##phone
electoral
unarmed
securing
arabia
[unused62]
##oration
[unused448]
##tering
commands
wealth
¼
##pants
thigh
monde
privy
##つ
millions
honored
outstretched
mustang
##rdo
autobiographical
estrada
molina
##nick
loose
oldies
stink
[unused13]
##olved
sitcom
##opped
shri
sci
##sfield
curtains
farms
chariot
solving
##ccus
built
ghetto
worcestershire
gin
promise
[unused675]
scanner
harmony
isil
chords
dial
fortress
comprehension
leary
nicely
andersson
themselves
##sei
argentina
##straße
intends
planting
##tle
redundant
doubtful
icelandic
municipality
thousands
##nting
tombstone
¥
rotor
alam
lucia
citizens
brought
huntsville
portrait
##cure
sisters
benefit
##head
walk
listed
characteristic
necessarily
ri
needed
cyrus
tried
philanthropy
≈
demonstrate
locks
der
hostess
inducted
messenger
overseas
པ
helicopters
##tting
##西
flourish
wichita
##zog
hinges
craftsmen
##hone
##ɯ
maureen
ह
maynard
kenji
##aceae
byrne
ami
cultivation
ditch
discarded
1727
ø
adorned
nesting
##mates
dickson
courts
fitness
[unused232]
closing
gasp
de
[unused915]
again
opponent
network
frustrating
trained
tangled
##enter
traditional
tsar
159
##ras
tracked
##rrell
##伊
estranged
##nged
dubai
burial
runes
vest
tricky
term
ᅢ
universidad
##elman
1818
[unused44]
夏
##lidae
##mania
1659
##pac
rescues
cheng
galerie
cough
sho
disability
bound
cables
lewis
highness
fatal
graffiti
192
nave
##oned
dubious
storylines
##rrick
##eley
1897
glittering
titles
missouri
##uron
##placed
relation
roanoke
##awa
bartender
hardship
##カ
stirred
cyber
swan
redwood
motive
##ek
burnley
deteriorated
panzer
##gned
walls
loomed
residency
##版
##bala
##movable
engineering
amber
wrap
adventurer
injury
athletes
false
frightened
rosa
##oe
##reus
employer
confinement
intel
##pp
barefoot
viet
##quent
courtyard
pardon
##umb
gaul
punish
downward
slaughtered
biologist
tower
loops
ivo
furnishings
westfield
prints
ו
loire
deliveries
onwards
agency
resting
yearning
##alia
ponds
[unused958]
regulates
relied
roughly
##ogan
##yson
critically
facilitates
30th
testify
##olin
clause
haven
##roy
##dorff
flipped
nba
##cat
racecourse
##ajan
ᆸ
##hong
forest
apex
bibliography
foreman
element
initials
##gic
birthday
##neil
104
characters
conscription
fist
metabolism
suggestions
threatened
discharged
[unused890]
dismay
edouard
mor
nueva
mainstream
next
##ェ
ladies
punk
yell
##genase
obama
reopened
[unused604]
laying
fascinating
scorer
each
toronto
84
hectares
buster
也
##nstein
filed
##pts
wynn
##peed
##nesia
##oco
conservatoire
competes
guiding
situations
##ried
journey
##mble
184
##80
[unused605]
[unused947]
punta
griffin
thong
armenian
maia
yoo
charged
mariana
##ma
##ees
affect
##rick
more
balanced
weightlifting
must
solemnly
2500
temptation
ต
kensington
1714
argue
itf
miserable
[unused612]
296
[unused822]
##jan
huang
unsafe
х
[unused517]
polly
helpful
##essed
gear
partridge
53
ᄌ
bold
slightest
eine
bristol
meant
##dington
frontier
house
secrecy
##yat
auditions
storytelling
currently
hasn
mill
caspian
##ท
[unused742]
energy
##nu
##ulia
river
savings
ख
brandon
alert
backstage
judging
cosmic
creating
astro
dipping
saints
cabin
evade
##ᶜ
derelict
nk
##名
undergo
stables
resistant
burundi
##iny
bail
fletcher
[unused439]
commanded
##pling
abdullah
##85
cringed
[unused666]
turned
##rgh
イ
quarries
entering
finest
manage
risen
parasite
##min
##ն
tourism
sikhs
5th
funky
betrayed
participated
##logies
il
accreditation
internationally
holden
##ags
drafts
rotating
##quay
##asco
sigma
jew
natal
homo
jesse
process
150
commentators
revolutionaries
steam
##sdale
meredith
##ᄎ
penal
[unused294]
harbour
[unused763]
airlift
þ
exploits
##cl
fraternity
1705
shropshire
bas
##ands
kind
sheldon
1847
absolute
milos
dare
compassionate
flashing
##rmed
[unused905]
paolo
sri
skulls
caracas
##bo
bundled
officers
relationship
taxonomic
##ও
##tre
sk
pronounced
hutchinson
piracy
kang
grounds
##mine
kathleen
##inen
terminated
entries
bain
per
ems
verse
lau
fence
##ction
al
confined
pins
##utation
##away
showtime
judo
nutrient
##ӏ
salman
ヘ
inscription
computing
gibbs
train
pubs
myanmar
艹
designation
concentrating
barrel
skirt
shrugs
angular
##lain
usc
object
micah
barbecue
download
psychic
instrument
rani
##ciency
materialized
venues
##avs
##rove
trinity
dancers
##cton
helicopter
rather
whales
ssr
thanking
##zko
implant
##陽
constellation
##lb
630
san
oracle
commence
[unused221]
reactors
[unused38]
##vre
金
##ধ
reprised
bowed
##rol
specifically
##rogen
blur
illinois
kidnap
informally
jaipur
[unused103]
blazing
intersection
##elin
נ
[unused360]
akron
[unused705]
tag
ticked
dudley
）
reeling
undeveloped
afraid
amusement
##ois
fact
publishes
##日
matching
generally
requires
awake
whoa
subsequent
##pas
explained
##vale
recapture
##xa
capable
involving
buddhist
castes
experimenting
mls
microphone
record
destroyers
pediatric
mumbled
ranks
tactical
matthews
sheikh
positive
macmillan
##宇
fireworks
practice
bunk
##rea
jase
jong
##ك
carbon
concussion
##cm
combatants
hunan
vanderbilt
drank
##iaceae
baseball
tunnels
##糹
banco
ー
##roids
repression
alsace
sporting
flex
courthouse
mobile
stubborn
gerald
steve
berth
watches
clemens
shout
##gia
subjective
adriatic
ballad
girlfriends
advises
abuse
affairs
coined
##riety
cleric
mckay
narrower
distinguishes
##գ
mother
parcels
[unused969]
ever
warlord
treacherous
গ
bonnet
##mere
nostrils
hague
options
##cloth
1766
declines
hartley
auditioned
pumps
##hema
crewe
polka
topic
gladys
##rasia
donald
ט
##com
##ned
voiced
stockton
##roud
[unused523]
silent
scheduling
doom
##tarian
least
forecast
miami
indices
tribal
care
amino
piazza
arguably
shirley
institutions
[unused265]
psychotic
##skin
##lice
nanny
##icient
1712
ito
##dur
thick
expressway
meaning
red
luxury
breach
fleeting
begging
om
bacon
munitions
credible
##ミ
expectations
mustard
saratoga
##eo
900
easton
leak
sol
trinidad
面
fast
ace
warming
##hedral
borough
cuts
##oshi
##rted
##ook
tumbling
biographer
や
portfolio
tie
occupies
##tree
footing
[unused163]
##ntes
gladly
incline
oppressive
messing
mckenna
subjected
lifeboat
scott
contention
doesn
unsuitable
##त
id
lithuanian
##ग
こ
ʾ
clean
arrive
payton
mabel
##№
rattle
##iger
[unused464]
proportional
##nts
##ш
##tus
limits
nations
bihar
freezing
##¶
##ж
deemed
envisioned
##sai
##jon
rehabilitation
an
restrained
sensitivity
mathematicians
warrant
##/
seriousness
##play
princeton
daniel
designations
gram
twilight
##स
##trum
versatile
nell
featuring
##aith
near
##ulus
[unused739]
dizzy
holt
included
##imate
delaware
##pping
1729
decreed
brigades
goldsmith
lesbian
##च
outcomes
lombard
enjoy
spawn
cursing
daisy
embarked
loans
##urne
wing
comforting
saddam
scrutiny
guerrero
##waite
[unused574]
##dust
##gb
detectives
greenwood
squire
recommend
terrified
borrowing
[unused851]
##ан
nina
apocalyptic
nasser
miriam
nobles
hawthorne
caucasian
##]
featherweight
diagram
camera
everest
kirby
nikolay
##edd
[unused673]
mets
apology
sterile
worship
##rries
bundle
statewide
describe
became
aztec
walked
##yard
moreno
mcconnell
obstacle
aristotle
ivory
##oid
reserves
loch
##tson
##vera
978
abrupt
trooper
##rize
inmates
slid
survives
apartments
cultural
want
endure
cpu
luminous
armory
resultant
marriages
moods
cards
readiness
indigenous
hurricanes
^
constitutional
##ᆨ
infants
mitchell
pier
hiv
swansea
steelers
mikhail
majestic
##ी
el
straightened
##loh
ᆨ
yue
teresa
##ʌ
1802
##ites
##yce
freddy
expose
vocabulary
incorrect
palatine
‑
##cca
##worthy
election
ᴺ
lenin
napoleonic
throbbed
##ro
view
harmless
universal
##tur
brains
scientist
##irs
1817
homes
##edo
##zman
seas
quiet
龍
reproduction
leap
rewarded
2011
numerous
beacon
##nde
riders
##clops
cows
hm
choke
beads
arrogant
##meter
elevated
sticks
wilfred
anyone
dwarf
##lein
advocating
##amy
##istles
peggy
##ives
experimental
eighteenth
navarre
##ductive
harvest
##woman
clear
disneyland
sumo
timeline
fx
##spar
##vating
exceptional
guns
myths
ב
heightened
fremantle
dismissal
injuries
judicial
swear
afi
reactive
unfortunate
bouquet
champ
33rd
##tension
##kill
##meyer
##ix
##ɕ
spare
[unused775]
climatic
[unused935]
priority
disturbance
ate
blazers
allowance
appealed
intercity
bonus
ivan
##sonic
respondents
springer
メ
nationalist
##疒
entered
belinda
reasons
empirical
tibet
ƒ
party
identified
logan
neighbourhoods
spirited
bosch
newer
raleigh
pepper
shaken
edith
日
[unused818]
pull
cookie
anal
remembrance
འ
##oxide
attain
[unused426]
commemorated
[unused827]
invaded
baptised
lyman
celtic
1650
##verted
middlesex
squeezed
calf
willis
transparency
customized
reasonable
##ods
concentrate
platinum
##end
eighty
##ᆯ
imposing
genres
retain
coughing
suburban
[unused141]
fielding
##zier
attitude
whimper
##idad
wildlife
civilizations
dynasty
##nessy
books
##ax
nomination
caribbean
troopers
##logue
##中
company
towering
##pile
possibly
1953
[unused162]
crews
horizontally
paused
##antly
gauge
meyer
##ak
quicker
sonar
souza
274
##mics
##nea
barely
##hya
trilogy
puebla
drove
katharine
irresistible
eden
##ョ
bonuses
stability
hudson
trauma
##য
[unused161]
amazed
arrow
boxes
smallest
evident
sacrifices
singh
much
##geny
features
##ronia
tumble
##mounted
1843
accelerator
salesman
[unused475]
##pen
##br
fished
lordship
video
##ell
wizard
pray
[unused482]
fog
道
##otted
stomach
guerrillas
tong
##bour
bathroom
frequent
running
cia
javanese
奈
bree
neumann
navigable
foul
occasional
amnesia
stressed
reward
stockholm
vulture
negligence
winds
skyla
balls
##kal
125
comprehend
crack
nationale
scribe
mixer
ruins
orchestral
script
theoretical
theresa
reputed
benedictine
##vita
dunn
coiled
rebuilt
jackets
intercollegiate
crouch
responsibility
eyebrows
firmly
##burg
hundreds
migrants
skaters
suggestion
deputy
viii
185
cheney
predicted
peppers
turrets
₱
##chman
officer
##gingly
scowl
docked
##arina
crooked
##vious
mandal
teatro
bangkok
reminding
transverse
##plate
debra
leland
services
plymouth
great
alice
thoughtful
daemon
##ł
damaged
cheered
incoming
##mond
[unused42]
meanings
mandates
ta
workshop
maguire
##ingly
generosity
barbara
[unused54]
boxing
poetic
residual
dvds
clutching
[unused901]
phosphorus
werewolf
1825
artists
##ops
zoological
incentives
##戸
assume
##ings
inclination
##rift
##gible
##tto
leans
த
recognition
##rio
##tera
fragmented
montana
##qa
attractive
##|
humanist
aggression
simulator
km
##ith
floats
yarn
flavor
abusive
commandos
continuous
ankles
delle
doin
##rut
potsdam
what
chromosome
bargaining
grim
##ge
##well
fresh
regiments
wool
##zily
##ke
nonetheless
##zar
bedfordshire
rob
tbilisi
##nic
huddersfield
sick
rapidly
##oso
##bara
zen
sediments
##ா
emperors
1986
pointed
##trick
##gon
##wine
negative
drone
ᅯ
##buch
##dberg
clocks
levant
tan
disposition
##oat
590
brothel
examination
rip
»
encore
##ulata
highlight
##anian
##pack
##ural
bathing
##lence
conjecture
perch
sure
tastes
brewster
activation
sima
napoli
write
satan
simplified
io
ˤ
cope
technology
assert
conway
1958
vomiting
strides
elaine
##mack
tanks
storms
publishing
assemble
romney
四
armada
##flow
1400
[unused143]
fleming
portsmouth
cantor
handy
hillary
remark
sham
enlightenment
##meral
traps
##ng
nora
toby
##ess
[unused94]
hallway
[unused149]
dolores
others
hugs
##culus
##sts
[unused668]
detectors
spaces
hotspur
urges
[unused443]
dollars
trapping
circuits
[unused257]
chatting
##urrent
warped
scouts
hates
how
iconic
strengthened
[unused539]
undertaker
##werk
regatta
mathias
pollock
mechanically
##χ
haggard
134
streaks
zero
boulevard
multi
nickelodeon
suit
sited
peshawar
defenders
carthage
parades
51
increased
brandenburg
⁻
blades
##פ
##some
##⁹
abstract
buchanan
centrally
us
viktor
##uls
slung
tortricidae
##「
sickness
##合
terminus
lehigh
##bet
blamed
##場
malibu
abs
university
estimate
housemates
slovenia
##ard
ports
wyoming
foothills
##øy
mouth
uae
fey
bows
memorabilia
##mme
ruse
dso
bosses
logic
##wyl
roe
[unused912]
[unused117]
painter
##mus
swiss
voluntary
fa
##ड
元
##mar
flowed
[unused780]
crafts
dutch
racers
##idae
presidents
gently
starving
legitimacy
flared
wake
communities
stricken
sophomore
##schaft
bowen
bronze
hacked
1810
renovated
shakespeare
##open
##crat
atp
aft
gutierrez
##nction
cavalier
tanaka
[unused77]
##ctus
##irus
curiously
##zzling
##cott
romance
##ile
##mpton
cute
un
##hesive
provoked
flyers
明
longest
jeff
timer
desires
occasion
universities
cruise
heats
##eus
000
mentoring
yi
禾
257
##haya
defences
naga
shrug
##zi
##uta
##hip
components
##rika
mitochondrial
[unused133]
##mberg
1962
floated
jakob
sainte
subsidiaries
ulrich
dept
##ception
puzzled
staffordshire
##ph
nickname
##jhl
councils
beit
##as
[unused770]
charges
sneaking
[unused979]
beneficial
skeletons
##ρ
smackdown
differed
static
discovered
1730
andrei
к
tr
##ew
fourteen
scarred
##active
finished
recipient
billionaire
polar
casual
variously
lab
earthquakes
combine
greensboro
johns
་
amos
plastered
comparing
woods
articulated
hiroshi
##√
cryptic
vines
nirvana
lumpur
##kovich
sour
tree
arched
indications
bourgeois
##ologists
prejudice
paintings
stocks
cortes
##ammed
##ᅵ
[unused376]
reassured
##ying
##fur
##kara
parties
determine
edo
winnipeg
aggravated
dal
hearst
happily
[unused723]
##hp
##llin
lace
bio
cummings
phone
preserving
bearing
chargers
dignity
fork
entitled
##戦
160
medicines
agatha
oppression
complement
persistence
facing
##around
macro
##fly
methods
adherence
monterrey
scared
仁
rhythm
##sam
ethical
policy
ˣ
co
trend
aziz
protects
appointing
theirs
grouped
witty
writ
raider
magnolia
iron
agile
##fle
conductor
##wad
colors
mexico
##real
fines
parallel
premier
##ד
##अ
##mium
##た
ciudad
illusions
sponsored
reign
##dice
shu
groundwater
trams
grossing
rivals
louvre
promo
rabbis
##owa
##eg
##worm
jed
##ʂ
##unda
illicit
values
grinding
succeeding
sailor
synchronized
gabby
fjord
setting
darlington
hurdles
portable
[unused7]
molecules
##ache
##dian
##wich
dominating
peck
shipyard
foot
##pie
localized
worshipped
η
##folk
grind
knot
paw
after
translates
adults
pebbles
##ens
nr
1778
continental
##gold
pod
stops
becca
mon
1872
slave
answer
toilet
ministries
エ
##logists
portal
patients
academy
guzman
jain
daggers
[unused861]
von
rodney
##bes
leash
aunt
culminating
firearm
tomato
authorship
##־
##efined
1758
handing
swelled
##ston
##zek
surfaced
retrospective
##ropriation
[unused470]
ringo
##ir
montane
ミ
チ
##里
protagonists
##lta
τ
serbia
口
abnormal
atoll
##pone
molecular
##gang
daytime
guitarists
##モ
よ
initiation
##gical
ى
provision
bremen
shoved
##ify
[unused48]
##ake
americans
rooney
268
following
wrestle
rehab
obvious
film
simulation
ɪ
910
joaquin
dentistry
slapping
##wski
bathurst
京
bjorn
##ric
wharton
本
1775
mackay
covers
##athic
croatian
cesare
h₂o
mgm
ه
halted
##fall
technicians
arch
##土
felicia
prince
begs
ropes
cochin
poe
singapore
splinter
##uts
daze
peering
refuge
cycling
demos
filters
allowing
reuters
##non
wings
##orted
crust
1759
alike
jasmine
enter
##শ
##∈
t
undead
compression
侍
economists
370
irrelevant
one
emile
raion
##kia
##[
broken
climb
overhead
remembered
clemson
bully
幸
550
apps
applying
gonzales
put
cognitive
vice
detective
devlin
mirage
[unused615]
changed
##inatory
stigma
mouths
official
heinrich
##θ
inspections
pressing
motivation
drain
clergyman
##drop
routines
royalty
##ine
pedestal
spp
commodities
##ン
suppose
atlanta
andersen
creation
configured
bear
[unused139]
##thi
mild
##issa
notwithstanding
quarterfinals
##elial
crusade
##dant
[unused872]
minas
regulated
pulsing
pressure
expression
congestion
squirrels
empires
practitioners
gleam
hill
##ড
collaborator
holy
door
1886
alexia
cheekbones
horizons
inn
marriage
prepares
proclamation
sidney
##link
griffiths
##lip
pakistan
karel
legion
151
west
og
[unused662]
disbanded
ruined
slopes
boiler
anticipated
deux
orphans
cleopatra
larger
##49
##rin
curse
fisheries
gdp
hymn
##ᄆ
barre
ultraviolet
hussain
##lving
##gent
##grove
outburst
rocks
intervention
##gar
classed
irony
justified
hogan
natural
##gli
##ndi
skylar
execution
squinted
##fi
[unused736]
assaulted
joyah
##vin
nestor
rai
opted
london
quantity
tuck
##ニ
palms
lynch
promised
action
rude
[unused118]
isotope
stove
gretchen
true
viva
seminar
##owing
barber
louisville
##ont
norma
tells
elliott
##ausen
÷
edges
luther
crowe
milo
brewer
curran
excursion
sy
##sons
##fting
twenty20
moved
loyola
restart
roles
##cha
[unused556]
crossings
[unused751]
diversity
fire
independents
reddy
lankan
mined
sportsman
##σ
##rte
##ₘ
hms
[unused900]
saskatoon
stocked
customary
mayoral
##otide
paved
##太
manager
1666
##aba
trust
##basket
##brand
allah
charm
doi
##tadt
gottfried
membrane
notorious
moors
acknowledges
implementing
nodes
manifestation
ric
tasmania
52nd
[unused333]
##zal
enveloped
ranging
168
shia
[unused422]
reconcile
right
pollution
[unused680]
##lim
##ひ
aimee
missionaries
##ς
1909
approve
reveal
posse
mechanized
##vial
lynx
rahman
##iere
household
odd
mast
[unused96]
##lated
##giri
pennsylvania
candy
mongol
zipper
seems
forbade
1741
highlighted
plant
afterward
recycling
wooden
##wu
structurally
kitchens
essay
##都
fabricated
libretto
##morphic
wreckage
##m
##hedron
banjo
perennial
##rac
##ע
manufactured
strengthening
denmark
##fires
triggers
##ving
republished
chapels
wright
wishes
[unused856]
##<
explore
taxa
##dication
complications
wits
カ
tapped
##unced
prank
bottle
emergence
drill
talbot
spatial
##kim
trevor
智
configuration
va
lamp
101
bryce
crushing
kylie
gareth
##ehan
##宣
inequality
26th
neglect
obedience
##enstein
1970s
[unused547]
charge
pact
briefcase
confirms
levy
sex
##kh
submarine
02
mainz
##nis
‚
##rik
[unused386]
##gle
sec
##bourg
tc
foe
confronted
rumble
georgetown
stevie
##火
swallowing
replacements
fixture
loren
pounds
gestapo
pleasure
sculptor
##ʑ
interior
midlands
alvin
##opus
uniformly
witness
##aldi
1753
##uses
##dge
delight
updated
giggling
incidents
民
##ᆼ
statues
alternative
tunisia
assists
sponsorship
##ג
fernando
inspectors
dormant
##ᵣ
##que
consulting
cuffs
##ivation
##sable
drawer
reyes
##yes
batman
є
bounce
##勝
keyboardist
pen
wes
##force
wiggled
duck
days
[unused146]
crore
devoid
shang
vents
commercials
##ee
opaque
宿
manifold
ginger
game
carpets
competence
litter
differential
earlier
cadiz
pilgrimage
falsely
vastly
algorithm
rocky
##mous
craven
streaming
ru
tanker
tug
highway
salford
24th
##rosis
##27
outrageous
##arium
hume
##sel
dee
narrative
oxide
##ת
##held
47th
##ssen
##int
sophie
army
como
smoking
erected
workshops
marketed
noise
quarrel
yourself
gearbox
##華
peoples
##ler
causes
should
##ℓ
1981
##gina
wilton
##uating
lam
lied
lawsuit
mn
dune
mineral
upper
getting
partisans
1846
)
accessory
sami
ナ
##ush
bran
ラ
亻
murals
##urer
businessman
newbury
broadcasters
katie
covenant
whether
[unused577]
excavated
evelyn
resides
packs
sellers
solve
plea
barr
mortar
grandma
thorpe
tired
reproduce
misunderstanding
easy
greg
##dation
##ད
nash
past
eruptions
baden
##tagram
nailed
sincere
304
lara
##tland
29th
silva
jonny
##lais
ea
[unused657]
[unused873]
signal
philosopher
whisper
[unused515]
mutations
##eng
representing
[unused620]
notice
check
##enes
closes
quit
expresses
referred
icy
312
[unused111]
chosen
giorgio
basins
mothers
fourteenth
problems
##farlane
cloud
trustees
palermo
##urgent
disciplined
conversation
biography
##mple
puck
aviator
newport
concepcion
shut
##very
overturned
##romatic
furious
##uin
cassidy
callum
##dick
prima
##tist
concentrated
[unused2]
taste
examiner
revolt
viking
##ower
ck
会
ignatius
outward
bombings
##vik
ol
huffed
rise
overlooked
edinburgh
warn
ŋ
interference
public
sunken
fiddle
classified
targeting
##kan
bancroft
[unused412]
##zes
dot
kellogg
caledonian
[unused430]
cooperative
protruding
rivers
donation
λ
discontinued
plaintiffs
##log
##生
bird
valentin
access
fuscous
1976
##ウ
dreamer
[unused469]
[unused513]
environmental
madras
ɕ
publisher
11
dwarfs
email
grin
portals
abandonment
√
deposited
antibiotics
josef
##v
##nese
adventure
gardener
cape
medal
purple
sevens
take
za
happiness
caliph
erie
respected
##year
bethany
engagements
horn
##tically
mathematics
czechoslovak
disappeared
patted
portugal
favourite
gladstone
julius
unsure
refinery
belongings
dipped
pioneers
[unused179]
metres
authors
synthesizers
dominic
##ude
truss
loft
structural
##own
bother
commitments
stuttgart
rbis
##eves
geography
name
baha
т
piloted
ي
equipped
##llen
outskirts
visit
fund
proving
moat
2
##izations
cinematography
family
cecil
shivering
turbines
impatience
provided
agrarian
euroleague
##rius
##ital
[unused701]
be
##mah
stronger
lavish
birthplace
damascus
welles
degrees
indianapolis
defiance
prom
##khan
##outs
ce
brothers
evaluate
amplitude
thor
etched
heaving
[unused397]
##ট
trailed
occupations
valves
ん
astronauts
flair
annie
[unused849]
maori
rosario
[unused414]
okinawa
##sible
causeway
##bius
›
keeping
associates
uruguay
augsburg
33
investing
purcell
##khand
carlson
dissatisfied
jamaican
chick
chilean
surrendered
bubba
tornadoes
optimal
roger
sly
₆
outlaws
stella
1747
bellevue
jose
cavern
##ctive
##olate
madame
skeletal
##wd
lb
##sd
frog
welfare
flu
medley
principle
births
##lington
prefecture
fumble
reckless
sampling
church
##aux
worked
adoption
stature
heartbreak
roxy
141
periodical
hungry
rolf
vain
wondered
marginal
fences
gough
confirming
errors
tia
minute
supper
##uchi
/
archer
corrosion
papacy
primal
[unused328]
1908
81
##田
doors
shaky
aware
##cci
##eke
##―
##心
facebook
abandon
##esh
##hism
##vity
printers
propped
##eb
pip
省
##dlow
resulting
bedrock
[unused418]
cry
ethnic
ladder
750
tiled
municipalities
stationed
##elles
##inn
married
paths
manning
ambushed
genome
##ilised
landlord
##su
vowel
crises
##bil
scraping
dvd
atv
compulsory
##ains
##qual
clock
##tya
mastering
##kt
altered
desire
prostitution
[unused58]
spies
evolved
##ivated
tsunami
tactics
##ly
brushing
stanisław
starter
frederick
##ara
##bar
ellington
inviting
along
##cles
truck
auspices
triad
##外
hair
won
##mbled
##gart
secure
receipts
shudder
dull
libyan
lennox
fae
antrim
1820
##tenberg
curses
envy
facilitated
badminton
conjunction
sunset
blindness
constituent
proposition
warehouse
faith
ђ
crowley
symptoms
trio
engined
mess
teaming
impacted
ا
unified
##ة
continues
cave
carriage
och
rainbow
wanna
simpler
winter
ʉ
##ज
anson
differentiation
learning
parishes
m3
pradesh
##ivar
##lord
orchards
portrayed
builds
mobilization
tung
guo
[unused866]
acute
##iza
footage
xl
ד
eddy
mechanic
##oko
assigned
salty
##aceous
m²
custody
frenchman
formerly
##matic
saturday
seafood
her
repertoire
defensive
hostages
knee
1700
enable
pose
successful
solos
acoustic
##cite
haze
picasso
smells
freaked
國
sharon
song
it
6th
abbot
investment
##ɛ
##suit
[unused379]
inexpensive
[unused338]
attribute
weston
overall
sealed
forty
squads
wcw
##ony
چ
xv
eagles
probe
played
##itor
allison
brewing
dragoons
faber
sexy
gubernatorial
verge
gun
austen
accountant
##writing
##₊
striking
unions
mummy
[unused696]
aaron
tamil
midi
benin
##iculate
ethnicity
possibility
sewing
antony
shoots
shock
detailing
alexis
lok
uncover
reservoir
deportivo
groin
sergio
##mined
mumbai
1680
[unused164]
close
coward
deficit
sticking
zagreb
##rock
མ
humans
directs
canterbury
clutched
marsh
platforms
extremes
nikita
cowan
burr
enthusiast
experiencing
minor
paving
invoked
##lio
mainline
rained
overtook
##llis
preservation
##ahu
improper
##cture
hourly
pl
museo
susquehanna
juarez
1873
##music
marcos
cradled
removal
til
crawl
obligations
ள
garrett
climate
why
lilith
elisabeth
##asia
bacterium
virtues
##23
turner
x
†
cafe
3a
unfair
##hopper
##tic
##ck
inquisition
prison
labels
loyalists
[unused906]
tak
dom
##kell
swat
grows
##suka
##lius
abraham
laurel
##iferous
exclusive
infection
whereby
ᄉ
initiative
coordination
unnatural
[unused716]
disastrous
haul
choirs
frey
cholera
glue
founder
##ports
alien
arab
backgrounds
compared
premise
smoked
undisclosed
frances
circles
retaliation
extract
flavors
receptions
ups
owen
revered
transgender
tom
patiently
dragons
therefore
##gman
##guchi
led
rt
##面
extended
dundee
rosalie
mal
account
mortimer
2005
campaigning
swirled
##ffi
gown
##kind
##kot
fuse
marched
valle
presley
yucatan
hot
inhaled
footballer
subgenus
war
##জ
##z
motown
costello
exiles
tanner
thumping
calves
tone
volume
##aia
愛
fbi
songwriter
##rip
sms
##tituted
##iens
variables
##plane
byrd
fda
##iga
₅
birds
##↓
splits
forums
shifting
techniques
boomed
embroidered
solidarity
1654
beef
[unused251]
billboard
potion
##lor
disregard
gameplay
##anda
##ds
##gny
aba
across
##zee
alla
cuthbert
example
forts
productive
spelling
stabilize
ம
radiating
bermuda
shower
##ree
shetland
brilliant
mclaren
showers
yer
##xie
furniture
weakness
kobayashi
vengeance
##樹
inspired
biological
dowager
huffington
female
types
emmett
curtis
runway
snowfall
¦
panicked
fictitious
##−1
battled
curvature
menacing
tenderness
tilting
cnn
loves
forster
fixed
racetrack
draper
##ן
cincinnati
millie
scottish
darkening
ian
£100
darrell
does
meets
goalkeeper
undergraduate
##lift
1688
##†
##止
transatlantic
usl
##llation
amazement
swept
summer
##rrie
bbc
demi
triggered
undone
hostage
780
impetus
abroad
lame
bump
##sz
##hop
boeing
numbered
campbell
##llus
##rb
expeditionary
planner
##ously
bordered
け
古
rey
joining
##ised
##bon
solids
##ises
notebook
gilded
##sure
aqueduct
owl
colombia
##cliffe
##beck
inverse
neglected
popping
##fus
271
mount
simultaneously
mouthed
elton
serbian
moreover
elements
venture
gonzalez
immensely
##wark
arturo
dorothy
transitional
stemmed
where
spend
medals
genoa
organisations
##q
142
camilla
bloomington
##元
display
blaze
ordnance
##aco
het
declare
##ffer
support
1823
sucking
contractor
squash
##∆
[unused909]
steel
##ј
kissing
[unused168]
morphology
abdominal
penalty
##itical
ghz
endangered
fathers
##tch
lucas
marcia
milne
bench
cradle
float
phillips
##bria
stephane
kc
moderately
richards
liege
##ʊ
##rvis
explains
chichester
oxford
indicator
##ias
##ব
[unused846]
[unused950]
spectator
mw
##ワ
fascinated
narratives
roar
praise
characterization
jars
##dict
disciples
sounding
incurred
nosed
##fighter
patna
stimulated
strands
stems
container
joe
federico
##oes
cartridge
trophies
comune
humble
shape
though
negotiate
phosphate
clipped
exams
##rine
anarchist
##tti
##dents
frescoes
concurrent
mathews
##lone
##gal
plateau
jp
investigator
intelligence
uk
devils
##mation
entourage
genevieve
[unused259]
##quil
important
tracking
##osaurus
continents
fifty
arnold
jewellery
matt
mountainous
ensuring
literary
[unused918]
stark
##iled
1811
maintained
ා
surplus
rig
jameson
ⱼ
prelate
定
nikki
##ipe
##itch
pickup
cracks
##sily
##was
scrub
fronted
howie
workplace
puppets
sa
concluding
alexandra
centre
eliminate
##iana
##mia
##river
[unused828]
qualification
##এ
flats
[unused459]
##愛
raw
depths
episode
inventory
lung
vibrated
mound
##lva
737
##men
##ogist
fergus
turkic
9
ich
##rrigan
alongside
wreath
##dra
vigorously
##cats
24
##،
intersects
##tha
planes
poznan
ª
niece
##fra
stung
alton
spite
hamlet
##joy
isabella
nearer
detail
seizures
assumed
beaming
celebrations
ore
highlighting
superiority
rolls
##ification
burials
™
badger
##lot
##ต
[unused144]
emerged
cheat
stole
translucent
presbyterian
311
ड
collision
##nal
twelve
##分
hammersmith
lincolnshire
lowered
widows
er
chimed
##slin
whistled
##rera
cid
poison
sonya
suggested
plates
pleasing
changes
bob
binary
nationalists
##ே
peugeot
[unused507]
jaime
##ட
input
cutler
##ailed
basic
post
cooperate
##test
likelihood
platform
elementary
jenks
goose
##r
symphonies
routes
irrational
##ractive
##rice
morocco
caress
parapet
optics
wills
manly
atkinson
brest
myles
franchise
province
rainforest
citations
##jing
##tment
dinamo
kidnapping
halftime
humid
##meister
1910s
##55
cue
##ively
missy
trimmed
gary
[unused74]
##illa
##jad
tudor
felicity
2002
opposite
open
##լ
oct
昭
basis
##mento
stress
marries
match
##atory
teddy
inhabit
bam
hurdle
saves
poles
##wives
accidental
erroneously
madrid
emily
preferring
##ち
celaena
home
asian
vintage
##leader
muller
##dez
##xx
swimmers
adobe
cakes
heather
pol
stamp
##dot
annals
##hun
##clave
[unused55]
breasts
ß
inexperienced
compatible
cats
specializing
₃
bucks
kits
honour
##cchi
1711
manny
moths
satellite
dispatch
surpassed
calculations
1638
##⊕
playing
embedded
link
benito
routed
き
civilized
##eon
fk
woodward
subconscious
spa
gulp
partners
electronic
brush
joan
grimly
ə
locomotives
##gration
1663
fallon
60th
kristin
angela
[unused262]
helping
pound
ท
[unused377]
obsolete
qualities
##bba
##neck
potatoes
##erian
gasoline
doe
##bana
degraded
bedside
##boro
610
##bie
commentaries
nara
##ule
creep
glee
helps
advocacy
reasoned
weights
stout
citation
patriotic
##leigh
lister
experimented
##ganj
orbit
105
sabbath
kwan
dishes
launching
sally
manifested
provost
whaling
angelina
′
humphrey
lucian
我
accommodation
ф
hog
convert
been
exposition
##dic
typhoon
charitable
ʰ
gillespie
madagascar
heroic
scored
bless
elite
vincenzo
lucifer
enthusiasts
##ius
[unused537]
[unused172]
##hesion
[unused70]
watching
[unused567]
numbering
quarterback
##erence
promises
aquatics
##書
##5
1685
sahara
##sky
accurate
determination
dinosaurs
rich
sway
lang
dear
theme
վ
[unused783]
peruvian
demonstrating
deutschland
nostalgia
mocked
weak
moves
torpedo
[unused643]
leopold
shuffle
##zy
##saka
arsenal
perrin
trident
beam
aristocratic
dubois
[unused651]
shen
##grapher
[unused21]
manuel
tight
jerked
breakthrough
humanitarian
holder
assign
symbols
##ා
centered
chevrolet
magnificent
##tom
deprivation
riley
anonymous
stanford
##aint
panted
rodents
nonprofit
heated
##ia
infrared
lan
sentenced
bees
ᄂ
[unused555]
pumpkin
##grants
mandy
diffuse
meaningless
unification
governing
wince
##广
##ris
stephenson
2a
swindon
cedric
jae
matthew
selects
bankers
hysteria
##rogate
suspects
##瀬
pictures
##kor
[unused903]
dirk
qatar
unlocked
absorb
caesar
cobalt
pants
##uno
##rso
##wala
factor
archipelago
swift
1932
hermann
##dro
cuff
ₖ
negatively
##bino
[unused728]
c2
starters
##ণ
also
contexts
##kin
protesting
elusive
sable
moth
aim
cup
tbs
afghanistan
once
edison
marion
153
ⁿ
francaise
[unused622]
volumes
##ai
clears
sudanese
intellectual
[unused804]
interface
adjustable
sw
unfolded
ง
prem
ball
denominations
outdoors
rupert
olive
buffalo
engages
nanjing
##ra
##pop
fabulous
dex
##扌
maine
struck
landmark
##utable
potentially
##ooping
although
funded
crypt
##tv
deny
##‒
##water
eat
gunmen
unprecedented
traveling
missionary
distances
##tler
cuba
disconnected
brad
heart
molly
down
unix
screenings
[unused731]
##zd
failures
propeller
##ired
seduce
blame
sync
gardiner
distance
operative
chestnut
astor
pouch
projective
pointing
bestseller
rachel
duchy
counselor
ferrara
##oche
##rily
darkly
##ructured
258
[unused200]
axe
cyrillic
engraving
assemblies
##rar
flown
fours
livingston
mori
musician
nacional
recognized
jimi
confidential
[unused733]
churning
peach
##』
mustafa
md
##anal
vaulted
postwar
弘
ecology
##lace
coefficients
nm
exhibits
[unused57]
bulging
glenn
hasan
curriculum
loyalist
maison
organist
showdown
cinder
bowing
##titled
glover
omaha
##巿
curtiss
ireland
handkerchief
observed
ف
[unused899]
dominant
adjective
confess
batted
understanding
2001
enhance
handed
julian
methodology
team
bothered
broncos
village
pinning
##sum
emperor
##abas
1820s
##gard
dub
intro
##oed
##onia
candidacy
lisbon
prosperity
magic
worms
regret
2003
somewhat
japanese
suspected
travel
1859
condemning
##logram
jess
[unused853]
[unused838]
functioning
bolivar
polite
[unused480]
##gnan
physicians
ballard
dismiss
kuwait
34th
##♥
expressive
##app
biochemistry
mug
##yi
refurbished
renewed
inflated
chinese
update
bodyguard
branching
pauses
ゆ
audition
1885
downstairs
inscribed
##cens
interaction
vikings
1839
[unused785]
##itation
bragg
hector
##86
##jack
grotesque
proper
ɣ
##ins
##kins
unsuccessfully
fellowship
dark
uss
haute
independently
quoted
showcases
nationalities
##de
kiel
agreed
meta
##week
##rdi
charlie
jurisdiction
untitled
##wara
##ulator
lucky
wildly
bangladesh
rational
wurttemberg
##rum
reynolds
antennae
signals
calder
colourful
合
##ieu
johanna
##ᅢ
scotland
principals
fuss
moose
rotterdam
gunn
##ovich
pleistocene
astros
dread
unavailable
##jean
##ny
##bit
prominence
defendants
##ides
serie
credibility
##ault
little
##ハ
implements
acceptable
everywhere
tires
ট
##bruck
##win
volta
##ibility
possible
chow
bent
allegedly
##²
turbulence
##rc
##iad
justification
##oga
excuses
businessmen
flanks
announcements
##rm
##ね
খ
northward
conservatives
thoughtfully
knows
hangar
##ᵉ
guangzhou
##ort
baseline
talon
1950s
hackett
##rer
##ym
axis
listen
traitor
catchment
viola
agent
ono
48
##ᵤ
resort
francesco
socialist
tribute
halfway
sudbury
##hita
invading
layla
restoration
sincerity
##bee
kristina
375
pantheon
literacy
impacts
##org
[unused514]
grain
hoffman
forward
##iology
minerva
##arts
pills
[unused746]
[unused202]
medallist
freeman
##jure
handheld
putnam
musicians
##film
exeter
##hausen
##thesis
php
saddle
invention
##orro
##／
sediment
oneself
moon
assertion
dip
##事
decay
waterloo
##sty
shutter
sociology
licensing
electric
alias
lower
programmes
scientific
saharan
ð
##table
computed
##kken
creeping
&
jurisdictions
##cytes
##₤
abundant
peer
vanguard
forgiveness
##eux
##quin
[unused331]
fernandez
bites
interception
[unused1]
delicate
farrell
morales
heal
士
francesca
##ssee
lieu
whilst
ɨ
scare
##sari
hat
draining
stall
##rud
cared
rosemary
[unused240]
chopin
pontiac
##ッ
wiring
breakup
mentioning
holloway
petersburg
chronology
handbook
##chus
buildings
nile
dental
##ann
fide
technician
##ed
tequila
demonstrates
nottinghamshire
emil
##esses
beta
alignment
drama
burned
flutter
tel
##horpe
ط
manufacturers
##arty
bottles
density
bland
convenient
crimean
drinks
meaningful
prep
edmund
electrode
macon
⁵
primitive
##breaker
##oin
specialization
centuries
generates
hepatitis
##smo
accomplishments
delgado
indicted
##yoshi
stephan
underway
doherty
unionist
ideals
mattered
upright
removes
59
loss
1893
maximus
گ
charcoal
十
straightforward
##wald
centimeters
component
falkland
lives
##ision
##strel
[unused830]
efforts
democratic
bitch
no
slump
ト
aluminium
##vi
183
marian
pregnant
startup
subsp
handsome
caledonia
labeled
dhabi
radios
until
##iman
apparently
fishery
obstacles
eastward
##ers
disappointed
dividing
dt
costume
intensified
bianca
223
coroner
##sitor
warden
gang
abbey
loaded
flushing
battalion
egypt
microscope
replaces
thirst
waking
authoritarian
torch
summarized
bolivian
mara
kendall
corporal
residential
治
condoms
locus
taboo
cushion
pandit
##rling
[unused218]
colonies
recounts
executives
mediterranean
expansive
spores
##ized
convictions
drainage
landowners
luigi
©
##over
fearing
outing
##rcle
bot
camel
reception
submission
brackets
bro
##し
##on
eagle
exhaled
achilles
##nb
siam
flying
henry
helium
elephants
weakening
cowboy
brendan
mystery
awful
##aks
[unused492]
##lux
mohammed
recommendation
reaches
wb
vol
humiliating
strewn
route
##☆
puts
baronetcy
sexes
##arm
finances
forget
abdul
##fm
kit
liberals
keystone
shadow
##iest
143
insert
referees
cents
[unused787]
ice
##iers
labyrinth
compatibility
##龍
sleepy
##heim
louis
vaughan
consort
##lt
ammunition
##sea
three
zebra
##镇
##tile
cerambycidae
distinctions
security
##can
gibraltar
coco
filmed
shifts
squared
wholly
kenya
consideration
several
refuses
samsung
fritz
oilers
##ბ
clandestine
[unused663]
knives
legendary
##yam
##verse
engraved
fruit
generals
software
redesignated
documentaries
remind
mandela
accommodate
б
dairy
philippines
appropriate
corps
[unused274]
##inger
[unused683]
docking
##frame
mentions
nearly
morally
##des
mute
solution
rees
f
1937
217
skill
taller
##zed
bribery
repaired
merton
backdrop
scully
definition
shipping
different
##tish
unicorn
sad
illustrates
olds
taxi
terraces
cornish
blanket
##rial
comprises
navajo
guided
reviewers
nakamura
punishment
reporters
sufi
protect
langdon
commodore
##rta
batting
##ates
##ⱼ
deliver
point
stroked
giro
vanish
herzegovina
##sion
##thic
ka
busiest
electronically
wr
189
[unused395]
fined
jay
manuscript
stunts
feed
attend
ʋ
°f
##sr
28th
assumptions
treason
professionally
downed
lobes
∈
##rites
centralized
vogue
humor
efficacy
⁹
waterfall
newscasts
acc
1992
eaton
accountants
[unused286]
kai
scrape
excused
##ava
shaun
galileo
bk
macau
ca
yards
landmarks
tormented
##باد
norm
##て
stammered
##zhi
##uation
##tate
samantha
protector
petite
##iel
stabbed
saga
toxin
shelters
up
shield
grace
mare
holster
worcester
drug
ling
buried
deployment
attacks
boats
lifestyle
##pers
##horse
##fort
career
bay
outset
##izer
[unused977]
fluent
spanning
bulgarian
ernesto
traded
unexpected
[unused670]
robertson
1838
beneath
jurgen
macleod
π
lou
##port
fitz
mariners
．
##kari
infinitely
cal
treasure
##ssa
beatles
memory
##ght
1682
celebrated
ke
##gu
wilkins
milling
deploy
ions
optimization
##eem
fucking
horsepower
##cian
dispersed
tram
silk
leon
##⁄₄
laugh
##iko
receive
seaman
astronaut
mounting
##tones
ک
admire
backing
sulfur
libraries
##pres
buyer
consolidate
carpenter
intersections
1870s
##lm
tough
organize
derby
marine
cordoba
inland
advertised
uci
benefited
realistic
shrines
enjoyable
ali
unpredictable
60
1761
[unused569]
##bolt
unofficially
refurbishment
officially
sequences
か
##₱
##jun
orchestrated
kochi
nowhere
noble
driven
banker
honestly
cake
vomit
partnered
##dent
##gan
ʸ
⇒
goethe
appreciate
frantic
ว
bankrupt
libby
ч
client
po
tex
##os
dna
##ador
##cious
##uf
fled
mccormick
rendezvous
ambiguous
dew
cbc
carlos
acted
1929
compromised
uganda
firing
bodily
##tp
biceps
pony
pearls
cappella
gaston
actually
98
chung
mode
berlin
confession
superseded
holds
thinkers
ং
communism
farther
throbbing
[unused255]
堂
exhibition
degradation
ingram
##dia
millionaire
physician
run
thirty
##&
autobiography
hu
covered
databases
sutra
louder
sore
##mission
pipeline
[unused320]
retreat
信
##ungen
288
2019
pedersen
##eber
give
nashville
##inge
sucked
##manship
erection
viewer
angry
tandem
gerhard
##folia
defiant
##itzer
##ware
[unused926]
misunderstood
1754
corbin
stupid
##ง
zulu
##itive
northampton
requests
##nium
appointments
rises
orders
ם
##ials
grasping
revision
sexually
cassandra
jayne
[unused289]
##llar
aston
cultivated
430
dia
culture
##orus
30
towels
consciously
99
ville
northernmost
downloads
jingle
regarded
poked
peabody
ike
alberto
##ahl
##ej
clapton
distract
crippled
horizontal
##夫
1695
babies
petitioned
resign
##cide
1980
collaborators
volvo
##hab
authorised
##ind
##ories
chopra
egg
fortune
quan
##loe
##jali
copper
forbid
##pressed
selected
rolled
whose
07
##yt
ram
costing
##神
##gin
definitely
arrests
dried
slammed
石
weekly
react
orr
##rid
##դ
draught
sous
titanic
fort
208
1892
immigrant
[unused943]
lavender
##aka
judah
quota
方
vertigo
##lating
[unused952]
1835
branding
powered
minutes
##orescence
##ost
gotten
##bin
308
chairman
sur
salim
willem
pitch
stil
derivative
villagers
american
supported
##hg
comedian
tommy
traverse
captivity
skepticism
##llon
certificates
##icate
##ट
##ア
wine
##ads
alteration
come
simultaneous
waterford
brazilian
implemented
cartel
##physics
##urt
collegiate
##ques
implications
resembling
standards
visual
mathew
##bb
[unused201]
consciousness
pushed
mammalian
antennas
[unused834]
murdoch
##lino
hs
##т
lennon
orbits
sounds
ghostly
deed
##ष
1949
astonished
fool
##ₐ
[unused967]
chiefly
##ᵗ
galloway
grins
organ
ʀ
##hur
歌
##yme
263
##ʔ
moritz
tournaments
nursery
south
superstructure
panties
##ffie
##ishment
lest
expressing
[unused385]
##torm
clinical
instant
##mona
blasting
improving
kara
flag
durga
bates
mg
adrenaline
territorial
choking
1629
independence
ja
ahmedabad
amounts
coop
brighton
##ivism
earnings
lodging
pantry
monsieur
alloy
layer
[unused357]
firstly
##sie
mundane
ambrose
report
sentai
yank
##∪
##otic
canvas
mukherjee
##rman
diocesan
recipes
consonant
sharp
fame
focusing
underwent
casinos
llc
##bir
##emy
consequences
sweden
##amps
grandfather
##nesian
hiram
1611
##ling
whistle
photography
ahmad
sussex
advisers
doc
sack
mesopotamia
blu
boyfriend
creativity
dreams
hear
crisp
gillian
sunni
dodged
investigating
kidney
1803
1624
truce
trailing
productions
music
buzzing
nepali
hygiene
chewing
congregations
sharply
inhibition
toppled
##zziness
examinations
1989
philippine
toilets
differentiate
##lly
surrender
famed
bowl
june
virtually
african
therapist
oath
mountain
clearer
decorate
administrations
lord
anxiously
pastry
devote
##rak
artemis
charities
stem
commented
conquered
##dha
##gree
anything
1917
sadler
invertebrates
ambassadors
##dev
abyss
protestant
royalties
##inas
wakefield
masovian
interlude
governorate
##fell
sao
models
sentencing
fein
expenditures
nunez
##nd
##º
sep
##onte
##rwin
ina
##cent
westminster
plain
##gles
##dda
##石
decomposition
##ect
privilege
widening
sensual
##ས
sooner
whiskey
##ement
##か
##uring
arms
cushions
##ᄂ
freeing
realises
achieving
protein
thighs
casket
jonah
pulled
relief
ontario
entities
##sko
round
##mute
criticized
disks
##cot
asshole
##zong
hollywood
maddie
##cey
[unused720]
stockport
della
##raction
##nik
ala
christi
##eve
concerned
migratory
nationally
exhibited
lanka
blended
nightclub
##vers
eds
intention
blank
[unused904]
vessels
objection
cocked
hampered
ra
publications
momentary
weapons
bf
swore
ま
powers
spaceship
##walker
bitten
larson
##nova
joints
minh
##pr
##忠
initiatives
res
milky
persecution
grenade
jockey
having
##chev
samples
##lls
shall
thanksgiving
coupling
convex
vanessa
##sy
##it
##liness
masters
shallow
before
secured
involuntary
trembled
[unused937]
terrific
lil
slabs
##↑
stood
compiled
355
##yre
fold
##45
wrestlers
piers
pointless
closely
sam
profits
dartmouth
o
##ns
dialect
hose
huff
葉
##ares
shrugged
##we
restraint
26
barnes
boardwalk
inactive
tran
awoke
[unused485]
pee
belmont
etienne
##ading
brooks
activists
bribe
ze
1600
push
##tum
boroughs
delays
stellar
##aking
creamy
jubilee
##elia
spikes
sir
austria
hated
swayed
kenneth
pressed
##iya
bahia
operations
electricity
spanned
adolf
builder
##rao
##十
clapping
##vd
corruption
##sant
forests
ipod
join
sailing
scars
shirts
warren
beaches
prc
shankar
##hardt
yeomanry
##atter
262
snapped
eritrea
##ان
##出
insurrection
playstation
domenico
correctly
dictated
lear
suppression
lisa
displacement
module
79
admission
bending
signatures
tangle
dixon
happening
mallory
conditions
shown
toast
hey
ch
hindi
520
cardiovascular
utilizing
bolton
zoe
##ddling
crescent
北
##shaw
°c
##tify
gasps
disappearance
##tated
eddie
[unused648]
rica
receptionist
quality
##viere
nedra
valuation
272
rigged
temperature
[unused860]
##lson
##ential
##room
gain
hugging
317
[unused361]
christina
lays
sails
miocene
insisted
lethal
muir
sales
##rchy
wraps
craig
##wide
allmusic
genie
promotions
smug
ས
catherine
utility
[unused781]
messed
立
[SEP]
contracting
turquoise
absorption
abbott
plane
exported
hovering
https
##mit
season
eye
juliana
[unused863]
##now
stretch
providing
stain
łodz
blanchard
recent
lifting
ph
ravine
branded
cree
motorcycles
tho
invisible
[unused436]
couples
wedge
snorted
special
alvarez
admiring
emptied
albuquerque
appointed
##cision
sustain
##therapy
##ʾ
[unused460]
amend
embodied
parole
blocks
cluster
werner
fatalities
aura
##any
mons
odi
naive
repeats
coldly
kitty
brows
depend
silesian
pratt
limo
cups
growling
les
intimately
registration
suddenly
frowned
nationality
nervous
dammit
casablanca
dq
yet
encryption
binding
##tained
arise
い
##mans
##pm
widen
##ylus
thessaloniki
vast
keep
bae
sonic
380
##jana
thread
reviewed
industries
furrowed
thom
booked
##din
ops
unpopular
caldwell
leung
156
conspiracy
philip
hoc
ign
sentences
ethernet
visas
europe
lens
mp
headlining
honorable
vent
vertex
clustered
algeria
proportions
hosts
##│
cayman
collaboration
[unused450]
image
amateur
blessings
[unused665]
tides
bolts
modes
ascended
replaced
connections
alarm
ホ
apart
concluded
228
propellers
viruses
##ught
hiatus
1942
##tius
contractors
##missive
334
enclave
inadvertently
palestinians
supplemented
unbeaten
tnt
expect
mein
##uro
order
microwave
filling
accepted
##physical
##rian
yellow
movie
fail
[unused155]
##ges
##秋
directions
address
perpetrators
shea
bmg
producer
layton
oblivious
sailors
rowing
cum
₄
christopher
rabbits
lions
painters
extracts
##メ
victims
adams
heidi
stu
hurricane
##amo
documenting
##rred
presenting
##kon
##plify
brock
indira
pavement
carriages
xu
##am
wellesley
boarding
##tium
rebecca
##enity
##eger
[unused468]
rudolf
##lum
snapping
interrogation
magnitude
colon
capped
dancing
always
unemployment
hymns
1796
gap
##ears
companies
##rd
crunch
openly
vase
ye
eyre
1999
daniels
ui
##ested
regan
beethoven
nicky
tampa
##ᄉ
extensive
bun
items
ぬ
##yah
depictions
##ya
bulbs
perched
##owed
detainees
knock
pressured
raises
synthesizer
insufficient
##ℝ
controlling
##₃
drawing
ufc
µ
##bah
harold
imagine
stabbing
kinship
truman
regents
robinson
trey
##nism
##t
broadway
said
jolt
transmitting
##32
abstracts
##پ
assortment
##cco
compensated
ʎ
##anu
cooling
grill
87
##nob
concurrency
refined
tubular
nightmare
##rsk
pairing
offers
ballads
##cellular
vans
children
looked
scrambling
underworld
hokkaido
indicating
bohemia
grabbed
interview
slot
wars
salvage
breaks
[unused759]
lieutenant
50
##aan
[unused340]
heaviest
[unused884]
reeve
lift
rediscovered
clinging
[unused707]
##rigues
318
rapper
healthy
##tour
kitchen
stillness
breakers
alarms
eps
limitation
##bbing
##fleet
cow
prominent
senegal
member
unrest
##lga
mohan
sloop
127
tenderly
ash
offering
ტ
agriculture
separation
tags
western
hahn
chicago
##bling
##oza
##ounded
mistaken
agrees
tends
resource
biker
jennie
chill
legitimate
[unused757]
##в
volley
sabrina
fallen
[unused420]
##bilities
violated
[unused709]
##ז
##گ
[unused921]
##achi
suez
wc
leftist
terrestrial
minogue
racism
delegate
positioning
esteem
random
##dy
algerian
blogger
urgency
herds
freighter
##iani
##ह
##yte
reviews
##osition
[unused65]
##chu
historically
phenomena
setup
congresses
candles
ignore
provincial
[unused63]
clung
verified
addison
[unused208]
begin
norway
nuclear
soft
د
##ug
napier
schumacher
##ong
nursing
神
[unused453]
distribution
lashes
further
passenger
fingerprints
imperialism
##র
yo
1580
salem
noctuidae
madly
similarities
syrup
[unused68]
##reate
य
prehistoric
liv
violate
##wice
[unused596]
pension
##zos
eyeing
deficiency
vocalists
spoil
connects
hayden
nerves
bushes
repeatedly
becomes
221
morrow
##nington
##vered
collins
sumner
revealed
hideous
pond
abduction
archaeology
gymnastics
##ipes
oven
stuff
structured
##mut
calcutta
equity
muzzle
merrill
sting
corresponding
elliptic
exploding
wil
##せ
reasonably
soluble
surveyor
animated
loved
240
cheltenham
##ո
##nen
##ack
##tively
##bos
##พ
semiconductor
cornwall
hodge
##isa
research
effects
statistics
constructing
ballistic
##yas
brethren
vp
functionality
freiburg
never
very
##ili
pontifical
basque
munster
leaves
##ulation
tales
unfamiliar
breeze
coverage
milestone
mammoth
evenings
surfing
##bid
europeans
grassland
upset
bunch
npr
slumped
spurs
batteries
##shu
sabotage
poisonous
pounding
source
##yen
roofs
conquer
1622
##castle
ク
points
sets
expressed
heinz
##ᅪ
南
translated
known
seminal
arbor
seats
visited
##istle
exits
##ٹ
raining
soloist
ン
internacional
orion
##pies
packages
belly
oregon
loretta
outlines
lds
cook
orioles
lily
mahmoud
buff
##尚
hour
[unused694]
##nsis
jumped
stats
##dong
##ki
ted
[unused138]
archives
pearce
connect
twice
graphical
damages
っ
##।
[unused332]
##inski
##tag
hidden
rarely
bracing
leather
spanish
deity
unauthorized
##lkirk
vault
burnham
compositions
unnamed
standardized
earthly
challenging
barges
fontaine
[unused196]
oman
##pus
axial
dump
999
resembles
renewable
symmetry
ω
##fs
##rza
sloan
##ku
old
ml
teams
exemption
brittle
##dance
##hl
commonly
corona
fighting
1765
processed
gilbert
[unused774]
suppress
##drik
##onic
diner
prowess
traversed
predators
##ise
vivian
loser
discus
strangers
impress
##lian
[unused52]
buttons
##auer
##ication
cara
##gre
tay
impaired
##我
[unused309]
assured
pinyin
panther
##lf
decks
duval
trades
lough
vernacular
worry
wow
adjoining
frogs
nasal
full
##fully
somerset
mounts
leaks
comics
disappearing
baku
##eran
explanations
passion
devi
accommodations
##37
concerning
##世
tuition
##っ
jones
##仮
1200
##ʀ
310
[unused880]
exhibit
##´s
bane
##hila
foo
lore
reads
pearson
pools
postseason
##ogenic
##ular
##umber
romanized
##nine
ventura
whimpered
supervise
polo
apr
##yx
70
advisory
erasmus
homosexual
owned
##jit
eki
martinique
slaughter
garment
basilica
credited
survivors
bone
melee
inverted
##ppel
##wo
samuel
starr
emi
##ice
condemn
pamphlets
[unused878]
had
כ
tremor
joanne
harpsichord
basalt
mac
##thes
curls
renovation
##eman
densely
spectroscopy
##ষ
tibetan
##loid
##wicz
##efe
transitions
divisional
feb
##ene
##cise
950
sustainability
322
valentine
##¾
echoes
##dham
##〜
ottawa
penelope
加
richie
2014
##ⁱ
skyscraper
roman
domingo
suspicion
##hood
simulcast
##vish
phi
conform
meeting
toyota
wavelength
##miya
lim
gothic
yankee
##ctic
##bright
rushed
1977
ी
disrupt
jaguar
##chfield
attended
[unused808]
breeders
##rled
amazingly
##dier
##aja
##ecure
almeida
upward
folder
gerais
northeastern
bitterly
cancel
convent
gunther
yeah
boxed
ת
##g
jurist
reasoning
[unused568]
vols
assisting
ferguson
voyage
##gam
sidekick
paradise
##dates
##kra
##taking
carson
contender
beloved
fleets
depart
bitter
##vara
ٹ
ζ
alternatively
##zzy
1970
clip
ara
supporter
snarled
twinned
[unused380]
mural
rot
188
feudal
imp
available
relevance
descent
##ere
##ika
gel
mentally
canning
adapt
isolate
##ment
festivities
holdings
395
##his
divine
##ely
josiah
savoy
ventures
struggling
guilty
reporter
##ish
words
rake
debuting
tempered
##mbo
infrastructure
ᵣ
guerra
markets
statistical
nice
week
intimacy
governmental
##tar
regretted
spit
seizure
smirked
ezekiel
strained
sundance
sesame
bonded
preparing
soda
emirates
deliberate
processing
ʐ
46th
allergic
##sin
commanding
whitehall
instrumental
unlike
them
mass
[unused685]
debated
enables
piss
sprayed
nicolas
development
psychologists
shreveport
status
dobson
convicted
conglomerate
principles
discusses
roadway
cornice
‿
emphasis
woman
fir
steadily
parramatta
decrease
stance
##ham
michele
##@
1794
hanging
vertically
detachments
[unused652]
eisenhower
flat
kid
##16
refining
physiology
crashed
wants
standardization
detected
boil
##6th
bankruptcy
[unused241]
12
##4
thyroid
##lage
amelie
sigismund
chromosomes
twenty
add
[unused576]
##umi
lopez
##wari
goldman
wrinkled
crested
maize
##graph
lexington
resigning
##udi
ħ
authentication
gmina
##ף
ridley
acacia
board
saetan
##ま
flinders
lamb
amendments
##ɣ
withdraw
ʌ
afternoons
maui
standing
##ო
mingled
##vances
office
sunshine
smashed
brenda
stunt
stands
[unused734]
##sg
parts
stacked
completes
[unused404]
effective
1923
yield
burkina
1875
raoul
hampshire
pornographic
unearthed
mental
calling
circulated
revolutions
sentiments
enhanced
[unused563]
charred
critic
progressive
eruption
zion
beaver
geologist
##iec
contaminated
actresses
feels
taylor
[unused805]
mps
##mu
##≈
dimly
drawers
chateau
bad
ewing
scenery
economics
pow
serbs
dumb
wai
ferocious
##hir
tap
judd
##ws
postdoctoral
sim
[unused20]
petty
##─
kite
followed
forgiven
##kley
younger
##え
deadline
pun
centro
bc
steele
curving
##г
vector
citing
practiced
##isance
##〉
homework
potassium
##eries
##cek
stud
172
lighting
parameter
roller
##gne
##athy
##entes
utterly
identifying
correspondent
consecutive
unrelated
reverend
town
##ˢ
liar
##wa
gunslinger
[unused987]
tour
inline
fluorescent
##cute
1822
ramirez
pets
##rill
exact
ochreous
luca
species
animals
asset
possesses
clube
imposed
coa
badges
wwii
cameron
##pher
turin
manually
##nai
stryker
witnessing
slip
##smith
tactic
##hetic
##弘
seeded
ursula
aisle
knighted
##.
emerson
lydia
neutral
aegean
1774
placed
##bird
daphne
wembley
##nne
telecast
whore
##free
deal
##lese
misses
nigeria
rodriguez
receptors
sykes
louie
editing
monsoon
step
temeraire
separated
pagan
##haw
genesis
shiver
criticism
senate
##bham
automobiles
70th
fingernails
healthcare
elsewhere
searching
carbonate
granddaughter
switched
parana
greta
radio
##′
-
butter
##ela
decorations
fallout
uncle
hum
и
1920s
craters
##ostal
##usa
##rov
mediation
patriots
learn
##mata
stays
hon
##bians
torpedoes
1921
lids
tentatively
##介
uptown
walkover
blocking
[unused171]
jeanne
##brook
lobby
riches
thornton
eliminated
sal
oriental
manor
##70
##unk
dismounted
compact
.
accents
internal
##lation
corinne
conserved
sui
##vat
49
traits
apply
armament
stiffened
##gil
booth
eliot
times
submarines
##rified
biennale
documents
inferno
##fixed
notoriety
ף
##vable
merits
##rrier
##mur
intervening
cement
expeditions
neighbours
judges
clenched
artery
electron
carmel
##⁵
square
paired
shaft
taxes
accidentally
tents
##personal
[unused147]
##aged
pleasures
##堂
vertebrae
事
deutsche
zane
conventions
freshwater
silhouette
swam
width
legend
contamination
football
##ones
harta
entertaining
1560
sultan
levels
senses
secret
®
cole
bang
gasped
promotional
##eni
correlated
start
magical
勝
nazis
##cino
[unused959]
resignation
liam
dolphins
##fl
remastered
parameters
defining
favorite
blogs
##vington
nelly
reacher
shi
ᵇ
ᵍ
linger
aerospace
required
441
bath
##འ
ウ
##cel
[unused321]
quran
slack
##fen
crete
##oop
sub
curled
swim
##icated
##¼
brotherhood
insertion
biomass
##tas
confines
darting
gears
[unused107]
ken
##nza
bloom
##代
godfather
tailed
##ano
##hammer
##alo
antoine
rouen
phyllis
negotiating
##ignment
[unused914]
hindus
##mist
##ys
yiddish
##nath
bollywood
danish
earnest
##inian
ك
spark
discover
quarterfinal
geometridae
guarantee
browning
strategic
finish
kate
burroughs
differences
schwarz
##沢
evolutionary
goin
##nder
salute
slide
possessed
stint
connected
granny
freeway
knowledge
ragged
strikes
##ე
anthropological
widely
torre
consistency
##udge
clerks
ق
##ow
andes
##པ
clearing
18th
spitfire
dough
shipments
ס
flies
[unused53]
strauss
ratified
##ら
memorable
##kura
niche
uniquely
530
##berto
surrounds
##less
warlock
circled
anatomy
epithet
##鈴
hillside
poke
##sc
collectively
訁
punch
##nus
currency
budapest
dod
memorials
##nate
reilly
[unused301]
##ɲ
denim
upton
##isse
monstrous
reapers
kata
strike
progression
##cia
[unused590]
noir
project
romero
##xon
sounded
##una
penguin
[unused481]
##ם
##fp
spectral
slick
extras
televised
##iv
##screen
barrett
##un
[unused120]
boilers
carol
swapped
abdomen
newfound
machine
##cured
##ade
[unused411]
disgust
elected
beth
lexi
##hai
columbus
##the
faltered
ventral
yawned
##ater
evenly
34
##ifying
blew
##owski
surprising
1853
##ctable
chili
namibia
anhalt
geographically
roy
andrews
narrator
##grad
##lmer
asiatic
sera
##deck
sash
sweets
##lass
yugoslavia
##finder
[unused217]
##ves
creeks
exactly
umm
directory
redevelopment
rochelle
occurred
##tyle
д
magnum
italians
switch
flicked
bring
debuted
produces
##grate
aria
smoothed
##wire
iceland
##edging
1829
triumphant
signature
1725
tonga
premio
honey
[unused352]
fluffy
##berry
fiction
polk
portrayal
##game
smiley
##rissa
exploited
[unused607]
encircled
guild
れ
bathrooms
bridges
shay
amara
auf
[unused726]
crystal
flew
proved
outline
[unused148]
##dley
rooster
##gement
vita
procedural
##pton
##illon
broader
##ach
periodically
marlins
minded
quartermaster
rocket
growls
1930s
teller
surprises
managed
rifle
fear
dorothea
331
digit
monica
makes
##write
strata
por
radius
jews
##form
hardwood
debating
census
scorpion
bipolar
signing
##*
417
##aq
painfully
polled
seizing
nope
preacher
immortals
[unused228]
##·
nero
##going
noises
properly
jealousy
ensure
demon
kindly
acquired
##ols
##佐
##sville
unaware
believers
redemption
math
vernon
pleased
བ
heath
ג
tea
arrows
linebacker
lyndon
##mes
ligament
¬
ghost
bends
##rzburg
##using
frankish
[unused327]
##tty
stainless
uphold
thump
stepmother
honor
solved
amalgamated
practitioner
dukes
frigates
rutgers
saxony
masjid
pursuing
ب
behavior
>
highly
##rence
electro
outfit
substitution
marxist
##ographic
##pa
alan
belief
elders
##ille
aren
##kers
bugs
prayed
##⁶
newsweek
asahi
spur
locker
miniatures
weekday
criticizing
[unused572]
fluctuations
studied
tasks
kg
margin
shadowed
##ctor
unofficial
sophisticated
103
closure
sharma
stray
waltz
entirely
attendants
efficient
offence
1985
magma
metal
mint
transformers
clinton
##lean
thank
aero
eternal
nintendo
jesus
awe
[unused396]
##atal
inwardly
imported
credit
contracts
[unused595]
feast
witnessed
sense
mist
facade
[unused814]
phrase
ignorance
gems
wrought
susceptible
##get
stakeholders
bud
##、
strict
constitution
hicks
entrusted
ganga
##oris
##le
ষ
galactic
knob
sylvie
guillermo
##cio
projection
##bra
ں
curved
lombardy
uncommon
##三
##partisan
nuns
sweeping
tracts
commemoration
receiver
otto
mage
hyde
##arat
reactor
gland
chen
■
stale
sizable
##p
explored
respective
bikes
##wana
[unused204]
consulted
tinted
司
jury
[unused927]
plaid
buckled
predominantly
cheerful
schultz
reputation
##nden
##葉
fielder
忄
lineage
paper
ბ
##ocation
variance
fortunately
ir
cale
##hora
##ล
¶
total
##tley
1767
promoting
dealers
[unused174]
##aer
moment
ordination
##eka
vary
monmouth
harmonic
introducing
randolph
##uz
[unused614]
ford
##ntation
smaller
[unused184]
strode
grazing
complexion
mont
forceful
kashmir
##見
##ka
figures
theory
shifter
conrad
##listic
professionals
taxonomy
legends
martin
ripped
vietnam
mcintosh
##ita
[unused471]
regulations
schools
##loading
smarter
favored
##lles
clay
401
hutton
chi
betty
glances
noses
benny
centimetres
sloane
shaded
##lus
garner
gesturing
[unused541]
49th
page
erratic
pays
##idi
broadcasts
rank
medications
ethan
performed
genre
##也
##sher
##oning
duff
memphis
##श
objectives
seduction
beatrice
alta
basics
coronation
grant
[unused762]
opened
inducing
##ration
patron
barrage
##erman
nationwide
collapses
beard
curtain
locate
signaled
uh
glorious
[unused812]
##ndon
##shot
wong
mona
throat
##etic
shear
##asian
texted
advise
imaginative
320
klaus
censorship
becker
charismatic
comparable
lash
doubt
reducing
regards
county
##⅔
simi
butler
undergoes
instinctively
[unused383]
trying
[unused434]
leto
を
[unused3]
ottoman
##x
permit
thief
##caster
199
〉
kaitlyn
credentials
rescue
slash
alto
guarding
madison
plural
celebrating
jax
looming
##vsky
offer
prevents
remorse
songwriting
tempest
zimmerman
##ser
duel
glossy
returned
knowing
faced
journalism
[unused105]
tracker
##qi
squirrel
modify
##ror
edition
27th
connecting
##¬
##mx
##ners
##ena
##‑
claimed
tucking
ɒ
##mb
##rent
intelligent
examining
internship
sachs
£3
flexibility
##uw
mistakenly
##城
ricardo
##lich
##ラ
75
tucson
delay
disguised
madhya
bmw
titus
bunker
indoors
third
##ible
unesco
syriac
dazzling
##tens
piercing
rights
matthias
theology
windsor
mauritius
rated
hid
##tner
governed
adapting
barney
transform
dots
regrets
mostly
##ical
satin
manufactures
disclosed
survive
mcdonald
prepare
##tet
ae
[unused882]
eng
blockade
disease
rockefeller
##tro
skipped
figurative
##tized
autonomy
alfonso
template
fatally
menace
rita
bacterial
bray
fragrance
precedence
uncomfortable
liquor
0
bryn
navigate
mouthful
##白
mickey
property
entrances
[unused30]
clue
associations
insulted
nearing
skies
##bate
##brates
basement
qin
##mail
preserves
bulldogs
dino
##sson
worse
##bey
plume
settlement
distributor
tools
chiefs
cy
parma
##qui
aroma
##bert
##igate
##pheus
mahal
シ
road
##nosis
mated
##ures
morale
[unused913]
diplomat
welcomed
“
fiat
opening
courage
bailey
diver
##iation
secretly
♭
[unused416]
##oz
box
stayed
enough
fracture
##б
divided
revealing
romantic
42
frazier
##ᅮ
indochina
obstruction
ة
[unused552]
proves
headlights
##evic
upbringing
451
demolition
[unused504]
##將
##phy
[unused714]
[unused73]
goodbye
wave
secretary
##endez
##lver
##hdi
called
1689
[unused458]
diary
archie
##ntal
closed
巿
womb
conviction
crashing
farewell
regis
clockwise
vikram
juventus
マ
##tiv
##uti
dismissed
##व
quarry
##pkins
sidewalks
socio
[unused588]
##und
থ
dj
suburbs
piles
repay
##vina
hinduism
##uc
lashed
threatening
##1
construction
posture
type
क
lighter
searched
problematic
twenties
sparhawk
shaw
##tical
abigail
brood
northumberland
owning
divinity
studio
2018
duran
about
す
word
gem
sealing
##pal
56th
calendar
delilah
##cate
verlag
harden
dome
instrumentation
unanimous
peninsula
lots
##nya
christophe
gorilla
cc
ked
seldom
theorist
turkey
stages
##lten
vibe
contribution
thy
42nd
##orin
chattanooga
bicycles
##ye
huh
dozen
choreographed
slayer
liable
for
floppy
##buro
pulsed
230
barton
ruled
wonderland
means
foundation
pillow
cities
ba
establishes
pri
ao
[unused423]
bela
flawed
##town
corporation
downing
collaborative
footed
bois
mar
[unused528]
arguing
kill
two
##tov
exited
11th
characteristics
resolutions
starred
ₑ
街
guatemala
##帝
##ane
colloquially
meteorological
ordeal
tonic
severely
shrill
refused
complexity
angels
birth
##ico
##se
##rgos
nova
512
drop
cream
extraction
[unused510]
##ating
serena
##ox
oh
coloured
silvia
mole
##cker
ᅮ
wanting
⁄
[unused885]
limestone
##udence
benefactor
garth
##git
##ย
gills
dance
spot
wanted
##禾
##宗
##ই
passageway
##cards
anatomical
shared
soared
}
fancy
muscles
wesleyan
##arians
migrate
##iful
findings
bombay
bradford
sniffed
bundesliga
jumper
empire
uc
##nier
##trip
evidently
##я
##tead
[MASK]
luis
paragraph
caden
obscured
##ζ
redesigned
clinic
ts
##tao
pub
katherine
guise
leigh
belarus
ma
##oton
##graphic
retiring
explosive
##hil
biographies
gigantic
173
regardless
ins
82
hauling
##wen
sands
gill
privatization
nwa
enhancement
hospitality
[unused267]
on
##yin
flemish
highest
vaughn
##lund
rosie
tara
verandah
pia
rejoin
tingle
accredited
bravery
littered
mane
##urance
baths
giggle
underlying
##ﬂ
875
##3d
qualified
honorary
##band
green
##tsk
porsche
black
##art
mutant
##blood
corners
preview
flowing
diablo
nagasaki
affecting
oxidation
pat
##gel
1830s
adviser
depends
gma
ii
traction
β
##tosis
prices
prosecutor
lively
ramp
sacrifice
slope
##vos
slim
stating
whitley
ץ
poor
##金
##9
##iano
scooped
neolithic
##44
charlemagne
bart
##gm
[unused108]
showcased
##vill
mutual
saunders
[unused197]
##inator
late
##rooms
czechoslovakia
shanghai
##sor
annabelle
tones
contributor
315
frontiers
goat
partnership
##ted
bassett
enforce
composition
hosting
ballroom
##sby
kiss
offensive
zhu
[unused817]
fischer
gritted
metacritic
hmm
dodd
realms
soon
##uary
attendees
##vary
10th
submerged
drew
recognise
sulfate
##rkin
inform
umar
1717
kappa
reunion
remembering
iq
shifted
##ry
naked
distinguish
judgments
pharmaceuticals
privately
watery
秋
##ored
abortion
##ben
##il
দ
demonic
##γ
##iom
drought
##wing
hugo
street
##champ
employs
translations
rumors
一
dressed
architects
count
anders
remarkably
〈
twitching
louisiana
penned
portray
ᅪ
petroleum
luckily
former
enforcing
##”
executions
sanders
military
additions
clothing
##hia
olivier
##ete
roosevelt
##tism
##iate
kimberley
parody
##wk
e
breeding
republicans
##firm
torino
file
outlet
robotic
slender
##bas
roaring
plumbing
deepest
factors
detonated
documentation
eileen
polynomials
shoes
malmo
dig
smooth
descendant
hughes
enterprises
##lke
accumulated
pseudonym
livelihood
asthma
acre
storm
synthetic
bessie
participant
1667
upscale
anti
[unused637]
duc
landfill
ष
266
modeling
bose
alexei
eighth
clan
emilia
balcony
missiles
programs
mcc
saturdays
hendricks
bedrooms
usaf
##nary
taunton
activated
wiener
[unused235]
cliff
##lette
contributing
shipment
transformation
freed
正
sonia
##ount
boarded
usable
φ
健
##pee
accounted
appliances
banana
baked
sat
breakfast
pageant
##ilo
##כ
constructed
delayed
[unused558]
exhibiting
detection
facilities
enclosed
got
subsidy
terrorist
twins
longer
ax
reclamation
robert
category
snake
distinguished
heavens
threaded
cycles
shale
religions
chairperson
shelves
##ʲ
##不
corporate
goals
simpsons
upgrade
uno
##ª
masks
##erate
philology
did
legacy
scholars
rotational
realised
behaved
battles
discoveries
##iting
accomplish
shame
[unused400]
greenhouse
[unused446]
marino
motionless
gets
250
describes
tenth
ras
f1
robes
opposes
##ech
dora
kim
cadence
mentioned
doctoral
calmed
flight
computation
awkward
##レ
locked
beams
schubert
##iti
regimental
##eses
51st
hundred
saline
si
fooled
richmond
escort
savannah
eclectic
herbal
sahib
1784
influence
weathered
մ
evangelist
villiers
stimulus
ripping
springsteen
detector
##mism
##oy
earthquake
##yst
##anna
childless
processor
represents
##lena
recess
##kshi
guadalupe
comparisons
₤
##lysis
temperatures
॥
relieve
##jia
c
##₹
gnome
throws
##key
humboldt
##aries
champaign
playboy
[unused545]
1540
preceded
warwickshire
collector
theories
balance
dumping
seemingly
palestinian
peanut
seminary
emory
sinks
milan
beamed
killers
tanzania
vickers
seductive
boundary
pv
raj
wild
backseat
##thy
ratio
cavity
ₕ
asks
##aus
dewey
118
##me
discount
divorce
##dling
960
##56
##ress
aided
albion
participation
duchess
##©
1994
burst
commended
applicants
[unused543]
grunt
filippo
planners
stacy
lsu
missions
alliances
cord
therapy
subject
upside
guessed
slovak
##tte
[unused244]
henrik
##ales
[unused238]
[unused348]
aye
functions
substantive
秀
intuitive
dwyer
names
tiffany
airways
278
carter
ernie
powell
##sti
sanchez
152
instead
asha
##antes
##ors
feminist
curate
ai
lightly
heavily
renal
guitar
escapes
respect
flutes
##evsky
##zuki
belong
devoted
indies
extracted
grounded
huts
creators
sockets
koln
pouring
u
elmer
##uen
##chenko
陽
poem
learns
##ion
attack
##dai
csa
##dim
fellows
incomes
##olf
encoded
canon
masses
510
sitting
ए
jacques
climax
##pd
reform
lending
majors
dunlop
pleading
represented
rider
##ו
##男
bhutan
grave
##nded
roast
antibody
rainer
jana
rapid
ibm
##rance
perry
##kka
found
zev
##ttal
##張
conference
holocaust
scores
rwanda
tavi
tremendous
routing
du
##rley
parade
##ᆫ
landscape
supporters
hesitantly
lease
[unused344]
##rich
avoidance
[unused989]
dramatically
##ub
mv
thou
landslide
description
##islaus
airline
events
marko
median
##riam
walkers
sometimes
alleging
[unused908]
hampstead
proficient
[unused230]
elbows
singled
classify
takeover
zip
オ
sweetheart
##vier
dumped
##五
reliance
suits
ᆷ
##merie
##ncy
1927
rugged
feeder
coli
transported
vicki
[unused816]
##orn
bandits
demand
herself
lucy
necklace
probability
retaining
serves
symphonic
女
cold
##11
relaunched
interceptor
1948
richter
penthouse
##新
[unused89]
manners
extending
eugene
albanians
hurriedly
stamford
farmland
erotic
prevailed
johor
stored
suv
blow
##hler
fencing
##tops
ɾ
rte
exposure
glucose
gen
protocols
sudan
cuban
sl
##ノ
##rson
ς
57th
lebanese
fisted
ticking
##ckey
note
##ride
central
contested
##oman
##inging
openings
truncated
logistical
myers
extant
[CLS]
revolves
##kson
cosmetics
nfc
##lland
trees
porte
[unused123]
##gues
[unused353]
wryly
monasteries
##უ
##sberg
epilogue
miscellaneous
humming
evicted
augustine
avalanche
kira
森
##dini
consult
guangdong
interdisciplinary
##マ
blackmail
working
alejandro
institut
mueller
##icio
em
martial
testosterone
occupying
##uid
coach
magazines
medial
kenton
literature
##onale
xiang
：
egyptian
enlarged
doping
medicare
silenced
proceeded
ecosystems
nausea
regions
165
geared
##cial
licking
##systems
299
carmen
relic
knox
##usions
blessed
heroine
gardens
##mise
images
##alis
fates
photograph
formulas
##nous
##scoe
bounds
manner
banned
originates
helped
shortstop
raaf
trim
october
destiny
##tropical
##"
weaver
##rmin
र
δ
[unused525]
⊂
macbeth
[unused253]
feeling
##net
##rter
##si
factual
coliseum
##dermott
[unused826]
pixel
placement
stew
356
な
fill
harmonies
##ifier
announcement
cracking
healed
whitehead
##tu
fia
##oom
prolific
waller
ah
short
beating
##ping
##plin
angled
criticised
employee
muslim
whig
massage
と
##haling
°
##etz
##♠
only
tyre
tentative
##ij
ो
dolphin
##ₖ
baby
dated
[unused424]
charters
##cb
م
wisdom
ponce
imprint
##rang
astronomy
##ɒ
##zin
brother
bulk
heller
extensions
##koto
phrases
airspace
pascal
noah
vague
mb
geo
walden
unison
cried
kilda
##edes
hunger
britten
##lan
osman
test
##vie
##rz
##aby
##keepers
bridget
fungal
muscle
replicate
filled
keeps
luftwaffe
##als
##unce
pole
40
##uso
compensate
intensive
sharks
uranium
loses
needs
vince
|
body
donaldson
gong
##文
heroin
tentacles
[unused917]
hamish
dinah
iranian
teeth
proposed
##mable
##iss
stanza
iihf
singles
lin
cricket
fulfillment
##德
stern
–
insults
##ence
aquino
##aman
hugged
marcelo
galaxies
natives
upheld
ecosystem
marathi
04
[unused113]
##₎
homeland
societe
soil
1662
reviewing
astronomer
brief
unicode
harm
posts
[unused27]
##bh
##ckman
attorneys
postmaster
vidhan
antiquity
##mba
mimi
##sef
mischievous
clothes
conceal
montagu
johnnie
##pired
nutrients
starboard
vassal
clement
assault
purely
etymology
##ulsive
##qua
##pire
pillar
unspoken
pentagon
dropping
##ren
##vant
operating
##adia
[unused544]
intersecting
vi
##aki
##pad
##ß
troubles
tricked
chant
##opers
seekers
snap
hold
lighted
needles
einstein
anchored
confront
aide
definitions
##み
[unused631]
##gling
individual
tracey
necessity
snout
mcgill
inflation
junior
wallis
gripped
martyrs
bandage
loki
preferred
che
immature
penang
alloys
au
fabian
ibrahim
oral
childbirth
ari
apple
lange
crafted
installment
marlene
prematurely
avila
brace
counts
brady
def
##প
cheerleading
karl
mankind
namesake
armstrong
denotes
products
warnings
ی
ray
memorial
##shah
investigators
##ania
gone
tyler
emergency
sven
gibbons
optional
active
##economic
ecuador
thriller
universite
##et
##gun
throwing
##tek
cornell
excel
hero
[unused19]
specialised
buffer
[unused24]
178
\
rust
victim
accidents
altering
##lts
listened
ර
1844
##с
driveway
default
hana
peterborough
purpose
twisting
hysterical
spearheaded
voter
claim
deafening
##tell
25
brazil
junk
larkin
##dman
alaska
365
##ral
industry
pretended
ecclesiastical
tb
relating
oil
disco
props
humiliated
mellon
russians
wounds
##insky
##sden
artifacts
cinderella
hobbs
forms
ioc
##rya
belarusian
coating
comeback
mag
##lyn
##coming
##gl
尚
barnett
german
breakaway
knotted
1870
##uity
interact
manufacture
spd
swords
indiana
dirty
[PAD]
bare
turk
mp3
edged
gabrielle
##egan
idle
##ctors
ル
land
balkans
dryly
approval
liberalism
outlying
thirds
trombone
lyrical
contained
patrol
公
stories
##ija
typical
##ooped
wind
##rno
##ot
##tula
topology
##耳
signage
lay
##vs
christianity
annoying
send
vision
motorcycle
accessed
nails
##put
sighing
paxton
##cake
endured
##η
1814
suffers
biomedical
researching
recurring
##strom
edict
switching
fish
topics
mania
trump
uttered
vocal
dominates
lakers
referenced
gaga
helene
sculpted
queens
requested
juicy
drake
[unused473]
∘
jocelyn
joey
trial
org
dakota
processors
##ך
##odon
##rgy
triangles
incapable
kris
mango
refrain
stump
moaned
dax
proceed
eyelashes
domed
##act
imports
scrolling
##agger
##>
comfort
∅
inca
karma
fruits
cambridge
successes
mahogany
##sities
amar
leave
taliban
northeast
hazel
##belt
rival
##yad
model
saturn
##graphy
vittorio
##hari
freddie
xiao
##km
recruit
##yle
jacobs
grips
##rran
enclosure
hitchcock
##jian
decidedly
ankara
jace
##tee
francisco
antilles
explain
enamel
##lia
implementation
assaults
granada
##hi
ranged
marathon
##uder
betrayal
intern
##udged
laude
episcopal
##ر
##ம
babylon
[unused226]
iran
headlines
vacancy
fontana
gypsy
playground
george
##du
##ר
grimm
payment
busted
ɹ
lurched
maj
distinctly
[unused478]
admiralty
jokes
frowns
braves
necessitated
##akes
saudi
option
##yp
##ih
1801
bernhard
downloaded
##oper
[unused580]
linden
stuck
colony
canons
##omo
investments
represent
gregorian
##guide
##oon
begun
[unused672]
##tered
baptism
digest
forcefully
quarterly
rook
##«
1960
institutional
##ᄃ
paints
splash
compartment
##口
trumpets
emerald
thru
swamp
poorer
curling
##yala
vapor
colleagues
darkened
roam
han
flare
1a
##ogo
dominion
sofie
honoured
rusty
##ppe
cut
arson
qualifying
headwaters
clit
developers
unmarried
pike
sites
ང
236
₀
wore
1824
hydro
acceptance
musee
politically
transforms
五
gunners
ache
patch
glowed
abby
vicky
clusters
kathryn
gruff
jung
gymnasium
##hu
hornet
##司
disappointment
actors
platt
22
lorenzo
pianist
referee
remarkable
##bank
amor
root
ship
##zawa
shamrock
##oll
1884
lads
shook
winding
##kti
相
##ji
ambiguity
vimes
resembled
wah
1876
travelling
mis
ℓ
switches
[unused45]
howe
##ield
##za
##ywood
torah
1845
surgeon
##kata
##tani
[unused389]
[unused323]
tensed
mile
tomorrow
eighties
##las
explaining
roland
airfield
series
away
##美
gravel
##⁸
crossed
potomac
hesitated
plays
salary
pastures
[unused417]
provisions
bowie
##cted
##zan
freelance
ashford
munich
determined
330
prose
siblings
burger
weaponry
continuing
martins
##lton
heading
condor
factions
pioneered
settlements
lock
asylum
attributes
##ulates
##ound
creepy
emphasize
supplements
percentage
arts
##ка
ld
racks
κ
specified
tai
##icia
nsa
##eville
florida
191
projecting
date
romanian
scandinavian
flesh
analyses
raged
unanimously
##コ
##ী
ancestral
released
somali
neurological
jimmy
plucked
or
progresses
wired
backup
frustrated
nazareth
tres
##gio
##rity
gaps
##ᴰ
hubert
##lei
[unused175]
##bation
##acing
oriented
sensations
tidal
octave
kn
germanic
##bly
blaming
##犬
gesellschaft
checking
loud
[unused435]
tokugawa
##rden
reformer
echoing
mcgraw
dragging
sovereign
stony
[unused638]
navy
##pit
jorge
rebounds
own
##vision
warily
##maker
genus
##sser
shady
honoring
aces
##suke
studies
extend
##rank
resonance
classroom
today
awakened
anxious
grape
義
[unused49]
existence
[unused271]
bel
enacted
##yal
gymnast
amenities
gran
reptiles
supermarkets
[unused704]
comb
720
nicola
proposals
[unused211]
visually
easily
cary
autumn
pastor
spears
afb
##quette
cane
farmhouse
tomb
dolls
pleas
##ctions
##berman
emancipation
rios
barry
thought
version
lid
celestial
##neas
leaked
plumage
soo
31
complained
synonym
verbs
##ardo
recalled
votes
passionate
tigers
pulls
ak
##vid
[unused982]
barker
goldstein
ী
garcia
##rit
jaw
##emi
##dc
276
sections
maximal
რ
[unused210]
hardcover
##khar
outfielder
##40
##ip
##raße
##ɐ
corey
##park
frames
suzuki
##j
bahrain
wages
obesity
felipe
1836
hosted
pak
foreign
scattered
subdued
[unused653]
[unused33]
catalog
##sit
impairment
finnish
commencing
chuckle
unemployed
233
rhythmic
bow
odisha
##tsa
##coll
hung
harrison
inward
timing
greaves
##wei
##dit
##dam
##df
##ʻ
collin
flanked
##nig
##iah
harding
##esthesia
##mas
committing
captains
hours
capcom
smash
##anger
plata
dat
[unused408]
ʃ
caves
server
flourished
mckenzie
commemorates
sighed
sparrow
rotten
##mber
[unused498]
riga
covering
[unused837]
bobby
figuring
##like
mecklenburg
stairs
unpleasant
havre
rican
[unused466]
trait
##lings
##oc
juris
lukas
##aea
1935
curves
ingredients
takeoff
defeats
choi
selfish
activism
johnson
##idon
ferry
inverness
zionist
kneeling
##ri
competed
preseason
bavarian
memoirs
##sop
##陳
inched
porto
clashed
rana
##ᴬ
##ick
reich
##bag
##lled
##ption
##rized
##ful
##வ
discourage
flee
globally
##idium
##博
##ieving
[unused474]
[unused579]
jeopardy
syllable
valuable
lesser
convicts
condom
##uous
##itating
veto
know
1675
nan
reworked
##nagar
##ლ
1966
pathway
permission
##צ
joy
zoning
タ
cans
excellence
brentford
involve
ʼ
kazakhstan
international
automatic
[unused840]
williamsburg
[unused864]
shelby
##chon
[unused12]
[unused363]
injustice
##rane
runners
##jer
##bang
ि
##bic
edited
mcpherson
shop
frowning
1901
##ica
singer
##น
##tes
versa
1863
##overs
poly
sight
subtropical
nation
apparatus
[unused413]
commonplace
##ք
disciplinary
colchester
evie
lois
samba
spicy
vaccine
wires
slow
80
parochial
##木
hellenic
algebraic
##chan
##gate
era
[unused784]
indefinite
##building
ritter
##ulate
plastics
yin
##dio
cool
##13
##lates
##lowe
disdain
snails
abbas
epoch
##風
mosaic
##ᵏ
cones
plush
ʷ
towards
##osity
jaenelle
##iner
##skaya
bounced
like
apparent
cantata
siegel
131
shielded
likes
catalan
ceylon
wherever
donovan
##color
securely
shouldered
sculptors
selma
##eta
博
beck
kurdish
northwest
lettering
##र
braun
##rel
begins
propagation
chemical
##uche
westphalia
小
graves
distribute
overseen
pharmaceutical
felony
under
finalists
opinion
kernel
robbery
##ret
populous
intentional
ھ
claiming
2010
galen
[unused634]
exile
rae
tails
dart
seine
##taff
proceeding
rye
##ulla
mbe
panel
##ker
amtrak
cumbria
cad
provence
bazaar
##piece
⊆
##cola
abd
sermons
content
planck
and
1500
[unused39]
wipe
appropriated
applies
##仁
##nut
districts
##itung
commanders
brooding
mohamed
inspiration
hong
##aru
operator
this
not
swirling
when
carmichael
crates
photographic
stares
winery
##ა
endless
returns
distraught
himalayas
catalyst
##tern
clown
avail
oblique
steer
maid
13th
fashioned
archibald
live
##=
##anta
flirt
occupational
resorts
##lane
denounced
promising
aden
##hine
challenger
solitude
##view
cutting
outgoing
rallies
[unused391]
##ville
suck
##lev
capt
maccabi
passed
sturdy
54
airbus
seater
##க
##ntino
chalk
wharf
∗
##cup
[unused99]
agenda
cn
friends
chains
injured
##გ
##ₚ
pale
damned
temperate
peking
libertadores
murder
whitaker
##ure
putin
demographics
##anum
##idal
graduate
##lay
gravitational
festivals
lcd
[unused425]
bureau
title
yanked
ambush
af
##aar
pits
enormous
gregory
donnelly
particle
emigration
wilde
##tray
impromptu
depot
homicide
sg
hilda
indeed
limiting
topped
[unused152]
##ce
##sca
determines
255
##д
landowner
enroll
hound
mcmillan
barbarians
merged
revolution
describing
superiors
327
anthropology
hyundai
bets
stabilization
wasn
sage
drowned
empowered
spotting
##₄
193
alliance
detached
spawned
varieties
ronin
2012
jagged
139
sargent
##mussen
brook
races
##rka
$
answers
pizza
##ashi
[unused800]
quieter
promotes
horned
blackberry
frenzy
benches
catches
obtaining
tensions
wire
##mora
வ
ratios
caressing
explosives
bearings
##chrome
snuck
preparatory
##mc
jealous
encompass
jays
khyber
lac
partition
##ora
##phila
revelations
commissioner
charging
biennial
reno
พ
introduced
breaking
faintly
dependent
zachary
ᵀ
noticed
snow
proudly
##อ
[unused326]
marching
[unused258]
seville
##genesis
writers
compare
ic
gazette
cam
gravely
mom
daily
##gga
dwell
reese
miracle
cliffs
pinned
##pina
##qvist
chose
chef
dominate
patrolling
slavery
kia
##eki
violations
##vis
franco
1658
##ill
##，
legislature
easing
mansfield
sings
effectively
relates
madness
sai
encompasses
lifeless
wink
##lbert
nikola
##村
##old
bills
##ginal
##hell
##∗
##ˤ
##rade
##nka
freely
scanning
kansas
novak
utopia
timmy
pornography
[unused630]
caused
mvp
scholarship
obeyed
reviewer
##ब
inter
hove
##lic
murderous
ceremonies
lindsay
fredrik
greer
thugs
cumberland
terminates
mandate
##erted
##ses
##：
strongly
hanover
##l
projections
assuming
hartford
listener
guard
gm
##tance
chihuahua
dolly
linked
armour
##tracted
##oun
490
nw
popularity
fraction
queer
wartime
unsuccessful
try
displayed
nipple
develops
siemens
floors
gunshot
jointly
biscuits
marvel
skirmish
rats
supposed
pasha
clad
utilizes
luck
somehow
[unused82]
fireplace
wigan
antique
jul
resin
proud
finch
regulators
##ouse
##claiming
shatter
convincing
[unused920]
texture
shades
idaho
1990
congenital
ryder
reconstructed
##rval
##tial
[unused486]
contests
jerk
communicating
master
fission
ants
santos
fairness
blinded
[unused603]
##tangle
##劉
integers
rub
rhapsody
ェ
[unused883]
287
1861
[unused220]
ancestor
manson
instructors
anglia
ferns
peers
engines
rhode
avoided
trusting
comment
maru
backed
129
began
00
forbes
killings
##100
##hed
authentic
chance
sobbing
suriname
ᵥ
termination
##child
##民
h
goaltender
muddy
irritating
##zer
[unused946]
fortified
suicidal
taft
wheelbase
##bain
anthology
basketball
##lase
improve
origins
[unused295]
inherent
valued
dialogues
barbarian
pumping
##野
reclaim
crusaders
allies
imagined
turf
uncredited
##sms
expanse
salazar
##〈
portland
moravian
protesters
##х
[unused8]
martinez
spaghetti
myself
ip
zheng
attackers
port
bon
，
nucleus
differentiated
repository
1987
##borough
engineer
producing
unit
supposedly
admiral
##曲
coded
grammar
ほ
dining
tirana
granted
attacked
radar
##bach
smiled
##rrow
##tlan
preceding
spacious
codex
sherwood
adjustment
speeches
puddle
montenegro
compelling
prediction
##rh
scratch
[unused399]
regulator
##rda
হ
developing
lived
##omics
15th
219
##bility
##back
##lie
indicative
groaned
stairway
660
reagan
##uka
vancouver
##bial
cone
crossing
352
mob
obligation
##oh
chefs
pursued
restored
authority
susanna
##sing
blaine
820
gloves
pattern
banging
collisions
archaeological
[unused981]
crosses
excitement
##yu
avoiding
sodium
代
mastered
##not
organizing
thorn
standalone
cramer
serene
[unused268]
heavenly
revolving
suppliers
scan
25th
alfred
balfour
##河
##meric
amateurs
bulky
nilsson
stack
##aling
##sho
clicks
garrison
pete
henan
##そ
blindly
vile
##lite
##မ
growled
##stituting
beers
##у
brussels
2013
plenty
prof
ud
##xton
automated
burlington
residue
suite
jensen
administrator
cylinders
mate
touching
##kr
##etano
cameo
used
bladder
fiery
rhodesia
priesthood
##♯
1887
fu
goodwin
##rdan
##ssler
confusion
puzzle
evangelical
gifted
bing
domesday
[unused857]
##tama
terrorism
refit
##2
influenced
qualifiers
lime
monarchs
escaped
yellowstone
##eft
promenade
inspected
[unused114]
##dhar
noticing
biology
crossover
##π
tao
##vana
vow
analogy
middleweight
steward
jets
goal
movements
bursts
exasperated
##ल
confronts
63
aperture
identifies
unable
8th
presidential
prior
discuss
##く
[unused627]
aircraft
ashok
carpet
seed
narration
acres
timely
bathed
lever
##miento
associated
##bei
mine
behold
policeman
ponytail
southern
##oj
ल
##work
backlash
hooded
hearts
salvador
303
alabama
burnett
##cy
awarded
[unused115]
drip
promoted
obscene
nate
voyages
##gol
march
cases
noticeably
05
exiled
screening
momentarily
freshman
rumor
retribution
motors
camden
medalist
celebrity
navigation
arguments
leaving
サ
albrecht
savior
grabbing
erupted
##ider
releasing
sonny
elf
amc
duke
##あ
rallied
ך
augusta
somewhere
syndicate
concessions
simulate
specials
maintenance
grammatical
[unused789]
##tal
equilibrium
mathematical
paying
every
orchestras
[unused719]
professorship
[unused737]
afforded
vehicles
128
##tub
esther
parkway
##ᅯ
caressed
galway
##yne
traffic
islamist
invaders
##gaard
tugging
##yr
mutter
ceramics
##mot
screwing
##lining
peaking
clamped
##ight
##ult
compound
reject
frank
##pose
marc
tome
composed
headquarters
shapes
新
doomed
##dee
schwartz
blown
bali
ego
##rina
oder
sherlock
thoughts
[unused273]
##landa
activities
press
[unused277]
301
inorganic
nominally
shawn
##roving
।
ャ
¹
destroy
##bron
wilkinson
surgeons
editor
crank
amusing
chimney
nic
mall
canton
surroundings
jam
crashes
busy
suitable
textual
accompanied
##ito
seoul
##tz
dating
##›
##dara
eventually
ska
allowed
bavaria
hats
duct
fault
237
commendation
stacey
stylized
##hc
##rou
[unused516]
dans
##rating
runs
justify
offense
odds
benson
bin
♯
region
prompt
vet
redesign
budge
deities
##ust
##iot
commando
##av
combinations
##ﬁ
horrific
colour
vulnerable
mandarin
peter
##eri
ψ
riddle
wept
celebrities
vanilla
warmer
ryu
alcoholic
upwards
[unused585]
##ata
freshly
neared
##bund
toulon
ned
separates
##stan
spreads
deposits
rug
conquest
info
screw
##balls
[unused640]
cramped
mccartney
ledge
melodic
absorbed
atoms
##φ
bradshaw
wonderful
tropical
antiquities
ourselves
##pour
dawn
flicking
ふ
channel
canoe
ᄏ
##nator
##sl
[unused388]
##zione
expert
animation
##cuting
cages
##bro
catching
hereditary
spoiled
##lby
crimea
scouting
aspirations
notified
mcgregor
sanjay
amiga
combustion
[unused445]
##sia
spectacular
essen
##ska
##cation
specialty
abnormalities
martian
aleppo
##cast
ʲ
merchandise
neville
sofa
grief
א
rations
neighbor
lane
usb
east
bookstore
ny
##ʐ
juan
##he
a2
##47
complaint
hindu
corp
fairies
lemon
watts
##posed
dedication
##isation
play
##rnik
##艹
##lder
radicals
[unused907]
ghosts
todd
[unused127]
ballots
share
deported
##carbon
sweeney
##bahn
ty
##tock
exchanges
eastwood
carrying
##hul
continuity
picket
gifts
¢
[unused534]
##з
biographical
panels
monastery
sniffing
80s
avon
froze
composite
cheap
nap
surrey
##ope
##hala
kingston
claudius
pool
angrily
soloists
planning
justine
reflects
larsen
lecturer
writhing
doctrine
##rad
custer
##wood
avenue
touring
danced
##amen
##kur
gnu
pupil
sydney
tongues
featured
##gen
pali
rubber
##lham
russo
[unused609]
lullaby
sweat
##ote
disrupted
recovery
banks
organism
##twined
aboard
##post
careers
nominations
[unused490]
##দ
redding
waterfalls
groom
appearance
##ab
त
pie
connor
strong
installed
physiological
worth
earl
plaintiff
dedicated
improves
1086
gottingen
knesset
undrafted
faulkner
zimbabwe
##ship
##ια
##ང
already
homeless
souls
pocket
mcdonnell
aboriginal
##ha
rudder
motorsport
climates
spider
railway
hearing
precise
scream
amazon
appearances
ended
plague
watershed
aviation
##codes
##sp
dario
##tania
accessories
##mori
tipping
##御
##turing
##ies
##itte
##川
lockheed
##rington
whereabouts
##avian
fullback
unconscious
reefs
##tructing
##ಾ
excerpts
nicaragua
##phi
ix
maurice
arkansas
audi
kemp
safely
formally
て
hurst
##rew
smuggling
s
##oting
##ock
reappeared
tuscany
[unused135]
gunner
##teacher
##nsor
framework
##just
grandmaster
##mani
##rys
class
jacksonville
lucha
opera
##apple
gore
avoid
domestic
accomplishment
blankly
walt
256
sar
##cuit
[unused364]
abstraction
darkest
scope
##dar
moore
az
organisms
scroll
reclaimed
busch
[unused282]
halves
hugh
homemade
##nock
interrupt
paramilitary
overgrown
##ald
##erine
trafford
commenting
##eak
##val
conservative
rs
##weather
##ہ
combines
buena
oaks
optical
dun
artillery
civilian
derrick
ワ
murdering
champagne
observation
harvard
wouldn
ramsay
##ensburg
jc
regent
tuna
uneven
furiously
##aster
##cum
##本
##oria
prelude
albanian
promotion
##chaft
sought
affected
##edge
buffy
baldwin
scarlett
351
disqualified
vanished
perpetual
[unused898]
ceo
sipped
[unused750]
##pment
##0s
##ioms
##aria
mead
gestures
imagery
exceptions
extension
##ieri
impossible
##dre
##nr
raven
##shima
continuation
airship
possessions
murderer
township
bahamas
sided
perspective
whitman
renaming
southernmost
##lars
[unused795]
straining
spots
##kowski
##ation
cornered
nairobi
seamen
weekends
ndp
requiem
castro
##fers
owns
##რ
whispering
pottery
antigen
expenditure
collects
flap
«
aragon
cleavage
ardent
kathy
[unused931]
defence
constraints
caleb
##iu
eucalyptus
stains
townsend
mission
measures
tertiary
starvation
diplomatic
healing
houston
leisure
vocalist
suspect
保
intellect
nautical
tonnes
academies
brake
killed
spices
hardin
semantic
ordinary
negro
с
##ー
cascade
experimentation
any
##actic
[unused682]
corpses
paris
ambition
leighton
[unused465]
breaths
donnie
[unused46]
bishops
mir
tumors
[unused181]
##ael
##genic
##ents
##ilation
recruited
july
publicly
[unused312]
noelle
wolfgang
romeo
donate
shivers
margarita
pair
predictions
meals
sheds
disgusted
##उ
attractions
hayes
helena
glass
me
totals
##vian
##oli
huntington
midsummer
curb
岡
accent
sunderland
rack
polls
exterior
assumption
cheek
ahmed
dealings
spire
spotlight
[unused768]
stupidity
uprising
surrounding
glued
1920
pending
attempting
cautiously
fledged
farmers
##00
##ute
##■
concurrently
constituents
tunic
adjusted
igor
cassette
exemplified
##lho
mimic
ล
[unused654]
hitter
narrow
draped
[unused933]
enzymes
plans
saloon
ton
nocturnal
declan
nsw
##tling
##oven
globe
##ina
tobacco
clive
arden
text
[unused560]
augusto
compass
##rocity
##uru
turret
generations
[unused97]
pennant
unease
den
tuberculosis
[unused304]
drummond
bursting
urbana
laborers
bye
fuels
excessive
##has
lebanon
##nally
verification
saxophonist
treaty
sake
trench
tubes
syntax
##xley
federation
;
##pressive
aerial
fairly
pre
deprived
allegiance
idols
phoebe
reused
alvaro
##ʳ
##ʼ
courtney
dinners
dense
rune
hurried
weiss
friedrich
injected
stevens
nuclei
logos
[unused502]
##eet
federally
slippery
exempt
久
arenas
injuring
kimberly
##न
##raya
ears
cease
heterosexual
converts
lakshmi
##fahan
stitch
##aurus
essex
##و
##agi
qualifier
lobster
prussian
##ept
hypnotic
attache
chapman
contenders
cot
course
dual
noodles
hereford
token
ambulance
[unused645]
##ʁ
encoding
jody
akira
underwater
immigration
স
invariably
lowers
dahl
wheeled
runways
flickering
soldiers
keys
mice
##nat
alexandria
##信
[unused938]
intently
saw
seychelles
macy
chilly
ᵢ
electors
computational
700
induced
reproductive
sanitation
vacant
[unused626]
rays
chewed
##ener
##zo
##₈
flaps
lost
[unused671]
funnel
supplier
finally
##par
##ington
hermitage
宮
~
exotic
1661
fray
kingdom
resume
soaring
statements
##ε
famine
vuelta
towel
ム
salad
spray
##filtration
lizzie
whisky
severity
dona
##with
convergence
##vr
buddhism
clarify
goa
researches
imperative
entertained
casino
met
##isch
nikolai
##ante
antwerp
lambda
conditioning
disasters
sf
tooth
fairfax
227
[unused661]
##ん
crush
castile
##logy
scholarly
##ɔ
transforming
##elis
i
usd
ely
##ter
details
differs
korea
validity
joking
numb
hess
martini
hallmark
bal
assassinated
##hel
χ
chasing
fists
urdu
guildford
thankfully
grenades
bea
creator
polymers
groans
##eto
guthrie
volunteers
faux
jonathan
##wyn
reconstruction
247
##vyn
rudolph
amalgamation
fran
imaging
surname
##ture
##raine
aka
bog
gingerly
ineffective
yale
archers
1804
arithmetic
bounty
tow
faust
trip
##ₑ
bigger
##roved
milford
parry
fest
residing
##す
##ske
[unused807]
[unused100]
##ivist
aubrey
史
##cies
##森
277
ᆫ
circulation
##ecin
##nable
235
##ato
gogh
sob
##gy
those
##מ
guam
##lston
grease
showed
surround
pursed
##scribe
tunes
ignacio
mcnamara
##og
74
distant
stations
harriet
madonna
meng
produced
but
brigham
science
militias
[unused551]
##jos
bowls
clifford
collaborating
diabetes
dunedin
epa
transcript
##aca
graduation
stills
[unused40]
reggie
##・
persia
reservations
sketch
entirety
mil
visionary
20s
##⽥
1805
##ש
##cote
footsteps
indexed
shan
singular
delivery
760
eventual
spherical
tuned
wwf
1780
byu
persuasion
increasing
tracy
##masters
residues
92
##リ
##ι
replace
residence
attacking
dietary
1707
considerations
derivation
glaring
[unused690]
reza
soul
##δ
attachment
clarified
wearing
tatum
bien
article
17th
boone
lamps
ᅧ
##jou
campus
firth
bullet
quintet
plains
##$
##stad
##set
##lda
##yler
moaning
whitney
objected
seismic
⁶
##า
blackpool
anthem
##nson
ljubljana
magistrate
chris
monster
ave
##bel
casper
emitted
freyja
contestants
returning
##war
hai
##yon
colonists
wasting
##ɹ
reply
nominated
rush
plausible
##jic
financing
molded
picks
112
[unused393]
mutually
־
manchu
sheet
ج
##eda
##द
##bound
saigon
occult
##ging
##wc
nokia
google
recipients
sikh
wainwright
##itors
##地
constrained
gallon
housing
shareholder
resurrected
reported
matched
frs
bala
honduras
林
organizer
identification
lick
lego
##宀
[unused247]
clips
show
sonora
tempted
progressing
britannia
pill
pity
sits
voices
jazz
schneider
帝
##ŋ
tony
favour
equestrian
##ove
##≤
azerbaijan
communes
##ologies
wrestler
##ʒ
vaudeville
##uan
basket
frantically
##ω
conditioned
haitian
turks
ア
life
botany
stirring
##ley
##pace
thoroughbred
buick
massive
costumes
midfielder
wit
approach
defeating
dim
##lovic
defamation
deserves
dissent
inconsistent
introduction
campground
geneva
lahore
stalk
vanishing
william
##hy
[unused349]
highlights
fucked
brushes
##use
alley
child
chancel
christchurch
[unused64]
anchorage
moffat
aims
comprising
fraser
patrick
##fied
##nan
##tness
circumstance
neighbouring
roi
chao
##л
convinces
##icon
coinage
rockies
violent
haryana
ot
su
ァ
##ber
nonstop
##lar
adolescence
gonzaga
prone
roberta
swallowed
fitzroy
tops
hunt
leith
##ein
tilted
unchanged
fei
##シ
recognize
မ
##lves
##nberg
braid
loop
mccann
ul
pt
wesley
##holm
brick
##hom
##raphy
##ilde
##ァ
mandated
boom
brute
gabon
hilbert
qb
高
##ifer
ᅡ
awaited
coup
rent
##case
leads
##io
developed
substitutes
lucie
thematic
##rgan
202
dungeon
careful
[unused76]
rumbled
##rong
[unused173]
chilled
cuisine
beverage
pitching
complaining
frigate
headmaster
comrades
quote
tolerate
英
##sight
horns
drivers
##া
scoring
ے
←
truth
pup
##dos
abbreviated
activity
occurrences
bred
[unused526]
pickering
1840s
1906
interrupting
mixing
wander
oyster
railing
shafts
##ffin
##rain
jeep
beautifully
honourable
thrilled
hears
elgin
sergey
cranes
labourers
cumulative
bright
##lun
plump
tissue
laura
bronx
pablo
francois
[unused91]
dam
plasma
##osta
[unused650]
vegetable
analogous
##hosh
##ional
academie
##lusion
facts
goodwill
雄
##‿
averaging
lyon
packing
yusuf
declined
nose
grayson
thirties
##enberg
##nna
historian
##shing
range
carmine
marty
commemorating
tipperary
##oi
streetcar
repeal
panting
knit
libre
smith
was
ย
[unused98]
deepened
comet
##op
outsider
chronicles
jamaica
[unused14]
sang
[unused512]
alberta
##orio
##lity
bn
khalid
spread
relinquished
ripe
time
jun
##drum
juliette
natalie
nec
topographic
adverse
conversions
##ie
boogie
fleet
ski
yoko
bernard
francais
fibers
operators
symmetric
[unused223]
strength
watt
佐
vista
##nding
bs
gabe
alec
moroccan
assignment
法
consent
shaking
##inus
##rod
##nies
teenager
cheated
cloth
##崎
significantly
selective
[unused990]
##avio
##nia
329
expects
[unused583]
colleague
##urn
packaging
[unused697]
controversies
jaws
sectional
wavelengths
maroon
##ᵈ
masked
##অ
nike
##ln
##xing
loading
〜
ش
intra
auckland
bodyguards
card
trolls
metz
dd
bangladeshi
marley
rq
[unused362]
poll
praising
pockets
nor
##♣
hayward
row
[unused606]
##cycle
##cu
chemistry
##frey
1763
##kulam
[unused296]
sheppard
2000
olympics
1971
##eras
##vocation
club
greatly
##shore
warfare
waste
mat
aiding
##eis
announcer
主
##iche
##aran
catering
accession
##rro
fronts
captive
reigns
trier
wyatt
tun
rainfall
karim
attached
spilling
gaped
##eva
1860s
paddington
##uge
##hrer
humanities
##zz
##も
inclined
retrieved
huey
totaled
313
acts
—
foil
emergencies
star
ported
##nse
##dies
uniforms
pasadena
[unused896]
##pole
₹
##eving
darcy
population
三
##star
lodge
douglas
[unused336]
dry
edwards
satire
##nos
##भ
schoolhouse
stretches
##odies
##（
[unused820]
aspiring
aix
fix
##oulos
sears
smartphone
nightingale
##eck
blanc
hee
loaf
luce
philosophy
circular
ames
##eu
##uve
stones
taiwanese
pop
verdi
refusal
##ে
##olt
screened
rann
dynamo
isbn
slate
anderson
engaging
fewer
##ия
rfc
##ל
##eration
examined
transformations
rate
295
courtroom
cyclist
mercenaries
places
grasslands
claudio
railways
##pt
179
##zano
bertrand
thrash
woven
cost
expanded
2007
##urus
conservatory
daughters
med
netflix
doubled
quinlan
##iva
##ball
astonishing
scratches
overture
credits
proton
dangerously
rabbit
andover
gil
invest
nervously
threats
diagnosed
scripture
punjabi
blowing
forte
wonders
islands
☉
rodrigo
1964
salts
persisted
channels
##zation
##ucible
performance
granville
demographic
rover
sabre
strategies
##side
##oted
##小
mike
wei
medical
##finger
heirs
struggles
diversion
peaks
werewolves
darwin
achieve
addition
keeper
sells
established
avoids
y
##urable
##lez
novella
20
[unused756]
480
skeleton
swallows
##ble
specializes
##rsten
aged
unbelievable
storey
helix
##ately
opium
innocence
battleship
rearview
wish
accountability
irwin
alonso
[unused359]
talented
trough
incentive
##50
voss
inadequate
infections
productivity
[unused341]
marco
dependence
hen
veronica
geologic
##yk
[unused429]
vertices
legal
grammy
lush
wheat
astronomical
horrible
##per
thomas
rates
smoothing
nam
sparkling
burning
flock
greedy
apocalypse
secretive
fumbled
scarcely
preston
##zzled
realized
##elle
picked
resolution
animal
nadia
coding
quarter
leaflets
shack
[unused224]
cadet
chased
taut
##75
##朝
tissues
[unused329]
rendering
sugarcane
sarajevo
##rzy
##ep
campeonato
magna
jessie
smelled
hepburn
hospitals
##weed
capturing
ex
##“
52
ipswich
jing
loaned
##nsen
##tm
ducks
1979
specify
mergers
streamed
discovers
##lth
khz
murmurs
oricon
beckett
lies
canadian
1816
##itha
լ
##ddy
chicken
lp
nrl
##ᅭ
complex
posed
creed
subcommittee
##ھ
1786
reportedly
filter
gale
trembling
wendy
vidal
anatolia
roaming
sent
##ntly
barak
jackson
jan
asia
##kyu
##14
raphael
specially
compilations
economy
favourable
##national
1896
[unused954]
unbearable
unstable
##te
englishman
≡
boasted
wise
meade
mesa
##mark
##ssed
wealthy
##ay
##yna
interfere
##れ
accessibility
1656
noticeable
##ances
##´
grazed
##rke
##dae
tighter
truths
##yla
[unused732]
ang
individually
##tion
ollie
panic
pot
freeze
shops
ps
changing
sweetly
elemental
rumored
##naut
tariffs
##arth
orleans
connectivity
vortex
##tok
jupiter
##ا
bangs
supremacy
36
hanson
negotiations
houses
quantum
organizations
corrupted
volkswagen
pest
tossing
hind
##region
markings
turning
ethiopia
##cko
##illy
friars
ser
youth
arthritis
guests
ʔ
##ingdon
comedies
##uld
allan
[unused910]
additional
bastards
hooper
vial
surfaces
mortal
slavic
bones
himalayan
disturbances
##ko
bellamy
coulter
dramatic
hercules
tenure
mutiny
dynamic
hotter
inherently
interpreting
[unused29]
biking
paid
erased
chinatown
ry
akbar
acquainted
ebony
frankly
##ella
operated
qur
taluka
dreaming
##izes
loyalty
raceway
lighthouse
##lit
##ros
54th
sane
##pha
ag
harder
contentious
hodgson
frown
lee
misleading
[unused381]
staffed
shelton
`
sums
philanthropist
impose
sixteenth
prefers
paperwork
falling
##atz
incomplete
quarters
##江
120
##awan
professional
analyzed
salzburg
[unused483]
glory
reprinted
##inga
node
##一
baptist
vito
rebuild
capacity
70s
ɡ
parasitic
colored
##イ
antioch
constantinople
paranormal
kennedy
teammates
courtesy
poorly
spent
advance
cookies
vigorous
part
thence
1871
seven
shane
viaduct
##oic
cattle
horst
conflicts
rolling
⇌
₁
##arte
windmill
##ვ
latest
nylon
argyle
138
africans
##bridge
dagger
prove
questioned
##lous
insights
[unused887]
astonishment
reality
wellness
mosques
sweet
υ
aa
jozef
hips
gaelic
eighteen
jalan
##py
methyl
knockout
inc
dalai
superstar
tor
droplets
##osis
reacted
##ος
##gawa
##lized
drury
payload
##aro
vaccines
##itia
tunnel
青
##lvis
snakes
##ے
florence
##bula
pledge
cabbage
review
typically
##ota
accelerating
pa
supplied
ashe
[unused667]
cs
##ae
cantonese
demonstrated
sequential
thrill
##itude
wiping
##dun
cher
archdiocese
josephine
##mic
college
##por
giggled
camping
calais
##辶
##ₜ
##aneous
500
protested
substrates
bruno
##tem
speechless
libel
burgundy
inception
rainy
690
hostel
rites
##ю
streak
structure
##aves
survivor
sweetie
##士
viewing
pipe
##lets
accusing
modelling
supportive
posters
trunks
mantra
socially
ee
##uck
aftermath
thereof
oppose
webster
##break
licked
##த
relying
townspeople
abolished
ut
raymond
ordered
peel
libya
sins
footprint
styx
##dad
personality
grange
525
april
bride
lauded
convoy
[unused978]
candi
system
1828
[unused965]
stealth
francoise
dante
##rano
delegates
ebook
previously
##inkles
classic
spells
notices
tiberius
##bled
ignoring
cupped
133
[unused738]
navarro
baron
1626
hike
investigated
jaya
##orous
bearer
##tow
growth
thompson
rod
staff
##ots
後
##core
##19
£5
deciding
##ific
demands
hanna
[unused741]
bsc
consultant
doctor
و
nurses
instructed
sb
coptic
##dial
##f
[unused121]
defect
function
soy
bafta
##ays
nights
silver
##hear
dent
reassigned
##а
reelected
freak
##sius
##vir
succession
philanthropic
##acio
##კ
lesley
##ments
##law
297
ellen
currie
handicap
website
staggering
championships
2015
midst
reproduced
factory
soaked
sexual
##bn
foreigners
vlad
=
eduard
1883
lurking
##rite
##top
##uding
dashboard
bearded
##gee
saying
agents
[unused491]
dali
ध
serge
assyrian
act
repertory
##ces
##ead
guarded
preached
b1
ethics
eyelids
dorset
translators
1697
##β
[unused521]
statement
##jar
shore
still
metro
[unused6]
##ivity
hearings
pursuant
angelica
##chase
##type
##osa
durable
ruby
sunday
rituals
weighted
##ver
##yya
buy
liechtenstein
flow
futsal
fastened
1807
##gnon
iowa
linen
premium
recorder
yan
##ذ
32nd
（
##林
plead
teammate
insides
scale
straighten
doctrines
[unused384]
downloadable
hangs
##lewood
##oni
hawaiian
mason
##gating
##家
buds
potent
##ured
alive
##hey
##‐
tributaries
richest
retire
batter
chan
norms
logical
breeds
reference
##lers
convertible
pained
ড
chronic
five
##pressing
massey
symphony
slovenian
blanche
coast
encouraging
##shire
silently
##cer
##elo
another
data
archival
nobleman
founded
greenish
pulitzer
consists
iona
flea
sliding
recommends
poverty
stroke
taekwondo
dressing
voyager
dementia
italianate
##bble
fixtures
gus
council
six
tolerated
[unused646]
napkin
ge
##sb
##uis
##ily
broadcast
gazes
go
##ˡ
jurassic
sunlight
tesla
天
tinged
graphic
limb
straps
nico
beverages
practically
timeless
winced
contestant
[unused145]
##bella
preparation
fling
sul
ɐ
scents
cipher
exhaust
385
##stream
phones
##vao
##iary
persist
onto
denny
saved
##gano
flashback
blurred
##rral
angles
break
lowest
1888
[unused243]
अ
neo
##tie
kinda
brunei
##face
bulls
adolescents
kicking
deception
despite
nationalism
responding
landscapes
howling
trajectory
diagrams
osaka
appellate
ratings
se
##vio
ambient
θ
casts
pathogen
##wee
xx
bra
level
1756
##quitable
##ified
shillings
##tang
lama
##enting
rental
##dly
emmy
sniper
goods
[unused22]
hurrying
lea
hailed
sid
incorrectly
##acies
erebidae
[unused664]
lax
bothering
everybody
swinging
ᵉ
##rle
expertise
gulped
##‚
##combe
##odle
occurring
hue
canadians
arthur
opt
pacific
winkler
gps
松
##ν
##lessness
javelin
union
churchyard
scandinavia
discreet
cheating
##eur
max
analytical
examine
invade
##duction
noisy
castillo
profile
batavia
tunisian
bismarck
smart
manuscripts
1745
tis
corrupt
turnpike
darker
##oides
dyke
italics
nasty
##laid
arrives
infected
[unused106]
australia
chilling
lunatic
adjunct
hardness
ks
barlow
sociological
offerings
courier
raul
##ta
rouge
theater
##lter
м
congregation
silvery
maxim
harper
iraqi
loving
increase
surveys
tito
[unused50]
？
compelled
##crest
design
demolished
drinking
書
enemies
billings
[unused454]
lori
radiant
clade
ส
ק
vinegar
bram
reunited
##ᴵ
[unused119]
##plex
acceleration
suites
discontent
##dock
rei
stars
speeding
playfully
blackness
cass
americas
comedians
repairs
slits
rib
stimulating
##tors
pro
##glass
harvested
affirmed
n
rudd
insulation
amended
wondering
##ty
##rama
harassment
eliza
##tage
albania
gallagher
##ura
inches
hate
rudy
assassins
lissa
roche
york
http
##dron
digitally
marta
##ensis
bender
161
bore
chunk
cylinder
ellis
##anus
##uca
195
modelled
detained
hopped
[unused390]
money
locke
alistair
register
mercy
tyrol
fares
cocoa
clothed
94
[unused288]
helen
lauderdale
ste
##eiro
techno
##acion
ivanov
machinery
posting
1826
tightening
氷
denying
eminent
emma
ensued
socialists
rams
##mos
legs
pulmonary
variation
116
[unused222]
##₆
2021
cover
##bbon
robbers
flanders
gratitude
rm
manipulated
caliber
##uate
ʒ
assets
worried
snooker
armored
adaptive
marquette
borne
staying
600
1772
ships
gerard
##sell
##gong
##清
cyril
##ła
ghanaian
##vet
eight
instruments
tickets
settled
##zza
zoo
##itan
sensible
damien
##བ
formats
hazy
significant
comprehensive
simulations
##minated
dwight
rotary
##ケ
workings
[unused78]
jefferson
1651
citadel
##侍
thousand
政
affirmative
icc
##urized
##サ
eroded
embracing
centers
whole
decorative
brunette
fender
mines
attacker
quantitative
out
##icum
[unused934]
authenticity
expense
nfl
##lce
archduke
norris
sorry
stinging
tammy
thorns
guerrilla
overcome
##lom
eastbound
##leton
##wr
assurance
cause
curl
polling
##古
domes
##scia
ascot
itunes
##ocating
loosen
[unused919]
##stick
jett
[unused819]
rescuing
allows
cochrane
davis
architectural
##bell
tightly
relatives
##tara
frequencies
1670
booklet
##er
joao
suzy
cp
[unused875]
difficult
ₓ
greenville
complete
##ference
calming
##aday
depth
constituency
1854
distressed
lot
foundry
addict
evolve
sandwich
thirsty
##hra
potential
##cable
musicals
rang
##ivo
sebastian
arrangement
nippon
specialist
vermont
creature
##gist
classes
males
fair
aluminum
rectangular
responses
##bies
griffith
dade
rash
##tory
gene
[unused794]
mayfair
stan
missed
##ad
takes
distorted
ensemble
charter
earned
erect
fluttering
palatinate
facilitating
crows
kern
mollusk
salon
თ
discovery
versus
yamaha
conception
##haven
之
[unused81]
scratching
barnard
revenge
geoff
greasy
∇
│
##do
carl
consecrated
geometric
watched
blurted
nectar
##mi
confirm
drops
diocese
with
rail
55th
exploit
[unused330]
font
judas
phillip
portions
rome
vanuatu
developments
elect
fred
taipei
せ
elbow
##gos
controversial
##rcus
remove
ப
katz
pe
##tain
##morphism
sis
##xes
##bourne
edmond
tame
manhattan
##agne
35th
permanent
whipping
viscount
yemen
alcoholism
worsened
##rier
ben
reacts
startled
bertram
mongolian
pan
carnage
smirk
##oric
honors
##onus
##ography
##tology
##⟨
farming
dwelling
balthazar
integrating
mandolin
matters
##bla
##ø
equatorial
jackie
niall
gunnery
##bri
##va
[unused178]
define
minors
1905
glitter
segments
[unused635]
ᄆ
##bbe
aimed
imprisoned
nhl
poisoning
commencement
##hof
conveyed
limited
newtown
disturb
chairs
essays
1857
message
adaptation
townships
hilly
⁴
292
coupled
bruins
##ide
##fying
ek
goalscorer
lo
nominal
pajamas
v
[unused401]
executive
presiding
1703
grading
widowed
##imo
vital
proceedings
accomplished
brushed
gorge
colbert
kyushu
中
musique
songs
##松
##clusive
ho
santiago
1912
expecting
##tive
##class
##tila
bassist
##wart
richer
mrna
dove
empowerment
joanna
brisbane
brightened
門
rock
waist
siren
murders
overland
flanagan
internationale
projectile
juveniles
personal
##uel
claude
defective
clyde
overlap
##₍
sensory
##analysis
wasted
##ibe
kentucky
northamptonshire
##aur
color
eleventh
hunts
owens
waldo
radiated
graphs
##tma
wandered
##ique
curve
##sburg
##郡
[unused951]
conclusions
canceled
liter
spade
kincaid
famously
quad
##hum
metabolic
certification
hauled
##ria
##voking
heels
##∨
macedonian
breathing
premiered
tugged
create
grimsby
囗
their
descends
##orum
scenes
utrecht
ribbon
wentworth
ـ
pudding
stephen
colonial
diplomats
sights
##ร
reservoirs
identity
vivid
[unused786]
finance
concourse
blonde
torment
theatres
tear
exceeding
[unused449]
hunting
isabelle
##gpur
casualties
chapter
##rath
exceed
nebraska
##ovo
##iable
mendes
peeling
##vich
bells
elegance
bowler
self
##ller
electrified
yours
spouse
##fted
leinster
linguistic
scented
subdivision
import
initiated
1959
webb
succeeded
##þ
suffer
joke
editorial
royce
composers
##tr
tyres
[unused582]
##nh
christine
graceful
m
cbe
output
poppy
##isen
sleek
##dder
##ₓ
##db
‡
##oma
detroit
##icing
plc
dissolve
♠
coaster
205
tournament
launcher
stepped
striped
##ᶠ
ferrer
rpg
troops
condemnation
councillors
decrees
chronological
laurent
orientation
[unused893]
billed
tipped
vo
##holders
containing
din
potato
warmly
##mind
strawberry
lowe
lose
##gley
##rogated
highs
scenario
原
fiancee
pedestrians
excuse
persian
airport
liverpool
1819
mannheim
toad
announced
##vati
246
cereal
titular
restore
reluctant
span
harlan
transferring
##iy
sculpture
murdered
anthologies
344
ivy
朝
##corp
arctic
triangle
##maid
##ngen
fujian
auction
esq
berg
scissors
adulthood
commentary
##mara
focuses
lal
crouched
##haus
dialed
automotive
convection
tanned
managerial
making
vascular
☆
bosnian
peacock
prisons
something
perceptions
watkins
cheyenne
organise
site
monument
scraped
scholar
ε
arterial
##セ
pagoda
キ
##isan
##mg
46
tests
fading
[unused703]
宗
shifters
chiba
inhabited
retention
inhuman
##fish
outpost
##izan
protestants
galaxy
##48
narrowly
coveted
##bat
rookie
diaspora
##oint
##man
##sworth
cr
felix
twain
lattice
1813
destined
innovative
pokemon
##ovic
purchases
herrera
wheeler
maxwell
respond
[unused693]
##vic
decade
س
##mada
pay
condensed
hissing
[unused276]
steamer
lasers
prasad
blues
legislatures
##berger
。
[unused692]
billions
grunted
genuine
katrina
elsa
toe
##տ
rescued
greyhound
volleyball
##cave
tripoli
##গ
##inations
evaluation
allow
sponsors
listing
fusiliers
lifted
ᵘ
forged
lawful
cherry
arrogance
jack
73
hamid
intervene
flags
sirius
croydon
ハ
davy
furry
phantom
tilt
sacrament
19th
citrus
kenyan
morley
soyuz
##anga
aspects
crying
fulton
jj
[unused287]
beaux
eco
hopkins
chiang
blast
1938
kettle
padded
##aine
southland
##che
baylor
illnesses
[unused571]
##lion
fatima
##ingham
mirza
commercial
1792
nepal
subway
ல
prick
inflicted
journalist
conditional
##ching
ಾ
mediated
intuition
[unused813]
nevada
##chy
ই
[unused186]
serial
yeshiva
basin
acquisition
implement
##isha
velvet
monkeys
restraints
##don
subset
boring
##dr
shriek
57
rene
##dalen
₩
iaaf
copenhagen
dash
latin
hazards
##yl
assimilation
goofy
precautions
professions
regarding
sourced
##mura
œ
feral
diagnosis
##uj
[unused229]
blink
220
choir
heating
##riding
limbs
pg
soho
sgt
##ries
single
##阿
ev
dogs
1683
labour
control
opportunities
gardner
rocking
[unused973]
captives
##ination
valencia
38th
oils
[unused382]
thermal
##isms
@
##etti
##ttes
##rra
strengthen
serious
framed
horace
dealt
mart
##bm
mmm
riaa
xander
mikey
そ
##ก
dummy
averages
shannon
rosewood
##∇
barbed
northwestern
ュ
fearless
concern
hanoi
icao
performances
##tron
employers
sampled
mayer
succeeds
otago
##ray
attributed
sequencing
defense
copy
lengths
milwaukee
warship
[unused285]
plato
[unused939]
[unused484]
##grounds
authorized
jens
preferences
sipping
ہ
ezra
trousers
responded
ties
room
##rani
##uss
dangerous
##lden
##雄
worn
vested
alicia
ত
signalling
remedy
##pps
medici
177
emerging
duluth
slam
##ayo
mater
##hyllum
##54
mars
##yev
orchard
smoke
安
[unused130]
fee
fivb
discrimination
a
maintains
anyway
complaints
mundo
⇄
andreas
kerala
##є
haynes
870
inhibitor
[unused441]
below
victories
##hiti
large
farm
[unused66]
upgrading
alain
##virus
muffled
item
implicated
revolver
olympic
volatile
idol
bromley
bhp
##ր
concentration
isis
resented
usher
##die
1723
emotion
plank
suzanne
adopting
kinetic
##tta
inside
championed
##pine
scout
countess
corbett
intended
##ɪ
asked
threshold
our
spielberg
laboratory
atari
##₅
performer
##ede
m1
pitches
##ت
rom
##oia
##rwood
apron
hulk
##powering
##北
counters
pleasant
[unused796]
strange
volcano
petit
singleton
italia
slit
nils
##ini
gag
collapse
col
impoverished
##{
collect
ignored
lehman
parks
responds
transit
dawson
1946
princess
##west
##rting
##points
##cana
##হ
correspond
distributions
elle
ready
rejecting
tighten
virgil
lobbied
elvis
powerless
erik
dyed
##⺩
gunfire
trois
[unused553]
hannover
##kko
internment
marlon
denial
apollo
##nets
junta
jumping
cancellation
merchants
##م
##oney
rag
##rella
boredom
ultimately
yep
##ines
accord
comparative
section
ᅥ
kay
1726
closest
’
##א
##erus
borneo
brutality
##tails
##ভ
tightened
##ج
arena
##nare
dashed
fetch
bouncing
ල
น
diaries
extinction
than
##tooth
glen
query
rancho
worm
coordinated
launch
horne
vein
ₛ
advised
cyprus
joins
##rito
manipulate
varsity
##ky
actively
engagement
##lad
granting
discrete
crabs
enforcement
iso
ᄃ
shelter
2009
humanoid
abilities
##enna
concerto
department
confuse
redeveloped
sc
sources
santa
##同
eagerly
##ض
shoulder
tt
lightweight
state
validation
##outh
petra
##tos
rewards
hyun
jersey
hook
##fles
##havan
musically
memo
ludwig
broad
elects
theatrical
longevity
tendencies
##mler
application
##ouk
offices
##led
##tri
tornado
arsenic
lent
classmate
dexter
adolescent
pang
##dium
tre
xii
##chen
physically
advanced
##lium
##missible
reelection
listening
darby
sinatra
undertaking
zeus
coalition
vocational
ares
##ailing
⅔
##ob
prefix
locally
parental
screamed
ceased
reveals
fortifications
leonardo
photographs
went
enslaved
bandages
##●
filmmaker
pisa
า
##sa
retrieve
##elt
weaknesses
gathers
yuan
cdp
##asurable
knots
prosecuted
caps
##och
contributions
brings
defeat
eli
fur
indifference
ss
warp
##ನ
bombs
galilee
##pati
turnbull
esa
##une
millimetres
kunst
clearance
designers
##eric
justices
obituary
fangs
43rd
detect
belonged
hummed
boasts
ogden
hollis
recited
##coat
##gt
asserts
te
textbooks
terminal
##ending
##sbury
##trics
strangled
inclusive
padre
templar
addressing
docks
parsons
##dine
badge
lodged
##mpt
algiers
##20
afl
jai
sammy
committee
je
inactivated
[unused192]
##tine
medium
intrigued
##ows
clumsy
stilled
1795
exposing
kimball
mechanisms
conceded
financially
seat
[unused956]
consoles
itself
##gi
widow
filming
troll
cohen
tattooed
genealogy
paste
plurality
##ggles
papua
cornerstone
machines
##lick
67
albans
ignorant
mercantile
satisfied
tacoma
convinced
##њ
noun
צ
collar
##xt
##₩
directive
calvert
skinned
bruised
gaines
thirteenth
axle
feng
##bai
parentheses
fusion
hug
persuade
futures
stretching
navigator
##ario
entropy
分
##b
beginnings
##オ
looting
shuddering
white
ushered
altogether
##kiewicz
spectrum
##bby
limitations
irregularities
canine
pancakes
shortlisted
lincoln
930
combination
sic
₍
notably
##olo
rests
spiral
henrietta
trains
語
margaret
bombardment
##vine
##？
livingstone
pdf
14
1787
pots
pawn
pains
track
downwards
blossom
##cs
demo
##lou
31st
comments
influences
wheeling
anytime
wta
pitched
etudes
modeled
##yan
35
##dled
clasped
organising
##iring
iberian
##cen
favorably
precinct
representatives
##ues
impressions
##laise
##ba
introduces
involved
##hei
##jo
##tt
stopping
yao
salle
botanist
insignificant
shepard
ferries
liquids
##aj
isolated
recreational
moran
cb
##lock
##ffen
division
longing
preaching
slap
dozens
ping
##atics
exaggerated
adventures
nobility
[unused345]
##lto
##ough
##tat
armenia
earth
kisses
[unused625]
rogue
weber
##星
beetle
odessa
destroyer
re
iris
postage
produce
refueling
##standing
prospect
tim
hawaii
semi
[unused67]
sequence
stationary
car
##chester
##diment
##ente
continent
##ground
alternately
group
##craft
amongst
hut
##kel
cheryl
groceries
lets
museum
pollard
quentin
reprint
revisited
telenovela
approved
testified
sprang
อ
郡
damn
##sul
##uria
##umble
amidst
denise
##chee
##dable
1968
girl
##boy
clayton
swearing
attraction
specific
carousel
##bard
rustling
reflect
harmon
[unused279]
eggs
furnished
ionic
##mage
luz
newly
indian
zones
gross
discourse
modifying
149
կ
bari
babylonian
##em
adopt
phd
travis
ν
##able
skier
prodigy
accordingly
thunder
##sos
130
[unused84]
[unused803]
[unused772]
interfering
##zzle
##rret
##redo
derived
##ttering
linguist
unknown
##rai
ministry
##rnet
amore
##nx
##hs
##ク
continuum
##burgh
filly
forbidden
score
ρ
indoor
shortest
##ther
attention
substance
##rne
1
split
qaeda
so
213
recital
replay
##ulating
threat
pronouns
communications
##entation
immersed
stop
clarity
##yuki
nos
##market
り
##erina
tempting
beasts
decision
laundering
distraction
##ceae
111
restrict
photo
stoke
digits
existed
champs
primetime
[unused797]
archangel
tasha
poetry
182
altitudes
[unused744]
##★
juno
prohibition
293
covert
##tort
sarawak
4th
domino
##nas
realism
[unused897]
fitted
declares
ensuing
37
anymore
hellenistic
##hue
[unused370]
concealed
gothenburg
perceived
279
keating
peasant
psychiatric
[unused17]
##cie
tries
domination
1965
kendrick
##ange
##osing
ying
ᅴ
commission
##mobile
beat
shift
regularly
carrier
transparent
tess
teaser
might
matilda
##enham
##ь
inaugural
##久
tanya
dev
rampant
violence
chooses
omega
uber
1915
serra
uncles
##yde
stefano
thriving
chuckled
losers
stakes
positively
##osed
hiring
##oux
standard
colin
theorem
##pet
yells
decreases
1944
corpus
reinforcements
scramble
commenced
##zic
even
shouted
495
figured
diesel
mongols
kala
sample
worthy
conscious
ケ
##nbc
##ए
spectacle
##patient
shiva
ম
[unused206]
fin
##nham
encourages
##ant
##bus
##inium
##roll
fractured
sprinted
ridden
##rage
circuit
##健
##hman
##ient
##ং
brett
hr
danny
elijah
forced
suspicions
retired
ᅩ
malaya
##bags
##world
bond
1933
resigned
fl
lithuania
##fr
249
donnell
##pel
apartment
fielded
surge
jewel
banded
49ers
outdoor
gunnar
##hre
burden
##ntial
##llie
hart
kills
seasons
ms
incredibly
ingredient
feasible
washed
congress
fortification
mention
bishop
growing
infamous
mold
lodges
despair
##☉
josh
cavendish
[unused844]
raising
exception
canteen
speeds
##sf
[unused960]
serialized
spartak
elimination
##ス
ed
dame
rohan
characterised
chord
wry
columbia
moderate
joel
planets
solemn
##cine
kyoto
romania
1791
##jong
dignitaries
[unused599]
bwv
ச
##wl
lund
thing
##erland
##guard
concepts
dr
beaufort
##rated
cornelius
286
sewage
mustered
miners
ி
##38
bullying
yorkshire
conclusion
metaphysical
ъ
buzz
##ы
[unused706]
inhabitants
##borne
winslow
##inae
bust
##ɾ
joshi
##agh
storing
genetics
turmoil
shone
##kali
##ole
dusseldorf
₈
francis
merritt
armistice
decca
##rable
##wy
##sford
fantastic
##usion
河
##quisite
period
needing
wall
scoop
505
stomped
michelle
stimulation
barons
firm
motif
ne
ethel
harbor
hungary
refrigerator
muster
դ
manifest
ohio
analytics
rowland
doug
alma
bratislava
delaying
koppen
observing
sign
##থ
peaceful
liking
sphinx
elizabeth
christie
hawkins
writer
ars
cooperation
##∂
palette
boosted
appeal
pierce
軍
tko
inspecting
corresponded
temporary
illuminated
oliver
brightly
immigrated
risky
goodness
ₜ
python
royale
explicit
##mina
assistants
樹
counseling
stream
eleanor
quick
spoke
##zow
shuffling
##fication
##urs
enrique
underneath
tobago
bulb
silas
humanity
##worth
sirens
importantly
##vez
practical
cbn
##lined
draws
##iz
educators
durban
internet
departing
embark
mistake
[unused749]
sending
able
courtship
##rr
speed
reckon
raiders
syria
completed
campos
rear
deposed
reliefs
dell
enriched
gloom
historic
unlock
##lene
spinning
applied
la
内
advertisements
##tman
j
stand
appalachian
##bol
sees
renowned
waivers
rest
dangers
bolshevik
infectious
morton
hernandez
##nio
lingered
bucharest
dana
mascot
respects
##erie
verve
turnout
accommodated
##cit
welding
##creen
regulatory
commissioning
arises
competitor
coleman
1642
laurie
weeping
##section
serviced
contiguous
sarah
fierce
[unused447]
use
560
administratively
fourth
ᵐ
presumably
##lley
separating
ও
privateer
oboe
siberian
##heard
offenses
ky
netherlands
cubic
path
gilmore
curt
withstand
rangers
##sm
##ᅲ
twin
faction
##ை
##國
wand
[unused86]
##thus
planet
basil
』
disaster
staircase
love
baptiste
cairo
encouraged
##sic
##iff
drained
telescope
enlist
duplicate
rousseau
ugly
[unused619]
##ulf
scuba
stereo
federal
burgess
poems
164
commissioners
郎
kyrgyzstan
miraculous
dickinson
spec
2008
dodgers
cruiser
restless
[unused993]
arrange
motives
##rose
shirt
pads
hail
##mies
1809
invincible
mika
##pg
holes
laughed
##ச
boycott
nest
##krishna
[unused776]
acquisitions
yearly
##gren
thereby
excerpt
##odes
cove
flores
strictly
iraq
endeavor
dunes
patrice
disciplines
224
hardened
speaking
##ud
1954
დ
annum
darius
haas
umpire
##ches
punished
vote
ya
upgrades
duet
november
insist
fully
latitude
##stone
infused
##§
244
[unused678]
##wled
appears
organizes
may
[unused524]
forrest
matteo
pitt
მ
mcbride
opposition
##bered
conversations
fixing
##hae
debate
##nin
1996
couch
##ouring
centred
stimuli
1956
##emon
##ago
filmfare
grassroots
dog
okay
tons
alcohol
environment
282
[unused335]
1913
jasper
bet
babe
##ugh
tasting
ј
##puram
intake
midland
##lake
panorama
##vert
sicily
windy
coin
rumbling
##幸
faulty
[unused773]
richard
pulses
fidelity
##fa
violation
##郎
marquez
wolff
imitation
quo
bands
inventor
pbs
##テ
[unused237]
ascending
##う
awarding
muse
palace
##emann
luggage
##rat
disliked
carlisle
malice
sectors
see
sleeper
presumed
bread
proficiency
boyle
immune
menu
literal
##ative
salvatore
dramas
scrambled
##sack
ニ
charting
denis
conical
[unused748]
mfa
theologian
keyboards
##ave
simple
##uth
##ht
amman
mhz
absent
atom
hemingway
octagonal
##oles
ulysses
grupo
muhammad
net
portraits
arising
blackout
players
dyer
prestigious
brilliance
assembled
faint
expanding
acquitted
hawks
hairy
occurs
camille
get
station
albeit
##uing
##up
##pu
zone
##met
employed
comparatively
considers
preliminary
##ₒ
viewpoint
tokyo
guitars
leases
##nz
luciano
drawn
sha
supernatural
well
cv
##岡
[unused427]
temps
johan
mayors
theta
wilmington
dow
females
[unused176]
airports
[unused314]
taken
##igo
[unused584]
119
##board
claw
debates
pear
[unused600]
almighty
##beam
1665
1743
worrying
eugen
[unused305]
collapsing
recession
vanity
weed
breed
affectionately
buddha
##ego
pixels
divides
##crats
[unused831]
enthusiastically
explodes
objective
irregular
juice
aisles
sustaining
espionage
cabaret
histoire
##den
leapt
mata
##koff
worldwide
##urai
preoccupied
љ
leasing
镇
1852
advancement
[unused455]
friedman
casually
gardening
hirsch
##kian
seller
winston
##heads
[unused347]
##gled
[unused140]
##stadt
##eme
paradigm
leagues
disagreement
ramsey
morris
##ᵘ
198
##sta
deeply
prototypes
rifles
sagged
[unused974]
establish
apologized
soothe
##a
apparel
branches
lao
finding
using
218
4a
personnel
speakers
audible
hang
conventional
skimmed
##lli
albert
##llet
##riated
benevolent
employees
##bry
##史
assassinate
hectare
variable
pious
[unused167]
∧
dice
outlook
jude
takahashi
eastman
passing
staged
shocking
peripheral
advertisement
polish
summers
tide
ale
governors
prevented
stained
greater
##nberger
tips
remotely
slowed
[unused587]
executed
inevitably
plunge
friar
##ии
##ᅦ
agreement
##uze
##tica
amulet
profoundly
rides
trout
consolation
universe
lucrative
turbo
explosion
propaganda
paces
stucco
participates
tully
earn
regeneration
veterinary
packers
rebuilding
[unused765]
confirmation
##verance
architect
##tick
caretaker
##る
caught
geographical
indicate
longitude
offset
pcs
##ol
speculative
cebu
borg
demoted
fitzpatrick
flushed
expulsion
##馬
walsh
##hang
blog
respecting
speaks
ի
pretend
[unused936]
[unused970]
posthumously
tariff
auditorium
[unused649]
appointment
measurements
##rga
bicycle
##lights
exponential
punt
spotted
innate
microsoft
1858
noel
真
##龸
advice
moist
##bek
nouveau
strive
psychiatry
crusader
inserted
endeavour
##ق
accessible
screams
www
lining
jillian
porch
##bson
marital
methane
spitting
puppet
syndrome
白
rural
eliminating
[unused833]
reissued
tack
disagree
adi
described
zoom
aloud
brandt
stumbling
tang
##nett
##ne
icons
##jee
trusted
1998
##atic
##軍
liability
##zu
##ψ
utmost
winthrop
介
altar
johansson
baronet
visitation
clasp
battle
julio
mba
pomerania
flexible
curly
##ang
danger
vitro
##tua
linnaeus
[unused437]
[unused290]
##cp
litre
clashes
defended
⁰
denton
staging
tackle
zee
##sian
kaladin
##lism
benjamin
421
magician
inherit
massif
ვ
anomaly
incident
maggie
happen
blackened
supplies
##arding
ᅵ
induction
secretariat
hamlets
electrically
prohibits
197
cunningham
specimen
海
##swick
quite
horsemen
contains
##hr
im
albany
probing
55
36th
mommy
##kovsky
faculties
sewer
peterson
flees
guadalajara
cherokee
stitches
woken
宇
##人
transmitted
##治
nagoya
banner
received
beale
mistress
drifting
enthusiastic
1910
pathways
supreme
proponent
guitarist
##rco
kellan
gunpowder
##erty
sell
serials
verona
1988
fungus
##anza
ო
[unused922]
[unused895]
modified
substrate
conor
win
brutal
##kala
sandra
orbiting
ink
kingsley
crisis
##oka
typed
find
dreamed
decimal
415
##dran
generators
gust
prophets
we
explosions
lowlands
##rre
priory
pinto
atop
tyson
mort
##←
shutting
##athan
[unused542]
[unused16]
investors
halifax
hull
fairchild
resulted
pulling
spheres
bowling
asphalt
oscar
pursuits
normally
[unused976]
keepers
managers
constraint
hacking
woke
wii
munoz
straight
##58
##ken
acknowledged
constant
entire
giacomo
angelo
jon
##ios
##kushima
evolution
retreated
##felt
[unused618]
jen
sausage
sedimentary
##い
structures
shaggy
kari
posthumous
sunny
repealed
outputs
costs
yerevan
ashamed
luisa
auto
awhile
##》
atrocities
samoa
skye
[unused199]
reprise
##ης
manufacturing
portrays
array
rains
silky
elliot
outlined
plot
##aud
##icide
scotch
constable
pure
kaye
##anies
glasgow
×
lingering
celebrates
varied
claws
pensacola
##icative
rivera
squadron
seventeenth
##vite
excess
1903
facilitate
procurement
##ldon
podcast
teaches
classification
overly
tolerant
চ
gum
sung
[unused586]
##་
unexpectedly
competitors
willoughby
confederacy
yanking
##ocytes
resemblance
sasha
[unused190]
anthropologist
surf
teasing
exports
folks
sapphire
courses
supervisory
##ddle
भ
knew
aldo
##feld
samurai
216
##18
accident
equality
##slow
bei
##ytic
medallion
cremated
clouds
choosing
notions
##xy
jolted
theodore
derek
declining
visuals
clifton
andrea
disbelief
irritated
206
applicant
interruption
##leen
massacre
##enas
vectors
coordinator
conceptual
stadiums
listings
leone
ᆼ
shrieked
actress
kassel
surprise
##nn
##tangled
laszlo
paso
hilarious
peeked
remy
rovers
chicks
deborah
doing
wicket
because
epsilon
penetrate
##ters
wagon
held
հ
knowles
starved
ronan
##han
subsidiary
fictional
password
intricate
novel
22nd
enjoying
eater
##hay
benefits
fertile
proprietor
wrestlemania
##rard
##ening
##nished
##আ
##nac
dc
gradual
carriers
carla
judgement
festival
proliferation
unleashed
wheels
bracelet
venetian
neal
[unused234]
decatur
leger
slams
weaker
##minating
mariano
seneca
stool
chain
feat
555
becky
laptop
joked
shortly
##ᅳ
cambodian
dar
##girl
comrade
nowadays
swarm
accepting
trace
##phobic
agustin
current
##abia
painting
dh
[unused601]
raked
##tery
cessna
##∞
tackled
##oa
unreleased
##chner
113
tube
##encia
thereafter
rigid
axes
basha
ornaments
pioneering
scripts
burmese
donated
profession
##ores
has
##esis
##ulent
williamson
cache
1842
prequel
pens
participating
tri
technologies
sale
youthful
catastrophe
tech
##lands
1652
creations
##ى
##duced
emery
mk
capitol
taking
##¥
breton
chip
totaling
hollow
foam
classics
welded
royalist
sum
percent
understand
banda
mythology
confessed
##ᵐ
aramaic
tension
##gus
##hui
##উ
##ropolis
tugs
章
inaccessible
exchanged
grab
rv
constantin
belfast
accusation
##rim
replied
criminal
grumbled
matches
1950
bernardino
afc
fries
obtained
error
liturgical
readings
suitcase
##herton
charming
syn
palma
##dan
##bal
90
[unused322]
none
trailer
shows
stripes
[unused644]
catalogue
doo
trivial
wildcats
clair
tad
##ч
regulation
boiled
devon
repeated
1880s
##ece
burns
annoyed
sloppy
terminating
genera
sunk
softball
##metry
laid
##省
##fields
iain
patio
vie
##⇒
747
##feng
dealer
fingered
greco
myth
scans
tavern
##tique
told
##iface
##naire
[unused219]
transports
ツ
sexuality
wavy
carolina
servicemen
jail
##ᅴ
09
illegally
chaplin
institute
evaluating
publicity
enjoyed
cardiff
end
rebellious
##utive
##jiang
cbs
##my
of
pierre
vessel
interested
##imum
ligue
ezio
##rca
lanes
##ppy
tempo
at
intact
thickness
1890
##go
marines
⺼
39th
##run
multicultural
proclaimed
##body
##ience
##scopic
host
ap
learnt
##om
nik
monetary
mornings
angie
##ey
1934
##psy
critique
dealing
performing
pic
brownish
documented
entry
representation
skin
insider
zack
tenant
212
mateo
##bf
hip
awesome
building
cynical
dennis
##∧
dreadful
venom
শ
##ologist
##rons
packet
##uy
##ance
##flies
morals
##山
surveying
syllables
[unused43]
460
ethiopian
unnecessary
##sett
surprised
dhaka
pakistani
##ing
##200
##ei
suspend
commercially
##bers
conductors
witchcraft
[unused334]
abused
randy
affinity
bilbao
##hair
lyrics
目
load
ᵗ
手
gustave
gray
information
greet
lowering
pharmacy
1800s
##囗
ロ
consumer
##arian
163
„
##漢
vegetation
contrasted
interchange
##channel
##door
gala
太
await
##udeau
drunken
surface
##udy
60s
celtics
panchayat
taxpayers
##rana
cleared
lansing
proponents
eyes
from
[unused575]
★
ariel
exceeded
sympathetic
terrible
##igraphy
##buck
##orf
lviv
##gens
brain
##hana
claus
boy
burrows
d
satisfaction
subsidies
padma
hadn
##utnant
unbroken
believes
##rave
[unused225]
##avia
compromise
abrams
handful
jim
kat
restaurants
feeds
tabitha
olga
##ィ
debt
mushroom
ₚ
##text
kildare
colossal
jem
fare
##34
possessive
[unused594]
destructive
##rigue
[unused689]
chin
ng
mused
lovely
##scope
bedford
jamal
##ය
classifications
##մ
horde
less
ornamental
schleswig
subsided
hurling
pastoral
talmud
##rth
##真
[unused870]
##phs
hines
##bc
##box
mouse
hara
rb
##kato
##保
initial
##igny
registry
fungi
enraged
renegade
units
prominently
##ore
beheaded
monaco
vendor
lutheran
logging
precisely
[unused760]
##zio
johannesburg
recommended
snuggled
collected
ص
chanting
invasions
matter
ก
nude
lexie
darryl
स
gorman
ʂ
plunged
converted
##dal
##att
alterations
ව
belgium
1837
catholics
breaker
trails
logs
##ნ
gesture
##lding
ן
golden
harlem
##sha
pile
privileges
staten
不
designs
letter
bloody
##35
cain
fossil
racial
cleanup
xiii
students
seeing
downhill
##bow
pit
tapes
283
eureka
##el
lap
shopping
foliage
academic
accustomed
drugs
stacks
orphanage
pitchfork
garbage
1960s
insight
chang
pupils
desmond
designer
notion
oakley
ா
blue
##rant
ob
dorchester
infinite
rep
administer
establishing
nz
strolled
gurney
dir
fuck
##mament
kitchener
lumber
nellie
surged
##inia
##imus
fiance
iphone
privileged
1860
caller
##ars
##proof
interceptions
ages
##hearted
mating
##sling
1808
barn
##ttle
denver
contractual
cathy
##sat
##emia
pristine
conservation
##upt
##icus
##till
##hmi
[unused802]
bleeding
amour
vigor
presentation
sergeant
hopefully
corresponds
##gg
彳
##57
##ssel
skilled
ucla
vamp
##tute
anchors
##connected
contribute
explorer
apt
exchange
vacuum
ɑ
ubiquitous
##idia
crumpled
midfield
accolades
approaches
jerusalem
##46
revenue
##urity
jerking
anand
born
touch
childish
##athing
##eria
tile
historical
##down
minneapolis
remnants
skiing
1618
##zquez
##ifolia
accumulate
##tina
insignia
rue
suppressed
lazarus
imperfect
statute
##ो
overheard
clark
ﬁ
laps
[unused810]
unused
couple
sawmill
[unused122]
compliance
fauna
incarnation
rumours
##inated
##ett
forested
э
annex
montevideo
##broken
isle
incorporating
teaching
hadley
traditionally
bowled
wilkes
vowed
unusual
み
##ndo
would
slightly
recounted
[unused387]
##bian
beyonce
condition
##eyer
brittany
##raj
governance
coe
competitions
##rmi
luna
gemini
generate
w
##mann
bracket
chases
paulo
nadu
##ua
lessons
hobby
paddle
symbol
bias
consequence
derives
maritime
tape
tumbled
para
months
adored
unnoticed
##定
many
326
simplest
condemned
glider
thrown
malawi
complexes
poland
243
ode
##rop
phil
藤
grains
[unused747]
indo
chrysler
##chia
investigation
steep
##onis
airs
intimidating
ˡ
employing
steamboat
importance
##nation
[unused868]
##laze
##宮
unlikely
apache
long
safeguard
##月
posing
106
し
stamped
cas
nuremberg
##ₛ
maya
exemplary
storyline
heartbeat
amount
motions
lined
spill
[unused743]
##eal
crawford
son
crane
45th
bosnia
peyton
187
partnering
raided
bat
guillaume
##ayan
elevator
restraining
yelled
ᅭ
hoarse
deeds
trap
##mental
reflective
advocate
printer
atm
half
return
botswana
##sma
acquaintances
barrels
pieces
zur
##erre
eligible
##ว
[unused160]
need
lineup
ɬ
[unused193]
engraver
uploaded
believer
goblin
pack
breuning
syracuse
##folding
[unused308]
prayers
seton
supporting
odyssey
##hes
nes
##ril
synthesis
br
meg
zac
wary
panthers
worthless
##ger
##gp
seating
betting
hormone
combat
##skie
functional
regulating
1812
1604
perfume
frontman
travelers
##rgeon
agra
gospels
school
##や
recovering
arte
cooks
##ism
##ori
objections
too
cornerback
maiden
[unused821]
##most
##dle
gentry
[unused405]
idiot
payne
##lini
cleaning
sound
1849
arbitration
bullshit
filthy
ceiling
pedal
offender
##son
legions
##eno
##mons
sony
##cks
sandals
imprisonment
saint
cable
elk
instances
smacked
[unused659]
cork
estate
##nted
powder
fins
appreciated
peas
##क
couldn
##kota
##pot
certain
##wani
##加
connell
workers
evolving
constantine
[unused610]
articles
mig
rihanna
[unused18]
##ய
pump
fay
notch
##oud
##▪
inevitable
rose
ᄇ
fighter
specialists
grocery
unpaid
3
voltage
objects
##mis
concession
[unused373]
sabah
paternal
成
innsbruck
kgb
1646
[unused708]
##thermal
##cter
[unused177]
##dale
maris
doubling
wrestled
novgorod
disabled
rebound
1762
remembers
##rien
coil
ether
earrings
seasoned
talked
##har
##icz
novelty
⺩
ming
patience
[unused823]
valid
disadvantaged
conan
colton
robot
##group
trolley
nonsense
1931
##pro
##♭
analysts
曲
governments
640
clubs
cruz
walter
tract
awareness
laughs
prospective
fuji
realize
##furt
##ysis
strings
[unused639]
maker
davey
blah
##চ
gloucester
police
trondheim
howl
noted
sneak
##aa
necks
angel
graduating
hailey
aliens
##hesis
bengals
scenic
##ي
writes
ro
johnny
qi
##ław
egyptians
##cars
##nko
hodges
questionable
generous
solar
they
dai
##astic
fenton
clenching
armoured
drunk
vicinity
α
progressed
certified
[unused721]
manufacturer
##lea
sponge
jericho
sued
nudged
lei
townland
77
levin
elephant
powerhouse
##ju
wed
shrinking
administrators
somme
##oof
[unused527]
[unused339]
astoria
intense
treasures
##ic
independent
franks
domain
##ʃ
heresy
chloride
gui
hometown
regional
平
straits
column
##fire
##53
##load
ti
425
diploma
gamma
##rdes
st
jena
1963
chevalier
sciences
##sse
horton
169
##rot
bayou
nolan
plaques
document
darren
stipulated
stormed
##hoe
circus
encounters
were
husky
nee
dilapidated
operas
regimes
quakers
rankin
counterpart
##rae
sql
women
servers
consider
irina
direct
parenting
च
[unused317]
##cheon
##w
blackburn
galley
contrary
silvio
##wed
save
dusk
diplomacy
##ier
servant
outreach
recaptured
lists
advent
involves
franciscan
mia
sufficient
prisoners
bobbed
##ich
marked
newt
spine
treated
transfers
reinstated
##tier
sparks
buenos
jin
everyone
catastrophic
apprenticeship
basically
dropped
nguyen
trailers
corner
writing
virgin
##ala
acheron
##xin
bank
ensign
##ტ
distillery
stay
##mbre
leading
lillian
##lellan
sigh
bros
villain
invariant
spends
sleeps
td
florian
##tative
##mology
attends
avengers
muscled
cromwell
dictionary
yeast
##tham
subcontinent
male
wee
walton
somerville
fairbanks
exhausted
damaging
##lo
nineteenth
hastily
lancaster
realizes
lineman
simply
charleston
mystical
##elled
frontal
##erson
##car
healy
pointer
ferdinand
notation
hitler
kamen
newspaper
palmer
golfer
just
faerie
ting
viper
statue
auditory
jared
##rch
enoch
##christ
took
crater
##gna
delivered
buffet
kickoff
vincent
wilder
##nce
naval
stevenson
inscriptions
rick
compartments
[unused101]
pissed
offered
clicked
nutritional
passes
response
wolves
[unused771]
420
##lang
feature
##sw
bishopric
oz
countries
##erton
malay
##unes
barnet
##osomal
eponymous
sap
swing
require
##schen
comical
yamamoto
boo
lanterns
mono
troy
jamestown
poker
##水
horses
librarian
funding
ngc
uncomfortably
##bbly
hyderabad
##ive
mughal
##ization
infringement
houghton
holiness
becoming
261
reddish
program
members
screenwriter
stein
estimates
requiring
[unused745]
##gami
landed
gambling
checkpoint
stereotypes
could
follow
middlesbrough
invitations
##mour
[unused941]
fridays
##mite
mixes
gabled
##oya
larry
marilyn
sheridan
土
james
implying
prepared
疒
##cology
blankets
parc
prostitutes
denote
warns
groaning
hooks
victory
burn
thayer
##rise
heron
##lk
criterion
highways
sino
##ishly
##ο
fifa
adult
aerodynamic
gee
button
mick
##zing
turbulent
sunglasses
##ik
ow
##nitz
##uppe
##uled
##cts
##wes
karnataka
##ʰ
modules
##kled
dock
fond
swiftly
##cht
tennis
valleys
tourists
suns
##js
specification
screwed
[unused499]
selections
trainee
6
lilly
##nger
[unused923]
##acker
elisa
addicted
##watch
invite
##州
mcdowell
##drick
##nel
dragged
reece
relentless
extraordinary
murray
##chal
semifinal
##routed
##cin
##iam
coming
armed
considerably
haley
stuart
alzheimer
##ciation
causal
excluding
rhea
##opa
marketplace
##比
forming
morse
ᄐ
et
―
wagner
##tung
89
1660
1975
##phate
##iji
pedestrian
mock
bacteria
barclay
1889
virtue
comets
exploitation
sandwiches
campaigns
deals
leaking
mayhem
[unused501]
##els
urging
enrichment
inspiring
mozart
##mming
observers
sober
jane
naomi
sox
sandy
emissions
##phones
homage
##gated
##dorf
fuselage
⽥
heck
brand
nicholls
england
equally
joker
lying
mildly
sacramento
string
##良
hints
食
pope
battleships
##eca
madam
tessa
flowers
quartet
##hara
σ
##cta
kids
##ᄏ
##ec
bout
position
##忄
##bber
आ
##長
[unused602]
hits
moss
##ophone
landon
bodied
##na
194
liberation
litigation
reductions
compiler
ctv
##hian
convince
anticipation
court
est
##som
rails
フ
[unused28]
attracts
char
topping
emerges
sword
commuted
##estra
##path
[unused69]
[unused777]
armagh
lausanne
##fb
smiling
opportunity
wetlands
spins
[unused829]
towns
bleed
290
hydroelectric
removed
protection
trenton
գ
isaiah
hesitant
mourning
##bold
##rdy
hopeful
pendant
membership
##cular
selecting
tau
1978
amsterdam
move
##₁
behave
loyal
##ᅩ
mario
since
interventions
squadrons
epstein
ron
grand
229
fed
triassic
1609
drills
##utz
911
berber
##wear
marie
policies
steaming
[unused132]
##nad
administered
subordinate
##nton
hancock
sarcasm
[unused83]
refer
mu
currents
##dah
##hawk
ching
exclusion
randall
の
##gai
##forms
##ホ
porcelain
##ncies
##gence
challenged
neck
##marks
constructions
breadth
kazan
##ning
energies
remnant
##tian
##lz
dollar
embryo
##子
ன
##ου
[unused561]
291
##エ
momentum
plaza
duties
theatre
##車
denies
explode
michael
alternating
overwhelming
yd
sector
cheering
can
affair
clubhouse
amused
connector
airing
##ash
##con
infirmary
thicker
##lr
##base
retailers
##rdon
placing
essence
nietzsche
ascribed
revenues
depleted
corrections
distinctive
gb
snail
simon
broker
partisan
protections
cavaliers
ensured
fishes
reserved
myra
anticipating
councillor
defend
toxic
immersion
flynn
cameroon
ella
shrewsbury
beech
##adan
deceased
flashes
##ml
including
sociologist
##pl
crumbling
yourselves
movement
##urian
bodies
coincided
senior
##mmy
##მ
##ited
baxter
prosecution
now
lit
[unused843]
##iba
exceeds
disputed
decreased
rodeo
##field
о
##en
ruiz
[unused213]
side
##mm
gaining
reformation
##ل
[unused592]
##ca
##59
dates
1653
prohibiting
bits
dick
##eaux
pistol
##hold
##rith
champions
prophecy
oswald
sampson
sweaty
synthesized
vhs
surveyed
л
chaos
calvin
tingling
presently
regal
hesse
mini
prevalence
##ali
adventurous
neutrality
cannons
handcuffs
weather
eating
##ர
##fare
sponsor
_
stalked
水
hammered
7th
外
207
cosmopolitan
similar
recognizes
710
homosexuality
##itic
##belle
interim
##dou
marches
reflections
stafford
##-
pmid
kahn
clicking
normal
printing
subsequently
monthly
exploded
france
greene
ia
deciduous
rugby
amazing
mccain
district
civilization
lately
chickens
tens
succeed
gave
traveled
shocked
##wer
medina
yoon
tulane
##au
encompassed
shandong
schemes
call
verity
power
radical
plum
ব
strikers
liga
##der
shoe
dimensions
disagreements
democracy
tolerance
coaching
cousin
1869
custom
mapping
muriel
##tched
philippe
1850s
##nae
##ᄌ
moses
mit
ে
[unused250]
threw
hopeless
unidentified
metaphor
coke
wanda
opposing
##lub
carry
##lore
車
eton
bharatiya
seasonal
pasture
wiley
alexander
fought
calmly
availability
inappropriate
##acious
illustrated
##heart
consuming
##weiler
intentions
##pf
malley
##of
##lde
[unused239]
argyll
litres
stresses
vila
requirement
heaved
spat
rods
[unused409]
##dition
hissed
evacuate
##ou
choreography
##α
lester
splashed
##rricular
##cross
bombardier
宣
printed
syndication
gaulle
mesh
1793
ض
##gins
##istic
pierced
announce
recycled
##ial
fundraiser
##氵
adjusting
##kla
ideology
milano
westward
hatred
singers
somalia
orb
mrs
176
lass
crazy
unconventional
##iction
kumar
eaten
enrollment
skip
adjustments
adequately
##歌
bangor
successively
##力
appear
colleges
##litz
kevin
inflammatory
78
diverse
nbl
divers
shoreline
malls
slapped
faye
student
##…
assumes
experiences
cote
trash
kyiv
##lem
advising
erase
barriers
attracted
turtles
bilingual
stroking
helsinki
certificate
juniper
##ples
arizona
##आ
networking
worlds
[unused451]
someplace
peaked
ross
##plication
hamburger
nephew
conqueror
cooke
alligator
[unused266]
##‡
rubble
kerman
paisley
base
undercover
socialism
averaged
[
##tsky
blending
par
canadiens
ira
good
dress
elevations
##pid
len
nightmares
ruben
talent
##œ
athletic
howard
##iling
1732
tu
1952
paperback
patented
chemist
holidays
##ث
keith
windows
refugee
delhi
recordings
combined
radha
baker
##ental
terrifying
purposes
thieves
stripping
tablet
##horn
bloomberg
intervals
1918
travers
climbs
engage
galicia
makeshift
##umatic
willow
vii
mala
arrested
mach
##đ
neural
generalized
mausoleum
twitched
##光
rf
gamer
realizing
symmetrical
##kat
crest
##ators
julie
aristocracy
restrain
tatar
endeavors
husband
lungs
##moral
pitted
dams
##laus
ろ
exceptionally
regained
ing
culturally
##ious
pondered
sanctioned
ferrari
##vili
appalled
probation
##ivate
towed
blush
skating
gleaming
##を
presided
bricks
##hon
durham
##چ
lowland
##lla
blinds
otter
issn
alerted
occasions
ithaca
guts
##eer
maha
equations
kidd
thatcher
melancholy
retained
zaragoza
meteor
reassure
##sis
underwood
[unused911]
magnet
##uance
motivated
stalin
collier
erosion
converting
##ト
cruisers
os
##sten
closet
fades
201
reds
throttle
mas
hardly
##ᵇ
##plicity
[unused629]
impulse
ե
nebula
wadi
squeeze
cervical
uncanny
implementations
oversees
##վ
lacks
trucks
whatsoever
##nell
##ᵍ
[unused300]
converge
endorsed
hunter
nov
[unused231]
question
edgar
subfamily
technical
##fighting
shattered
byte
agreements
##hin
diagonal
clap
freedoms
consistent
##26
piece
rite
butch
montpellier
medicinal
encyclopedia
ieee
tombs
##ƒ
heights
chalmers
##～
finley
lair
я
[unused531]
strife
fascist
mysteries
grew
politics
telugu
lateral
unfit
hangul
yesterday
musik
rotated
companion
thanked
##cina
1984
ep
world
phase
ancestors
specimens
mao
catalonia
gases
goran
himself
pops
29
predecessor
tufts
##⊆
brewery
##see
##井
cat
craftsman
ventilation
wears
usually
baba
tribe
##ayton
abducted
recognizing
井
decades
illumination
as
##ɑ
olympian
##turn
maintaining
panama
mcmahon
entrance
##omy
hastings
likewise
outnumbered
clarke
aberdeen
commentator
degree
passive
sacks
acronym
remote
##uising
initiate
島
lloyd
##firmed
peerage
prix
liza
blackwell
priests
##ocks
variations
shorter
jimmie
lionel
management
dockyard
[unused31]
ve
retorted
circumstances
distal
gov
perimeter
tent
##mun
ན
##ity
##beau
ritual
##mund
[unused879]
baja
wealthiest
mum
recalls
##rus
##mini
extra
sinking
frequented
##ɨ
henley
improvement
mi
reflection
whoever
new
162
waterfront
##ually
##zzi
newfoundland
เ
1990s
ct
clover
##nging
dortmund
##ম
##sions
atlantic
sweetness
flinch
##nem
##tower
anzac
meantime
##ose
etc
##pipe
contributed
originating
ث
##ס
brow
##¡
reflex
##oth
##rring
##51
cypress
nrhp
rochdale
##oir
yu
ni
theorists
slashed
peng
elderly
[unused34]
##stor
##tility
utilization
##rce
##°
永
marks
村
aroused
caution
[unused658]
herbs
eldest
motel
##neer
izzy
sequels
garion
kept
wo
beauty
photographed
1699
nitrogen
##rba
brewers
educate
results
##rup
[unused402]
##ied
chaplain
front
malayalam
##¤
acidic
carving
rosary
glanced
staple
confrontation
ejected
reactivated
thus
heavy
lizard
boss
nick
mean
topography
whip
##ceptive
dung
rough
light
distributors
locking
[unused159]
freight
ives
artwork
disabilities
44th
bait
##uga
electronics
kurt
##66
older
##sau
twists
##yria
overdose
warsaw
finite
##ense
fabric
hallways
permits
podium
pour
retracted
attested
routinely
##grass
mama
patton
theologians
wilderness
reflecting
washington
##ear
endowment
##義
z
י
kayla
orchestra
programming
analyze
##rger
ren
spruce
leiden
prolonged
coincide
bernardo
formations
།
##making
variant
chronicle
hoped
lew
unsigned
ghent
apples
semantics
kamal
civil
##la
newcomer
skull
java
fury
inch
seated
emblem
##sso
##orough
dani
grip
pembroke
indirectly
alleviate
gangs
間
routledge
evans
##ho
##lander
##ナ
##部
hammond
toll
boyer
policemen
##fect
##u
marijuana
antarctica
sabres
walnut
##ola
relocating
##dina
[unused925]
aching
augustus
unacceptable
##と
choked
##sque
##⺼
examines
silly
similarity
goddamn
meadow
vehicle
waving
sympathy
khalifa
lulu
superb
papers
##hini
transmitters
unconstitutional
仮
repair
##28
ours
##kes
cheerfully
##xi
##nco
muscular
informant
cho
perspectives
colombian
##eche
tottenham
drive
attract
karen
musical
rules
chuckles
value
bastard
courageous
##ს
##ほ
appendix
inuit
##奈
graph
ignited
sparkled
sneakers
diagnostic
candace
closeness
extreme
##cion
gigs
computer
silesia
barack
abu
impact
adele
debbie
251
deadly
marin
[unused150]
uncertainty
middleton
americana
salaries
saturated
spurred
azerbaijani
modification
wickets
songwriters
dust
##sation
forum
huron
bitterness
drummer
taunting
##⁄
pipes
consumption
nigerian
munro
honest
print
##eptive
patterson
##ster
##anov
koch
participate
17
stiffly
##ロ
edna
offshore
homme
untouched
##moto
slab
travelled
অ
eternity
antics
profit
unwilling
doctorate
anniversary
sped
[unused316]
[unused256]
##ask
headed
spiders
cognition
reliability
##ple
deteriorating
338
404
apologize
graphics
[unused688]
innovation
mandir
yang
conferred
scarf
tehsil
electrons
##via
##স
descriptions
12th
[unused945]
nemesis
cardinal
freedom
monk
proof
##‘
reins
zombie
র
ceilings
pac
stylistic
nantes
pass
fortunate
scandals
indicates
newton
##cede
bromwich
moor
##ddin
vibrant
mythical
এ
appropriations
ipa
presence
tits
wood
cairns
##pre
tagged
##թ
stokes
jammed
replacement
devil
kv
brandy
undertake
kitten
##ducted
laguna
colonel
##isman
mid
identify
spending
166
[unused564]
session
##ability
athenian
reached
videos
barrier
ョ
1895
[unused421]
kabul
##lle
[unused962]
1632
hemisphere
resolve
##da
##light
₇
##block
##in
##hee
reborn
wendell
沢
adultery
apostles
ryan
casa
cottage
##ically
davies
comply
malone
##chuk
deposit
stampede
п
glint
##cera
ominous
1832
garlic
philosophical
smack
thai
##ressed
##li
##lines
##fat
gaius
montreal
##akh
08
bulletin
##kis
provocative
oval
relatively
[unused932]
##sus
vows
direction
uta
administrative
horticultural
trumpet
,
difference
##comb
ran
doncaster
musica
##stic
shrub
tomas
hit
sophia
##nami
climbing
motor
commitment
is
often
curated
critics
##gum
nonlinear
bluff
dfb
##vas
strap
goo
rain
##riation
##ac
20th
[unused112]
##lide
multiplication
rejoined
מ
candidates
ł
[unused557]
rocker
47
jill
vegas
##氷
tattoo
##ₗ
ipad
junctions
resisting
conversion
##shaft
espana
##poo
cabins
equivalent
competition
philadelphia
н
dunkirk
##roid
exam
ɔ
baptized
##let
methodist
00pm
sanctuary
riding
##eye
##due
earning
onstage
wash
weighs
kicker
clinched
ability
jacket
maharashtra
##sol
malvern
##jn
dorsey
compressor
critical
respiratory
1623
bergman
kade
prevention
tutor
imperial
##ᵀ
siege
##hered
97
crimes
health
schmidt
##hal
blitz
doctors
dilemma
ක
beach
attitudes
##cula
roared
daniela
plantations
recall
oxfordshire
cab
reminiscent
moisture
nat
も
出
brakes
muted
nobody
internationals
arrest
bernstein
barrie
naacp
[unused92]
knights
threads
individuals
##take
[unused415]
inventions
tuba
hans
whipped
yen
continual
##brate
cautious
catcher
habsburg
austro
lucivar
meet
finale
wards
specifies
completely
##trust
artifact
prefer
airplay
unity
band
广
pitchers
removing
##ru
dauphin
196
nc
scanned
##oped
opus
sing
##del
nighttime
260
星
1866
cosmetic
stemming
brass
eta
exhibitions
bombers
faculty
glacier
regina
##backs
trunk
ر
masculine
hertfordshire
celebrate
shortage
transitioned
imply
nancy
##発
instructor
resentment
havilland
щ
##mate
reykjavik
peek
jurisprudence
bliss
arching
dec
1704
sega
kw
spaniards
##cene
##gue
##pura
[unused559]
aesthetic
##utter
championship
exchequer
##90
shoot
sovereignty
##tric
##貴
brightness
affection
alarmed
empty
thomson
haunt
##tea
banished
peacekeeping
[unused549]
##dus
incorporate
runner
##fusion
contemporaries
olympia
themed
##cock
akin
hope
clearly
rd
includes
glendale
rodgers
karachi
##ridge
suffix
hounds
[unused187]
foxes
£1
anita
##म
theo
prized
treatment
phonetic
survey
twelfth
[unused254]
snatch
deer
flattened
##dd
14th
whereas
remarked
国
[unused248]
[unused616]
desktop
intending
laird
##grin
140
[unused292]
added
combining
##rie
tar
megan
fly
wax
##nl
quiver
twist
conserve
easier
horse
mirrored
successfully
yuri
##mart
constabulary
##gie
symbolism
chamber
##nah
##foot
beirut
enthusiasm
questioning
safer
observes
rector
pietro
chieftain
maharaja
rpm
sponsoring
slipped
hockey
[unused799]
##ல
##dding
##hat
patel
##hli
canal
face
rubbing
freaking
cannon
##খ
dorsal
retains
皇
freshmen
resolving
grapes
《
sadie
drag
clever
##خ
oddly
volcanic
xiv
lightning
poole
川
saul
##oms
##typical
##nar
franz
treats
[unused302]
335
ounce
[unused676]
##ale
theaters
comic
homer
##≡
visible
challenges
##dicated
##air
[unused315]
commuter
fisher
版
chamberlain
riots
##hm
[unused298]
complain
piper
reconciled
contract
scholastic
##fia
stadion
continue
antagonist
modulation
escorts
top
##hony
cigarettes
latvia
foods
[unused319]
allen
captain
##card
[unused570]
##dicate
selangor
º
disgrace
deserted
##hta
haunting
##ways
##ime
clarence
licenses
commissioned
porn
strains
都
1831
shrink
behaviors
##itated
gas
capitalism
[unused764]
advantage
opponents
propulsion
believing
##rita
##yra
list
blade
psyche
rooms
merlin
issue
prompting
ur
budget
bey
carries
moe
catch
woolf
dallas
ie
emphasized
raja
snoop
174
kilometer
vienna
zhao
##if
##ino
attire
tori
month
:
##ifice
accuracy
apprehension
1630
mechanics
rosenberg
##ruff
breathe
##boat
##ema
bloomfield
fatigue
grooves
plastic
##eau
sp
##ll
##↦
anterior
nearest
nt
tamara
awkwardly
##tious
cheeks
painful
demonstration
p
##ন
##二
њ
faults
夫
rally
liszt
oceanic
unveiled
punishments
vane
adjacent
hewitt
drastic
demise
tolkien
soundtracks
ninja
##po
advantages
defaulted
##th
frederic
fused
temper
concrete
##enay
recreation
##gno
asserting
wheel
calculating
provisional
analogue
sucker
##dome
##iol
consultants
toxicity
promoters
suffolk
bamboo
newark
##ksha
##wash
##ffa
battlefield
blond
compliment
cruises
sauce
[unused205]
strongest
##late
##life
##ama
backstroke
pamela
pas
advances
##so
shuddered
forefront
onward
##factory
appeared
tasmanian
stirling
##ulously
colorado
negotiated
funds
忠
permanently
corridor
⅓
undertook
sato
drifted
training
voted
meat
slices
disk
[unused949]
##drive
[unused51]
##ni
[unused916]
cinematographer
symposium
nigel
archway
405
matrices
sensitive
label
located
delivers
diameter
##hn
playful
dharma
tossed
##icides
appropriately
##mie
fees
##wright
emanuel
[unused354]
disclosure
lantern
##nta
##tis
orphaned
cm
agreeing
australian
##ered
hoffmann
[unused841]
hideout
mcintyre
##wny
##zzo
epic
reserve
rice
subsistence
transactions
facial
[unused953]
##inho
algae
thirteen
kilkenny
losing
bethlehem
mongolia
[unused540]
considerable
fraud
rn
venerable
flashlight
##tel
##power
protagonist
miracles
場
##ans
variability
responsible
illness
jarvis
poking
innovations
chu
ironically
##−
essential
[unused375]
buyers
antarctic
##\
callie
veil
messengers
relegated
character
ist
##lling
oskar
weakened
granite
messina
р
tomatoes
michelangelo
trends
え
concord
coyotes
asteroid
forcibly
harvey
##ility
allotted
##vation
nothing
desk
toned
compose
latvian
##shi
1841
perkins
nak
crime
1851
sixth
stated
purchase
##tech
1702
iv
##ked
easiest
managing
countryside
gp
scrapped
stable
transmitter
notre
constitute
barangay
##tori
boost
##powered
##reen
marry
marble
maneuvers
##vn
variety
knife
forearms
##var
ones
terms
volcanoes
louisa
else
##quet
aeronautical
##wley
coloring
sutton
com
brunswick
rounding
painted
shareholders
soviets
ᴵ
torn
toss
noon
##oese
parisian
microscopic
rift
[unused351]
##ulton
celine
[unused369]
dmitry
memories
issued
main
##ain
started
թ
definitive
air
steppe
花
eyebrow
regaining
wrath
naming
210
paralympic
horatio
[unused573]
cycle
speedy
second
[unused368]
glided
##ndra
cha
[unused131]
embarrassed
##ctuated
411
directorate
##rained
##icles
eerie
rc
chimneys
sporadic
tragic
³
garden
##kki
bahadur
make
robber
ravaged
trick
lady
tod
istanbul
habit
dripped
ole
sts
thinking
transmissions
ʻ
arc
[unused462]
ヒ
bologna
beats
four
narcotics
1612
map
kramer
##itz
ava
bisexual
rec
sean
conversely
emotions
##uez
##asa
hoax
overlook
arrivals
squat
straightening
sleeves
primary
halt
commits
lords
martyr
rendered
sunrise
##ended
spiritual
shoving
andrew
warning
jesuit
supervision
rising
haji
taxpayer
organised
veteran
beliefs
sip
presidency
remarried
hays
castle
priced
left
meal
##nidae
##osphere
feasibility
marshal
thin
braced
economic
##try
chevy
livestock
sumatra
cleveland
resident
coral
rightful
villa
monopoly
[unused129]
area
walters
seahawks
otis
qualify
swiped
[unused963]
dustin
shine
attaining
paul
aachen
antigua
accused
hartman
voting
wednesday
horrified
substituted
slowly
shed
accelerated
crawling
##vres
controversy
depiction
presses
##iser
##him
rotherham
balloons
[unused283]
lacy
shooting
stuffing
行
##ana
skate
spence
##xide
[unused848]
someday
sustained
exhaustion
##µ
immunity
ք
モ
oblivion
cast
##志
##lster
mechanism
treating
##static
staring
beforehand
abbess
universally
safari
李
sold
ग
##fest
replacing
gilles
##wi
dissertation
##phonic
percussion
##mill
##recht
##ten
1664
depict
ˢ
miniseries
sanford
##ה
##eli
wilcox
##ices
arabian
suspiciously
城
considering
ट
delta
attempted
compressed
⊗
##kova
ultrasound
compton
##dson
putting
cobb
shotgun
wa
armenians
canyon
regain
clinch
consisted
crops
##raph
industrialist
[unused456]
guidance
famous
##llah
squinting
johnston
##los
avalon
militants
fellow
wen
##andra
##ilis
timbers
世
terri
1300
improvements
daughter
deeper
∪
糹
##uven
sheath
saber
thursday
nerve
fairy
finn
nh
soto
æ
marjorie
学
##ュ
dissipated
##erated
herman
breathless
psi
meditation
incumbent
algorithms
folding
##eti
die
flawless
##zam
glamour
###
figure
##dened
hybrids
[unused715]
##bots
##vu
##arable
auburn
fantasy
leicestershire
ongoing
proposal
##keeper
prostitute
robyn
warring
monarchy
##yd
bypass
prime
##ص
radically
¾
stunned
growl
trillion
counterattack
willard
embrace
##cence
comfortable
wrist
mod
clarkson
doubles
ibn
##ester
consecration
da
##no
##⇄
##ary
di
khan
commerce
##ivision
18
tears
collapsed
activate
##nov
lend
metropolis
smashwords
borrowed
##hner
##nist
hatch
personally
pont
175
programmer
saskatchewan
swamps
ل
nielsen
470
hinted
sacrificed
smashing
nagar
kane
obviously
porter
sanctions
myriad
accepts
battery
collateral
stratford
approximately
legislation
batch
civic
fifties
you
physics
enabling
als
tricks
philosophers
border
[unused41]
sire
marvin
♣
height
##15
##dog
boar
bury
drowning
pursue
inspire
schuster
jo
recognised
##otype
1900
amanda
280
precision
norman
arbitrary
discussed
orderly
solitary
reindeer
jordanian
nord
ju
##ᵢ
climbed
guru
kyle
embankment
ile
nottingham
stick
plight
transient
##zell
hem
alpha
especially
ahl
financial
##sive
squad
##?
將
basal
bumps
[unused476]
commemorative
##nir
##ischen
##tees
abc
kazakh
faso
avenge
##escu
arcs
osborn
rothschild
##erry
##etto
slice
stumble
ankle
newborn
##lina
plaster
branched
juvenile
##ished
deviation
inquiry
hungarians
##ege
infancy
walled
rendition
[unused269]
##bedo
1967
overboard
lesions
sonata
##rium
strip
vendors
##kie
##aga
##ssi
ण
similarly
neighborhoods
##pods
ten
traced
welterweight
adoptive
twisted
dancer
##ila
alyssa
dempsey
gi
eats
javier
spice
##rations
##ள
escaping
pensions
purdue
cent
ﬂ
40th
##《
##®
midway
宀
delegation
71
southeast
spirits
ymca
apologies
scranton
receptor
##red
[unused845]
autopsy
carvings
fanny
task
designed
handled
browser
license
criminals
##rates
##way
ordering
93
derry
schooling
headache
bats
##mo
millennia
307
mounds
procession
##nca
quilt
1635
carved
pointedly
follows
吉
##hole
azure
kent
beginning
maud
1770
offended
##kling
periodicals
##wave
[unused343]
tours
pressures
guide
finds
kant
retrieval
macarthur
segregation
engineers
console
tuesday
1768
expands
midnight
##rgo
##ame
##ties
marxism
##ps
##ticus
programmers
pushing
85
flames
gundam
sincerely
qu
style
64
ios
groundbreaking
cutter
1834
merger
michigan
unmanned
relocated
##yeh
recoil
assent
iroquois
apical
respectable
[unused260]
bi
glance
annually
##ef
crowded
jang
scattering
cries
##ogen
crow
##ssion
ethanol
honneur
reacting
renew
forsyth
absurd
[unused212]
expand
association
friendship
##永
liquid
korean
marriott
scrolls
shah
totally
summit
ukrainian
spiked
finals
probably
amounted
##san
magnate
playhouse
disclose
¡
##adt
gables
##had
##rked
shipbuilding
speculation
vulcan
encounter
assessing
fluid
##nay
georgian
kangaroo
##sław
isa
voluntarily
fitzgerald
frankfurt
grimaced
##rse
ultimatum
audio
latham
governor
nicholas
strait
##rone
##sar
##ened
sacred
barracks
sultanate
apes
[unused713]
[unused957]
encourage
moscow
researched
ɯ
”
log
tidy
##rase
human
nature
madeira
reservation
##ergy
hydra
##ch
noteworthy
battling
disciple
casting
alpine
kerr
##riz
quincy
entertainment
mammals
～
##lins
outta
##cheng
ec
[unused216]
double
thinner
patrols
m2
reactions
steered
freud
##bury
contest
sometime
imagination
broom
##aldo
##jected
developer
##ory
##ex
chew
ft
！
cartoon
##uda
softly
stir
organization
weasel
##ining
##zie
buddy
##falls
visitor
1773
licence
[unused487]
butterflies
issuing
there
harry
##pic
##wal
1740
differently
fell
janeiro
magnetic
addiction
##hima
communicated
monograph
spreading
contingent
##示
hal
flop
[unused5]
judiciary
1928
bjp
immigrants
zambia
naples
[unused203]
annual
jet
examples
namely
lima
analyst
breast
files
pencil
fulbright
mood
swaying
[unused655]
15
cinnamon
feathers
##四
progress
chests
praises
surgical
proceeds
rave
craved
labeling
##toy
manpower
vine
田
bark
extinguished
fingertips
heidelberg
wagons
##ioned
will
discouraged
dunne
severe
oxygen
##urse
almost
clutch
apartheid
##dhi
##ulin
cheung
vaults
tensor
1894
cords
##terol
singing
rushing
[unused136]
##working
fulham
##pis
things
aspect
grinning
##ups
##sun
migrant
##武
##eurs
##ari
##olis
genes
1550
fine
##tam
hq
languages
massimo
peters
sustainable
##cd
flights
##uram
greed
weren
##ally
autism
##bner
ascension
ignores
safe
attempts
hammering
winner
without
paterson
sr
flooded
##cc
##ruck
seaside
turbine
leyte
consume
desperately
seeks
259
garry
##ghton
bottom
streamlined
queen
controlled
merely
cell
ukraine
##pes
corsica
absence
coasts
willingly
[unused729]
##rook
##edly
scholarships
forgot
kun
grateful
peninsular
terror
##ographer
aurora
##bad
##tf
neighboring
bce
itv
liturgy
migrating
gujarati
shouting
##∘
##ᴺ
sleep
masonic
disputes
cpi
ways
gael
pueblo
ninety
alternate
emmanuel
contacts
cristina
consumed
bonn
tailored
fabio
##rf
answered
trouble
mans
##oda
versailles
caroline
ı
blushed
autonomous
arboretum
##zbek
advertising
126
clauses
giants
##ennial
##gn
flooding
opined
##stis
##道
##成
crystals
excavation
become
mclaughlin
##8
markers
##berries
##aha
museums
bordering
decent
announcing
seamus
inning
forensic
publish
longtime
orthodox
mla
mates
##itaire
[unused9]
amplifier
crap
cafeteria
discomfort
fated
hanged
lucille
[unused325]
clues
coven
eras
look
人
[unused35]
khorasan
reef
[unused367]
immense
genius
lucinda
tendency
dylan
##hus
declaration
quezon
walks
greeted
institutes
niger
##iver
253
cannabis
violently
finger
##ditional
clones
[unused698]
encountered
mph
##graphs
viz
say
education
scar
##land
precipitation
rhetoric
##izing
fcc
[unused889]
##ssing
metre
intermittent
julien
wimbledon
ask
electromagnetic
optimistic
[unused761]
apologetic
product
stifled
mistakes
torque
atmospheric
beside
gastropod
obligatory
radioactive
dalton
guerre
registrar
tonight
rejects
buckinghamshire
hierarchical
situ
waived
[unused972]
whereupon
whom
interviewed
drones
guineas
##安
robotics
millennium
news
gandhi
disturbing
[unused767]
dimitri
paranoia
##ɫ
longitudinal
##fe
ark
shrimp
caf
##bay
bolsheviks
dresses
coloration
seventies
##^
##rative
counties
1737
jungle
##李
ensembles
##elli
ashton
additionally
material
outer
##17
里
##⋅
rage
typing
slant
##vah
reduction
temple
##ggs
050
clint
chester
serpent
mx
[unused695]
pavilion
##tze
invites
crossbow
identities
government
corvette
informal
olivia
ousted
riff
purge
vale
##far
brightest
##ze
香
##otho
processes
marvelous
##nda
sanity
zenith
shuttle
gripping
assigns
embraced
murphy
winger
##ں
##all
reach
greek
tabloid
##語
affiliate
##rish
mackenzie
2000s
rosenthal
馬
centres
vhf
neon
[unused891]
treatments
##н
operational
[unused825]
melting
pts
berkshire
elevation
passage
##urst
##linson
paramount
tense
peeled
[unused754]
gemma
##ichi
levi
##mbe
background
jar
##μ
westchester
dodge
palm
mccarthy
38
materials
bennett
##uba
leeds
telegram
click
##our
melt
statesman
giant
byron
##vere
##千
knitting
preparations
##amp
1940s
request
educational
connection
legged
rama
1890s
feet
vulnerability
casimir
hilton
squeak
swings
shepherd
sixty
186
ac
usage
181
##cope
##dgets
##say
sudden
€
shielding
schumann
friction
##eia
comfortably
##ن
roof
predicting
steak
##stein
oversized
ع
assist
fantasia
k
indicated
##เ
darmstadt
wet
frozen
gail
departed
effortlessly
falcons
##zard
[unused508]
dil
غ
##glers
##rino
hilltop
stockings
whenever
renovations
mo
milton
achievement
##code
countdown
tee
区
##carriage
##nity
[unused632]
tapestry
telecom
madman
gotham
prologue
broadband
knight
underwear
cigar
marrying
alexandre
swans
picturesque
##phile
eve
chile
death
1605
peered
politely
maternity
ག
[unused428]
scenarios
woo
##neo
cunning
##acy
transition
漢
prosecutors
##cous
lecture
serb
##lizer
aging
mutation
##±
void
[unused647]
gr
##ি
chair
occupy
directorial
tory
[unused374]
mobility
renumbered
useless
pereira
##phic
actor
dotted
receivers
steal
illuminating
##lav
[unused519]
msc
remains
slept
##hett
natalia
ashland
drives
maxi
premises
⋅
##jevic
cfl
messaging
engineered
escalated
acclaimed
roma
forge
tucked
##bis
[unused275]
diana
sink
##ast
1603
##dor
##fed
5
lucan
suited
favorable
[unused142]
jewels
bombing
pig
ncaa
dictatorship
##ped
depression
phases
alison
##stems
1016
##atus
titan
partner
athlete
composing
consortium
##ල
compensation
武
afghan
quotes
prosperous
admitted
geelong
supplying
skinny
##rix
114
naughty
revoked
weight
bard
conduct
dormitory
##brush
##isi
[unused902]
##aina
foreword
21st
##st
reversed
204
4
girls
doubted
##lynn
28
##point
dumont
[unused988]
aggregate
wolverine
blood
colby
regency
darted
##め
gregor
minsk
pea
steamship
billing
caucus
341
pep
opinions
aquitaine
ᵤ
enzyme
spacecraft
constructive
surrounded
better
bulge
##dote
buying
crambidae
##wehr
seth
##islav
##oo
yelling
gathered
francs
washing
raise
崎
likened
impending
leased
diva
evaluated
kirk
rufus
ᵖ
1751
[unused842]
victorious
pomeranian
propose
##氏
originated
enactment
recognizable
sakura
##lved
##ц
inauguration
##空
commissions
##ink
##vus
ismail
waiter
garnered
उ
##holes
kali
algebra
100
observe
disturbed
auschwitz
bakery
##yana
mississippi
##dek
bis
liner
2d
fable
estuary
##dles
bb
recorded
##xed
1742
dissatisfaction
##baum
wrongly
##shin
##dna
##¦
relegation
glimpse
nino
survival
optimism
watered
##cao
bouts
leadership
uv
workout
reorganization
satisfying
sides
##dav
2017
filmmaking
##tton
josie
ʳ
owners
fra
adversary
instrumentalist
parents
dared
flanking
back
gdansk
andre
reggae
vicente
candle
crate
mavericks
##edance
operatives
[unused536]
##giving
68
contemporary
revisions
上
[unused718]
coated
golf
pregnancy
obscure
postgraduate
uttar
cube
##uming
##more
##39
creditors
[unused195]
##zyn
temples
↔
practised
recently
spring
telescopes
consultative
russell
scratched
coping
graf
##church
[unused463]
##titles
[unused297]
bangalore
flung
##cala
testament
tourist
shaped
hostile
##社
[unused153]
upbeat
ء
abel
##pw
subscription
defeated
confiscated
pal
psychology
contents
422
piled
bobo
romanesque
つ
coal
breakout
##ous
##bot
somebody
risked
supervised
drugged
crosby
##puri
張
previous
680
relevant
₎
interrupted
gora
##ite
usa
parallels
retreating
anxiety
additive
##oue
laced
snack
styling
buckingham
garland
##後
foolish
core
ス
##ury
clone
practicing
remodeled
comedy
partially
sock
signed
[unused372]
mixtape
preach
differ
founders
metallic
warmth
##tidae
東
networks
tweed
##ъ
hunched
commemorate
melted
freaks
sant
pretoria
##lag
capital
utilized
hitch
charted
##э
108
##unds
psychological
##″
##ythe
varying
##tten
−
kiran
ending
express
boon
strain
filtering
maldives
peanuts
crab
[unused591]
follower
mccoy
reintroduced
##ₕ
vega
briefly
olsen
##フ
transferred
##sto
##tin
ana
merry
cochran
salamanca
ধ
kelvin
woodland
swami
chat
somber
belle
treatise
anime
horribly
racing
proctor
##ffey
##pe
beak
hobart
##21
bonfire
flowering
##race
scalp
##ilia
statutes
pedro
streets
finishes
repairing
airmen
3000
layers
##ocene
##orno
neill
##kar
portico
seek
orient
belgarath
fossils
##mity
##uri
naturalized
op
pyrenees
august
malcolm
directing
##eles
ideal
texas
fires
duncan
provider
##wn
liberty
##ش
nightly
dying
##lies
communal
tangible
tribunal
##ி
throne
##erative
##stead
unhappy
baggage
butterfly
pertaining
1972
##ent
fife
infant
appetite
superhuman
quasi
allegro
##yuan
2010s
[unused444]
coffee
gods
narrowing
raf
eireann
calcium
demonstrations
sweeps
##kow
viewed
bleak
tab
tattoos
##bane
increasingly
admit
clouded
pillows
recover
tehran
1769
linking
pause
digging
##街
doyle
1724
gallantry
dependency
planned
arrays
inclusion
lev
liberia
poised
##erin
##lin
tally
⟩
」
renamed
hillsborough
##法
neighbors
coca
verb
##bl
lasting
unicef
##₂
##dden
populations
surveillance
vargas
##dler
belonging
tristan
86
informing
suggests
##tra
number
reports
##ifiers
elaborated
glasses
settler
los
netting
taiwan
##ellant
exchanging
##dana
forehead
##ode
wines
outs
decide
gaming
sindh
motion
adjust
##bery
backyard
nissan
grandson
idiots
inaugurated
##lita
truly
archaeologists
butte
boca
##ting
present
travellers
subtle
backbone
undoubtedly
##)
law
dwellings
<
protocol
harrisburg
conducted
sighs
bertha
expected
kanye
[unused806]
##thor
romano
disappointing
enrico
fragmentation
corrected
annexed
##e
gut
brown
##tc
##frid
[unused790]
greeks
ₙ
giuseppe
middletown
1649
ind
century
perfectly
##ᵖ
frost
##inking
afrikaans
cocky
ordained
neuroscience
##ppet
swimming
bengali
habits
john
##sper
[unused198]
##vc
hooked
robb
shortages
##wise
audrey
finalized
depicting
hedge
spartan
fairs
rid
##pc
parliamentary
subdivisions
ᄊ
success
tied
meters
##ently
reared
intent
booker
gettysburg
##前
instinct
##×
designate
simpson
##ط
either
##rford
madden
thrive
came
linguistics
gates
rubs
##ve
empress
chunks
attendance
dragon
jesuits
novi
tortured
pius
happens
##dis
multiplayer
decree
##hard
solvent
maximum
recruiting
pearl
command
auditor
seventh
reinforced
fishermen
handle
lagoon
jacqueline
##貝
##dilly
》
blooms
1830
##oro
##books
railroads
[unused711]
european
wrapping
seized
[unused944]
finalist
segunda
tajikistan
capture
originally
funk
southport
warned
ralph
references
christoph
##ulo
facades
stairwell
hurts
coastline
blazed
charlton
ن
生
automation
audit
adhere
veterans
sleeve
av
[unused991]
blanca
santana
spirit
fiona
alumnus
stormy
[unused489]
martha
##atable
##vna
ghana
roderick
senators
1961
minnie
defines
suffrage
robust
barcelona
helmets
[unused589]
mina
pines
##jord
trumpeter
##rug
vogel
##ste
fresco
rattling
##sov
distinguishing
paler
expedition
##mins
maple
purchasing
murderers
roadside
conflicting
##stock
1919
##евич
erich
massachusetts
forcing
bartholomew
strokes
##cho
[unused858]
##3
shoulders
##rry
induce
craving
lad
##wall
antoinette
rossi
casualty
##nie
cd
##lik
mindanao
unopposed
##y
##harat
payments
marrow
lasts
psycho
contraction
counsel
##tase
##hor
pegasus
judaism
palais
##otti
rex
neighbourhood
##ut
surely
swell
flush
overnight
##eh
##mac
##rder
vinci
adaptations
ᄎ
prototype
form
glove
##rous
stefan
athena
orbital
shortened
[unused365]
later
phoenix
thwarted
indifferent
ರ
##zcz
farmer
ே
sparta
koreans
provinces
##ovsky
authoritative
bush
selection
installing
##oto
grades
average
moldova
chassis
vijay
jerome
##khov
扌
everyday
athletics
archeological
initiating
magistrates
##rner
bachelor
honda
leach
##ums
##kou
hardest
hui
elm
##む
islander
##scent
##ium
zhang
gabriel
gloucestershire
huge
till
##train
vinnie
affordable
country
dessert
casey
jeffrey
eels
##arded
nixon
convention
kobe
duane
gifford
##mare
snaps
tripped
##obe
asteroids
clare
crushed
##oja
##ig
rat
##rians
authorities
middle
##omba
##minster
hezbollah
rio
malta
rubbish
##ancy
##quest
admits
shovel
kilograms
argus
##ович
##י
barked
baroque
prohibit
thoroughly
boxers
##行
messiah
youngest
argument
undo
##gul
engine
exists
##香
1899
##60
donor
ノ
contain
##aton
brighter
##!
##wg
cancelled
214
compute
most
interfered
##cked
berkeley
cindy
footprints
generator
cooper
1878
modest
interactive
##間
1827
bernie
caine
##bi
wolfe
##onga
upgraded
rim
pretty
socks
general
##pon
##10
industrial
##³
##gill
ritchie
shells
ga
－
lust
muttering
skills
発
celeste
este
restriction
preserve
quay
surfer
sheltered
enrolled
##len
##low
##uded
mclean
viral
nail
##ool
persians
aid
zinc
ι
holders
devin
##nsk
facto
proxy
maze
fiesta
traders
cobra
բ
indus
##nish
[unused876]
boots
died
##etched
gould
clinics
theodor
##cke
##ida
pairs
silicon
trophy
valley
marina
##coe
##fast
pneumonia
##endra
##note
kung
purification
stumbled
mask
wrexham
##cut
##⁰
##ᄋ
##rok
alps
cougars
devastating
ordinance
sessions
reliable
##ngo
leopard
stranger
##上
mayo
reminder
dimension
leaped
tiny
nj
65
confident
harness
reason
##iography
instance
penn
mixture
occurrence
cop
melody
ש
difficulties
california
pages
effort
##ع
jaguars
prop
thailand
princes
∆
##ford
concordia
helmut
deserts
insult
misty
asking
122
opener
dissolution
done
begged
artworks
lizards
urged
perth
onboard
armand
tailor
gallant
reporting
years
collection
##ʷ
##ules
metals
##ⁿ
belgrade
tn
##ea
##ə
[unused871]
264
judgment
supplement
southward
gazing
lancashire
vichy
##mat
##lah
171
উ
duty
designing
pendleton
##ರ
fifteen
hand
malabar
cancers
thrusts
afro
##さ
##rned
mortality
ponder
resumed
scarlet
bethel
wound
##8th
replica
legislators
v8
aviv
incorporation
mangrove
ada
non
##balance
##ghan
decline
escorting
gustav
officials
##ffe
hatfield
local
148
ξ
admired
bridge
berman
fisherman
##laya
motorola
1798
synagogue
c1
aggressively
1760
±
##roller
rubbed
propelled
##cle
##off
genealogical
likeness
[unused59]
harmful
puerto
anya
attracting
1891
##ss
blackish
pamphlet
predator
select
doorstep
##num
stealing
##cr
congregational
##les
biplane
##lices
topological
yunnan
bentley
千
looking
r
written
##used
##mana
pounder
islamic
γ
、
gall
spin
drawings
cory
inherited
sbs
##je
bug
sentence
273
##jk
##ao
jarrett
forth
togo
investigates
arose
##chang
##ט
multinational
##sted
arrival
calls
emphasizing
largest
mcgee
mussolini
nominees
▪
wig
venice
pushes
winners
shorts
##at
bribes
neptune
piccolo
コ
photographer
konstantin
interpretations
##dern
guinness
indefinitely
##tou
moniker
boxer
buzzed
attending
harrow
hairs
diamond
##baldi
‘
bundles
##ف
breached
areas
neutron
sedan
murmur
install
soaking
rooted
ik
yates
[unused80]
doses
workforce
nano
quietly
[unused782]
attained
##æ
keenan
scripted
##achal
screens
ads
ร
berwick
dubbed
1728
norwood
dogg
skirts
##gler
1655
lottery
##bre
[unused621]
##ello
cocaine
springs
views
wang
repeating
transmit
age
darts
##stra
unwanted
satisfy
tyrant
##bler
##ciful
##ti
##ivating
roots
##ever
001
[unused686]
ashore
susannah
##ξ
##nc
155
space
persons
##pala
gradually
μ
depicted
settling
ւ
settle
##rangle
improvisation
opposed
##よ
pi
polgara
aiden
tore
tablets
##and
mortgage
wetland
##logist
bill
departments
76
[unused189]
tx
realise
##ignant
grandmother
hispanic
##rt
clements
emigrated
[unused529]
exposed
major
web
wien
darkness
##chio
formulated
feeding
monuments
charles
duo
society
spokane
ll
willed
##sters
via
debris
1900s
deterioration
arranging
jacob
plainly
[unused350]
##mmel
blacksmith
1781
[unused755]
chart
screen
ս
##dya
##յ
1744
nonfiction
bar
aj
brianna
indie
[unused15]
##lak
##cken
completing
##nte
academia
justin
searches
xml
instability
coughed
candidate
##ա
hearted
sprinter
bp
cupboard
perform
maclean
puff
##宿
introductions
celebration
##bution
lump
parcel
stalls
melville
against
committees
unaffected
華
sulawesi
vc
transplant
greenland
##aghan
hiking
business
meiji
haunted
##rrado
lorraine
stage
lucien
botanic
##bau
##∅
ո
garage
brennan
##ts
##for
[unused477]
drains
fen
northbound
rogers
plate
yuki
criticisms
downs
##dner
hovered
affiliation
##grant
petals
1100
gallons
mighty
perez
##rk
##kk
ambitious
atlantis
collaborations
acids
demetrius
presented
rampage
[unused955]
isaac
jessica
improvised
compete
risking
smile
flick
virus
##eil
widened
decides
variants
##ising
determining
broughton
bomber
scriptures
swap
plus
bryant
##erik
inspect
nay
ᅳ
##lard
##cam
alt
broadcaster
innings
##mbling
##ᴮ
chrome
director
approx
praised
rosy
teased
vladimir
##tries
starts
mosque
gather
##egorical
handel
idea
identical
##ition
[unused233]
##dh
nomenclature
scales
##fold
molecule
reigning
##κ
digital
hamilton
trieste
complicated
motorized
flagship
##oys
favorites
lover
qc
southampton
hurt
installation
nawab
antonio
configurations
newcomers
edge
wounding
chest
wastewater
cult
framing
stroll
contrast
timor
lion
spectra
##res
treasury
hospitalized
##burn
##cini
##tablished
acid
musa
attach
bryson
transfer
mud
tunis
cecilia
vera
knocked
maddox
soap
[unused679]
harris
parachute
sloping
armies
##adi
seminars
sinai
##。
pitcher
carver
##は
introductory
cassie
keynes
statehood
bayern
ш
amin
daytona
financed
heartland
petition
catalytic
focal
##shida
germany
integral
jihad
hides
ns
partial
patricia
plots
##rl
##mony
enforced
rockwell
locality
synth
killing
breath
indictment
spartans
##♦
friday
failed
besides
plantation
vegetarian
##ango
dail
futile
builders
##fu
##apes
##bu
mercury
transvaal
political
islamabad
operatic
weddings
mcleod
countered
na
jian
screenplay
damon
terre
admiration
jobs
struggle
sac
recreated
disgusting
substitute
allocation
##ulsion
turkish
##tucket
phillies
##ieg
herb
illustrator
##⟩
[unused724]
ottomans
damage
settings
zach
475
criteria
hawke
##space
calculated
─
##ado
anguish
translator
##sume
pointe
##rand
insect
announces
liberal
mysterious
nazi
innocent
cedar
corrugated
ends
lawn
guido
morrison
##inating
##thed
62
barrio
moines
parish
baritone
wishing
airplanes
##iness
envoy
##政
markus
generated
fractures
##forth
patrons
##para
ashes
aw
##海
##立
vis
##nburg
##tres
slowing
##tures
orton
carleton
[unused151]
vacation
ℝ
nl
patient
vineyard
tractors
##nsed
[unused710]
lafayette
sized
visions
##aya
##lberg
horror
saxophone
sprawled
##yles
年
calabria
850
withdrawal
1790
##dget
##grade
merit
[unused854]
[unused318]
confused
certainly
##flight
considered
snyder
regime
interactions
社
competing
hell
hotel
leicester
majority
harp
7
[unused242]
magnesium
young
markham
##ness
indonesian
थ
prakash
leah
1789
jakarta
continually
csi
hamburg
motorsports
failure
formulation
vowels
nicole
fried
##houses
102
uppsala
reed
1974
##arus
publishers
tv
realization
ley
manitoba
chopped
melodies
ravi
viewers
assure
consisting
flood
impressed
naturalist
##tream
##学
optic
mann
aerodrome
##ades
descendants
monitors
render
thanks
fools
th
earliest
##花
castles
facility
⊕
wi
claire
pc
gorgeous
01
referring
terminate
banners
continued
##ggle
##jima
##ics
battista
margot
##hire
generation
rafael
brig
small
##main
karlsruhe
½
##प
isn
packaged
stunning
##polis
sworn
reforms
penultimate
##30
##sh
films
postponed
year
consolidated
isabel
combo
fascination
billy
feel
repulsed
##eson
##arney
categorized
cub
production
reversal
thames
##shed
[unused597]
bo
diamonds
villages
##ero
##nto
##rona
soothing
king
shot
investigative
##hos
267
periods
yukon
comparison
surviving
spectators
mills
olympiad
『
##ikh
inhibit
unto
##mon
##↔
zurich
##tura
timetable
agencies
laughter
spokesperson
producers
textile
##orne
յ
pigs
originate
##usly
ancient
habitats
##vor
##brick
janet
visibly
##unas
##taken
06
intend
parting
terrain
男
clara
serve
moderator
benoit
disadvantage
perpendicular
##sier
##gf
##⅓
ₘ
captured
links
glands
heroes
daring
weakly
য
plotting
##age
ebert
deserved
dynamics
louise
reading
collaborated
filtered
foster
photos
##rti
tq
story
incense
presenter
##ms
pirate
lastly
transportation
ʿ
hazard
[unused633]
ku
##ս
purported
foremost
evacuation
hampson
##person
valet
№
patent
sparkle
devised
kaplan
deputies
wisconsin
godzilla
madeline
consumers
biblical
##nery
[unused488]
anywhere
taped
##ک
1752
##trix
##λ
##り
conducts
moons
##uit
##eborg
pet
merging
bodo
seals
carefully
##venting
##logical
italian
spinal
schedule
##orth
advancing
##oder
disposal
1645
intermediate
unless
[unused611]
##ided
henson
##arns
ு
##wheel
und
bogota
triggering
[unused61]
approached
sorrow
penalties
roofed
##wig
georg
dismissing
southwestern
##•
drumming
collarbone
exploration
##rlin
almond
prayer
##wai
leveled
radcliffe
customs
"
psychiatrist
controls
lia
##tad
##pta
alleged
food
prevalent
[unused778]
cursed
sentimental
##mont
##cting
lifelong
undergoing
marshall
pavel
creaked
##oping
ᶠ
geek
##ality
225
picking
##zle
kinds
thrusting
relocate
zhou
park
##rica
camped
kilometers
##pper
##ı
jake
reconciliation
yong
heard
simmons
royals
谷
belize
##ue
device
##bbs
##amine
augmented
handball
flaming
##チ
cabinet
##mum
mace
cadillac
tying
[unused79]
uzbekistan
ය
stared
1983
compounds
faded
episodes
jennings
光
columnist
backpack
##ப
tiger
brody
brit
outfits
shares
peg
##culture
##jm
ou
protests
##ological
403
##ido
ramon
app
##bola
glare
squealed
vocals
holstein
showcase
²
arteries
##bed
intriguing
equivalence
##kney
minorities
は
recovered
profiles
##hani
ʑ
[unused56]
america
appoint
bruises
forces
capacities
ᅲ
vulgar
invitation
mitsubishi
let
ィ
absorbing
visiting
holm
daryl
grossed
paralyzed
austin
germans
violating
historia
տ
technique
draft
[unused677]
capitalist
##tia
understands
speaker
⁺
appeals
centenary
##book
bach
##ヒ
reaction
##chers
malaria
weeks
scaled
##rbin
##ders
price
dude
situation
##ding
##truct
wins
glaciers
enemy
[unused681]
[unused126]
despised
observatory
sphere
##rge
##or
##0
abbreviation
liver
412
##liest
digger
largely
slamming
##hua
##р
##南
basel
nutrition
##bbies
indonesia
##olic
##谷
vodka
wear
usual
wizards
lip
##4th
##rton
piedmont
tire
oldest
purchased
shouldn
tapping
countless
sail
andy
codes
boards
punjab
standings
[unused169]
##eres
help
hotels
lawsuits
1736
dong
outlaw
winged
501
parkinson
##vel
cathedral
occupied
a1
arrangements
##ior
##enburg
aggregator
situated
##eron
labelled
national
polished
reconnaissance
booking
investigations
[unused227]
strengths
1800
diving
labs
nuevo
sizes
232
comprised
negotiation
##ize
##mbs
knocking
##ᄊ
bingo
##d
##mer
committed
constituencies
endemic
trickle
launches
responsive
343
##bolic
##won
customer
##ape
[unused93]
conclude
gregg
##max
fox
ached
lithium
distress
roster
barking
##な
russ
falcon
##vira
##52
consist
consistently
[unused410]
hornets
mirrors
##ム
writings
kicks
ha
shell
claudia
overthrow
awaiting
aggregation
line
orthogonal
¤
zeppelin
posted
44
diverted
##enbach
1735
shapiro
3rd
theological
ricky
gable
entity
hub
1640
##yer
remainder
##heimer
tune
cardiac
erwin
jogging
exercised
delivering
部
##京
remake
sierra
66
users
clergy
##yed
immediately
founding
##gh
##і
##col
signs
ad
distributing
terminals
##hog
gym
rotation
同
whatever
precursor
seeming
竹
airborne
cottages
formidable
sims
italiana
##hiko
dean
roach
perfection
reflected
poses
runaway
seriously
deliberately
html
conner
##holding
karate
burton
vinyl
islanders
audiences
have
##udes
quebec
shaman
amid
geoffrey
sept
ː
appearing
coherent
rouse
contend
braking
fm
pulpit
marlborough
##ख
automatically
maverick
neil
proteins
##ossa
assess
1782
doorway
ineligible
pork
32
##ross
chesapeake
prostate
satirical
pictured
victoria
##chison
##ply
consonants
dale
##enary
tool
foraging
humour
plan
boat
4000
relative
organic
##(
##lam
barbie
donna
gaddafi
121
jade
amir
proposes
ideological
有
interviews
tin
lauren
boot
stronghold
weave
stopped
##uting
##ز
fan
chelsea
##chi
iec
upstairs
contradiction
##etta
##hore
loosened
dissemination
##stered
communication
protectorate
southbound
##yar
wives
tables
newest
parked
service
drenched
oclc
##aver
packets
hidalgo
parrot
una
packed
garde
##ists
vicious
vivo
browns
gasping
wilhelm
emails
fe
##lis
huddled
seam
坂
hendrix
ortiz
overlooking
bureaucracy
grade
accompanying
centennial
judged
19
grille
patches
maintain
adjutant
##jured
allied
dies
motorway
[unused90]
estonia
brno
##cule
kings
encompassing
skipper
discussing
##hart
fuel
furnace
cesar
##berg
titanium
##iae
karin
amphibious
raju
restricting
rotting
orson
alphabet
coupe
camp
militia
[unused311]
penis
‖
ж
relieved
226
[unused669]
[unused687]
wade
evan
cleaner
mic
maximilian
bucket
##zhou
##llum
priscilla
##ark
lotus
chartered
downstream
inflammation
venus
##gged
1641
170
##之
contacted
detrimental
cracked
distortion
sequel
cannot
popularized
wylie
ր
##zon
np
intercourse
flank
grimes
cartridges
cricketer
greatest
railroad
waterway
angered
splitting
adam
tenor
possessing
swimmer
wrecked
fake
scandal
frankie
289
1904
passports
##თ
mirror
drastically
fordham
[unused472]
leaps
grafton
elastic
phenomenon
circulating
provides
triple
compares
paced
sienna
##ski
bit
rubin
brands
316
educating
##nant
ostensibly
steady
testing
siena
commons
night
urgent
conceived
##nni
##ux
sichuan
vegetables
grants
##iform
schooner
##igh
archdeacon
sport
disapproval
southeastern
glowing
69
indicators
rappers
furthermore
compassion
##is
theft
tennessee
[unused554]
##kumar
newscast
##™
christians
quantities
##kus
pigeons
planted
proto
penitentiary
crowd
ter
playwright
##re
roc
cleaned
van
newmarket
mansions
##aire
215
cancer
八
absolutely
righteous
##ease
varies
[unused522]
formal
reluctantly
辶
##chemist
foyer
[unused702]
humorous
asher
alfredo
hiroshima
norwich
solid
aqua
marshes
龸
devices
spying
284
ɴ
territories
fans
educated
gaunt
scrubbed
neither
december
##zone
periodic
secretaries
rca
1757
730
hp
spencer
##区
##12
free
camouflage
##ב
sundays
palestine
charley
mad
rockets
cells
rhythms
sheng
yoga
bauer
chase
earls
flint
subtly
manfred
bunny
howled
penguins
atmosphere
##od
ensures
nodding
##beat
expectation
##cona
##hen
##while
toys
mora
1806
confederates
inputs
north
archived
uneasy
1748
cares
democrats
見
demanding
vantage
##mei
authorization
genuinely
sugar
კ
cello
rhymes
##500
inaccurate
##24
##м
rebellion
trusts
wicked
habitat
increases
##nee
maids
blunt
genetic
forgotten
sparsely
eu
crash
purse
cart
##ety
bolted
hannibal
##vb
best
sweatshirt
aesthetics
[unused964]
grit
quartz
playoff
henderson
fifth
weigh
##ych
benfica
hands
magdalene
##cript
southend
folklore
fulfilled
##inton
obsessed
person
##sham
lured
##gly
rankings
vatican
raid
engaged
chorale
guy
poisoned
[unused4]
##手
##ب
mister
জ
gentleman
if
ripley
yielded
ozone
cartoonist
mandatory
##د
cruising
harsh
quinn
##－
##dora
[unused156]
##平
concept
compliant
connie
containers
kuala
##原
cortex
#
rapids
reid
stranded
vip
robbed
##nched
downtown
few
lamar
1739
radiation
tatiana
lounge
colts
deleted
pinched
##cano
1722
crook
notable
uniform
difficulty
proven
##ase
##notes
770
responsibilities
cooking
pathetic
saliva
sixties
petrol
##oku
collided
##metric
congratulations
israeli
ᄀ
creative
seeking
theoretically
winning
daylight
shelley
easter
raised
##lch
hd
chuck
helm
##ova
genetically
goddess
cross
##ath
##linger
tallinn
arabs
b
communion
twigs
##time
fundamentally
modernist
1709
ћ
melvin
##ggio
##sk
##ₙ
auxiliary
rode
vibrations
[unused87]
##tonic
##kos
laval
##gonal
##¿
guardians
separately
snarl
peacefully
##cing
##eased
dose
mind
streams
dioceses
##games
saving
aggressive
bite
sparked
339
softness
tick
tulsa
##ße
priest
[unused975]
##⁷
bautista
##nage
##apa
337
cameras
##imov
bravo
housekeeper
167
ness
regular
sinister
size
tainted
а
gives
amplified
burying
fragile
flirting
##ood
organs
336
consular
million
destination
##ks
coyote
1848
trigger
[unused940]
onslaught
##zai
##uch
evacuated
depressed
income
##ection
[unused929]
characterized
assessments
hard
occasionally
priorities
these
aids
bubble
newsletter
strapped
juliet
´
[unused894]
faithful
##ats
en
narrowed
challenge
reunite
waved
##charged
constance
iced
maybe
##oot
projected
key
seconds
[unused47]
oleg
##rator
1797
shipped
##ව
keane
##iving
conducting
chief
binds
attendant
dioxide
curator
nets
16
1690
##inate
traveller
##ran
segment
beatty
paddy
refugees
↑
microscopy
crowned
virginity
depending
ltd
reforming
lex
##方
sea
recruitment
##щ
##master
popped
twitch
participants
heat
curry
marche
shy
sanskrit
landau
mbc
cyclones
denied
##hoff
cfa
commonwealth
##iente
ironic
mazda
##hak
kendra
pleaded
overtime
iucn
spontaneously
rating
amy
baccalaureate
briefing
[unused183]
seeds
ligand
##nsky
cadets
outcome
wheelchair
##nall
clancy
伊
foreigner
91
kiev
dime
persuaded
smoothly
##ate
professor
ɲ
mana
[unused766]
michaels
rms
ammonia
slower
carole
arousal
kowalski
lola
##ـ
##ந
1821
childhood
bum
dominique
emotionally
fringe
herald
fishing
##bbed
imagining
relaxing
argent
[unused134]
rhino
rum
u2
undermine
hive
sends
incorporates
rap
##rization
deserve
grasped
hires
##azi
##pathic
##₉
essendon
fiercely
connecticut
ground
cinematic
catfish
meanwhile
intrusion
qualifications
##kker
copies
airlines
mystic
exquisite
mobilized
expenses
sensed
observer
abe
dracula
hilt
elias
folds
rulers
weaving
precious
橋
1911
##feit
corporations
ample
religion
retro
remaining
1993
fits
リ
##gnant
simplicity
jimenez
##a1
estimated
flickered
##rnier
gustavo
hansen
prescription
unspecified
thug
keen
published
treaties
guards
latino
##sil
##gizing
テ
dover
jumps
ab
cardboard
slated
1939
##τ
##iq
marquess
##otto
##⇌
kato
schizophrenia
contrasting
km²
endurance
monsters
##cic
israel
dismantled
goldberg
##stov
##nated
medication
セ
##eering
##het
referendum
capsule
viable
leverage
platoon
##works
calm
sardinia
[unused532]
unreasonable
canary
punches
##⊗
##ada
fatty
social
vietnamese
sheen
tributary
programmed
さ
[unused281]
herring
inferior
buckley
ramos
324
descend
##на
[unused961]
angus
patterned
adopted
cockpit
editors
shitty
nathaniel
1000
award
pride
extends
recipe
roads
elector
##version
##dity
##orestation
asserted
nu
##zumi
amassed
neurons
camps
threaten
lacey
##roup
sheffield
[unused712]
eel
##ais
businesses
##ards
vertical
[unused613]
##ants
209
christ
mm
suicide
pollen
urine
##+
afar
##kir
##uni
ظ
##ricted
##chai
soundtrack
wiped
guernsey
cu
furlongs
emerge
puzzles
rippled
sherman
fairfield
michel
##lok
chess
caring
knoxville
jiang
sank
turn
##ions
conspicuous
₂
package
donations
ducked
hades
pga
melissa
user
fulfill
1st
cf
erika
val
assassination
superficial
summary
##oke
gravity
malaga
##€
mojo
cl
appreciation
41st
##rag
江
306
canada
##ф
##boats
myrtle
calgary
carr
##ban
hypothetical
sensation
suspicious
visitors
→
lark
trans
es
enterprise
fights
mcqueen
ferris
cocktail
immediate
anastasia
utilities
talks
agitated
##ome
hoover
loco
##き
arun
logged
beige
spoon
awards
prescribed
##64
jenna
阿
layne
[unused930]
roundabout
geometry
midtown
1779
suspended
markedly
pigment
slade
eclipse
maximize
embassy
##tana
common
messy
petitions
##tight
##ritan
photon
##王
294
costa
‐
##woods
iss
trading
repetition
##tein
mounted
vedic
contrasts
stamps
build
campuses
niagara
ட
1746
invasion
utah
390
mentor
mascara
winnie
##otte
##bib
##和
[unused194]
##urg
powerplant
shrubs
websites
##utus
exciting
ceremonial
asean
hardy
wilson
##ft
##英
##zel
##itative
stanton
dish
##kai
molten
##psis
1764
rus
[unused157]
con
##liche
consulate
regulate
[unused432]
marcus
colleen
exclusively
thankful
sheer
##rata
407
charlotte
welcome
destinations
##hiff
bony
horizon
##das
patti
orchid
captures
ণ
##peration
wrote
…
given
##yse
##cratic
circa
##oss
collective
sailed
cheer
##to
##7th
##タ
48th
fi
elaborate
##tor
beverley
##lative
##nology
copied
dungeons
think
winters
thesis
superliga
layered
anaheim
teenagers
##cend
outspoken
stepping
global
verde
ɫ
##chemical
##天
mendez
systematically
miner
##logic
chandra
##rem
##nt
incredible
##ར
##aging
aspen
maria
avatar
strung
orgasm
gage
closer
realising
substances
##へ
##eth
original
hesitate
gender
crept
integrate
fighters
turkmenistan
assembly
157
##yama
sweater
##iciencies
dire
გ
##bt
cod
warehouses
ambitions
vishnu
##cal
consul
guggenheim
luzon
conde
greenberg
maitland
88
switzerland
##ezer
existent
illustrate
##ᵃ
stolen
echo
las
everything
rochester
midday
withdrawn
harlow
cody
staggered
smeared
une
354
liberties
formula
lagos
botanical
rna
(
intentionally
competitive
premature
wrists
confederate
playoffs
coins
meath
taluk
ね
##planes
328
delaney
##公
limerick
vineyards
whistling
balloon
##rts
media
departure
publication
arroyo
finer
wal
yacht
irrigation
alright
gotta
robbie
carrie
trapped
marge
##≥
softer
christy
amadeus
ama
shuffled
art
policing
api
##wan
multimedia
arlington
accountable
fields
obliged
wedding
##iro
deformation
nicholson
richly
crown
[unused642]
##iter
denoted
goddard
infantry
harvesting
le
langley
squid
estonian
floor
renee
starring
friend
lines
mortally
##duk
[unused128]
baghdad
hence
seventeen
apprentice
##cking
##fera
cinemas
collections
gig
isolation
ნ
##պ
plunging
'
##の
boston
dei
destroys
picture
inlet
insulin
santo
superintendent
kick
##hosis
##ados
skinner
graz
loan
insistent
frustration
planetary
357
zeta
siegfried
ᴰ
fifteenth
peace
weep
##会
enhancing
sobbed
carolyn
##orra
##isto
falls
rare
romani
execute
##400
simone
##ucci
##lma
##lastic
lyric
sabha
boris
kraft
multitude
lacking
پ
driving
##onda
rhone
##ign
relocation
confronting
fr
restrictions
##lind
##pins
makeup
に
floods
285
wounded
##zia
cloak
amnesty
instituto
lawrence
##moor
##tale
miranda
##ando
angle
coarse
lawson
supermarket
violinist
##‰
gavin
blinding
flame
toledo
effectiveness
force
##dry
nape
summon
signaling
harassed
colder
wolf
dissolved
ornate
##÷
equation
v6
kannada
carrot
swung
lakes
muttered
##島
50th
coma
generating
shelly
man
weighing
tata
estimation
##how
##van
newcastle
##ated
##ass
diffusion
fashion
viceroy
graders
ッ
essentially
##nified
turtle
う
##ono
illustration
adamant
##hri
indirect
linux
domains
bonding
sioux
indication
72
coincidence
philharmonic
##under
debut
lille
briggs
[unused191]
##ona
##ndt
arrived
ভ
unfinished
##rest
231
cds
fraudulent
graeme
[unused852]
tasted
1881
dillon
georgie
insurgency
lunch
mushrooms
interned
sebastien
ji
fibre
huskies
duly
existing
role
survived
leaping
mammal
militant
pounded
lifts
slovene
##selle
yugoslav
##dl
maps
healer
intensely
penetrated
##wat
[unused550]
trent
##ʋ
##亻
teenage
tiles
##gara
39
racehorse
meter
dresden
defects
chandler
exclude
defunct
##athlon
obsidian
damp
rebels
undergone
canberra
##isk
lars
debts
##raphic
##ত
##ople
album
big
月
intersect
assessed
anne
syrian
hurley
oceans
rope
glazed
afterlife
pp
wooded
congressman
rings
db
##寺
publicized
correspondence
flaws
multiplied
##trom
ransom
representative
unfortunately
westwood
##ci
undefeated
##zak
##torium
brian
earle
##ire
liu
piano
scots
sorts
eh
##liga
800
coached
elves
rivalry
rory
grover
dane
valkyrie
estadio
fragment
1644
dream
outstanding
·
garfield
##raf
##birds
dad
##llo
smallpox
battalions
suburb
580
blizzard
wardrobe
##mering
buccaneers
benton
georgia
solely
##jak
##sio
submitted
handler
efficiently
faster
bulldog
dowry
slight
addressed
lookout
appealing
jenny
109
eligibility
##ouin
##ulated
crimson
waited
[unused581]
tate
ц
tub
আ
flipping
keller
elevators
bend
cheaper
##sle
kin
catalina
journalists
reader
wakes
motifs
##cus
fired
monks
such
##rrard
banged
september
archaeologist
broadcasting
mats
地
slicing
bungalow
nodded
##tip
measurement
cambridgeshire
##sco
monastic
subscribers
##out
mutants
1898
sleeping
teach
[unused497]
fargo
##hall
##kha
listeners
[UNK]
##uo
chances
systematic
profound
##pod
befriended
[unused479]
bilateral
raiding
pick
158
reg
field
##bular
adds
brant
halle
banning
##taro
elise
[unused433]
chaired
euros
eurovision
1771
ib
invasive
benign
##थ
david
savanna
dazed
##abe
##izzly
oro
##~
letters
dentist
crystalline
wight
##ன
##di
##ʿ
choice
directly
##vo
ceded
disney
watford
traumatic
partnerships
hindwings
[unused836]
[unused158]
foundations
sentinel
dutton
620
##tics
tender
crowns
honeymoon
horrors
franklin
boutique
spines
strategically
umbrella
##acle
##swell
cao
##uber
gambia
##lica
prairie
117
[unused493]
##rsa
##ส
tucker
##lee
aquarium
[unused457]
february
prevent
hop
jump
##bilis
paint
bored
##dell
analytic
##о
##gers
pioneer
deck
baton
photographers
joachim
##rell
美
possess
l
editions
##stones
##uman
##е
##itarian
eun
imminent
severed
‒
primaries
##ᄐ
excelled
ballast
ר
##resses
defendant
diminished
shooters
mix
assam
voivodeship
exodus
chips
enzo
1973
##tite
##ক
intensity
haiti
dominated
munchen
prey
hurled
mma
accumulation
fuzzy
sq
hickory
detailed
supports
vr
خ
く
##evich
州
з
ulster
[unused494]
##kic
barrister
stalking
##you
tremble
translating
semitic
[unused125]
syndicated
sandstone
punched
[unused530]
academics
stepfather
##imi
gloria
##oked
wehrmacht
levine
documentary
super
[unused394]
##lov
in
23rd
gs
intimidation
outside
whirled
globalization
rutland
[unused986]
pau
##ega
1692
funny
##門
relate
woodrow
[unused740]
antenna
##breakers
buddies
toured
which
[unused511]
##ふ
sculptures
blows
smelling
##ami
1701
cong
narayan
##有
trade
swirl
[unused102]
progressively
providence
actions
protest
risks
mormon
desperate
whichever
storage
[unused699]
##gaon
evidenced
hire
##pia
convict
ata
lovers
robots
euro
purposely
##vot
interfaces
divert
barbados
thrust
virginia
##福
##ff
[unused809]
##け
[unused518]
[unused892]
##gra
95
coordinate
wasp
1941
dinner
##tec
roommate
loosely
twinkle
capability
depicts
##llan
anarchy
leg
##pathy
[unused535]
perished
″
echoed
waves
##pore
reorganized
##hma
callahan
contemplated
assisted
excitedly
##enia
allie
followers
britney
saxon
real
##night
consultation
fails
jogged
ი
latter
阝
[unused628]
nair
omitted
delicious
monumental
[unused366]
##ː
sicilian
klein
##ron
harley
thumped
chopper
##minate
badly
redistribution
connacht
milk
##ctum
gwen
1621
fundraising
phelps
malik
##writer
influx
sue
##anor
advocates
barred
ellison
fang
trustee
1b
yankees
walsall
mantle
[unused272]
picnic
rattled
civilians
knuckles
giggles
reinforcement
remix
suffering
##ckle
##ffled
wholesale
##།
##isches
octopus
confirmed
troop
reminded
beds
貝
aidan
lacked
##fer
##ظ
helmet
seem
thumb
wexford
motto
curious
rutherford
##ls
abolitionist
reformed
interests
testimony
##offs
migration
清
connolly
##boot
##rde
entrepreneur
enabled
##hyl
loudly
montgomery
##bbled
miniature
monitoring
kilometre
##mers
mca
baltic
its
atomic
##sal
9th
crawley
vampire
##makers
neoclassical
andrey
receives
stores
drying
heir
outdated
##下
monroe
talking
cavalry
uncertain
specialized
moi
high
trek
coat
acclaim
brigadier
alderman
everton
subspecies
poets
presents
billion
communicate
crawled
[unused500]
barrington
atlas
english
battered
hating
morality
nod
##国
##nge
##leg
enigma
nouvelle
spain
[unused725]
##iii
affects
chesterfield
cubs
failing
yarmouth
scheduled
##hh
##„
czech
##es
remained
colombo
beaumont
tumor
croatia
345
ᆯ
donors
congressional
reeves
aires
##tail
barns
reduced
limp
xp
villas
artist
bottoms
vacated
jedi
made
##lp
cannes
##gas
...
remember
##dom
superman
£
ease
accounts
##oire
booster
bourne
toy
hilary
##uto
##uted
visits
quoting
[unused461]
transport
[unused727]
[unused798]
shouts
woodstock
pd
evil
govern
interstate
holland
jammu
tier
##anial
alfa
brew
##day
pasta
charity
ruining
fingers
feminine
dawned
waterways
withdrawing
firefighters
大
guidelines
handles
reiterated
carried
##eding
amp
##iating
♦
##rly
specifications
##yman
honours
inspirational
##½
[unused185]
1776
caste
##xious
nouns
§
ذ
environments
pumped
ब
epidemic
capitals
dos
people
[unused252]
sharing
blossoms
siding
taxis
ascent
boys
[unused154]
tna
oaxaca
bluegrass
peculiar
##pur
reduce
trials
##ype
athens
infinity
##than
ravens
inability
##iso
##lier
agnes
chocolate
chong
lu
moans
isles
japan
parker
##rdial
##ord
‰
##sley
internally
##ffle
smoky
succumbed
legally
sud
[...]
